<pad>	0
<s>	0
</s>	0
<unk>	0
.	-3.48368
▁.	-3.49678
,	-4.1025
▁the	-4.19189
▁>	-4.3399
▁이	-4.37841
▁하	-4.44258
▁을	-4.44353
▁는	-4.453
▁to	-4.56497
'	-4.6577
▁습니다	-4.71997
▁에	-4.7231
▁I	-4.74286
▁you	-4.783
▁a	-4.79046
▁,	-4.80585
▁있	-4.82503
▁and	-5.0064
▁를	-5.01899
▁의	-5.02908
▁가	-5.05088
s	-5.07182
▁	-5.07762
▁은	-5.09638
▁of	-5.09664
▁is	-5.11552
▁고	-5.14579
▁it	-5.18137
▁한	-5.41085
▁in	-5.45058
▁for	-5.49342
▁저	-5.53652
?	-5.54716
▁수	-5.57023
▁that	-5.5764
▁?	-5.61598
▁합니다	-5.66267
▁주	-5.71841
▁도	-5.76151
▁해	-5.76815
▁입니다	-5.78983
▁can	-5.81156
▁것	-5.83736
▁으로	-5.84974
▁시	-5.85739
▁are	-5.89409
희	-5.90884
▁with	-5.91441
▁들	-5.91681
▁어	-5.92368
▁되	-5.92511
-	-5.92991
▁게	-5.93403
▁기	-5.93664
▁할	-5.96101
▁그	-5.96107
▁be	-5.96469
▁다	-5.96856
▁your	-5.97403
▁로	-5.98595
▁we	-5.99416
▁have	-5.9971
▁this	-6.02195
▁will	-6.0341
▁에서	-6.05276
▁지	-6.05622
▁It	-6.11706
t	-6.13535
▁아	-6.19661
▁면	-6.2099
▁제품	-6.23528
▁겠	-6.24158
▁on	-6.28846
▁our	-6.29558
▁We	-6.30724
▁과	-6.32147
▁The	-6.35673
▁BBB	-6.37168
m	-6.40697
▁as	-6.44374
▁나	-6.45691
▁so	-6.46311
▁적	-6.47604
▁와	-6.49814
▁었	-6.50448
▁like	-6.50947
게	-6.54247
▁FFF	-6.55075
▁했	-6.58561
▁product	-6.59991
▁우리	-6.6243
▁좋	-6.63149
▁거	-6.64044
▁company	-6.64749
▁me	-6.66443
서	-6.66694
▁보	-6.6707
▁AAA	-6.67385
▁일	-6.67683
기	-6.6834
▁not	-6.71422
▁at	-6.7152
▁from	-6.72728
▁만	-6.73159
▁was	-6.73231
▁인	-6.73684
▁않	-6.74687
▁세요	-6.74756
▁네	-6.75864
사	-6.77263
▁time	-6.77653
▁때	-6.79
▁about	-6.79084
▁an	-6.79602
▁제	-6.81097
▁사용	-6.81543
▁1	-6.8161
▁님	-6.8356
▁has	-6.83888
▁by	-6.84287
▁같	-6.84981
▁You	-6.86063
▁if	-6.8662
▁없	-6.86677
▁there	-6.87176
▁야	-6.87549
신	-6.88029
▁also	-6.88124
▁but	-6.88456
▁If	-6.91834
▁do	-6.92123
히	-6.92226
▁회사	-6.9415
▁my	-6.94864
▁안	-6.96863
▁드리	-6.96924
▁내	-6.98274
▁더	-6.98608
▁가능	-6.99068
▁2	-7.00058
▁would	-7.00464
▁all	-7.01882
ll	-7.03498
▁know	-7.03892
▁받	-7.05332
▁어요	-7.05959
▁아니	-7.06065
▁think	-7.07078
지	-7.08712
▁당	-7.08864
▁This	-7.09146
▁신	-7.11609
▁된	-7.11843
▁전	-7.12938
▁여	-7.1497
싶	-7.15088
▁products	-7.15186
▁알	-7.16104
▁more	-7.16362
▁드립니다	-7.17367
▁에게	-7.17706
▁됩니다	-7.1776
▁good	-7.18029
▁or	-7.19532
▁want	-7.19985
▁잘	-7.20631
▁주문	-7.20918
▁고객	-7.21095
▁오	-7.21463
▁원	-7.22217
▁실	-7.23111
▁us	-7.23242
▁please	-7.23523
▁right	-7.24273
▁귀	-7.25133
ing	-7.26218
▁대해	-7.27
▁3	-7.27609
▁one	-7.27766
▁모	-7.28157
▁많	-7.29622
▁Yes	-7.29905
▁는데	-7.30021
▁까지	-7.30099
하	-7.30616
▁감사	-7.30764
▁분	-7.31466
▁been	-7.32818
▁보내	-7.33281
▁개	-7.33571
▁자	-7.33606
▁don	-7.33856
거	-7.34099
자	-7.34454
▁when	-7.35318
▁았	-7.35475
re	-7.35921
▁because	-7.36161
▁번	-7.37127
I	-7.37312
▁out	-7.37608
▁very	-7.3793
리고	-7.3937
▁중	-7.39549
인	-7.4045
▁확인	-7.41083
▁제공	-7.41379
▁지금	-7.41494
음	-7.41832
리	-7.42359
도	-7.42592
▁시간	-7.43151
▁연락	-7.44073
▁물	-7.44257
▁도록	-7.44951
▁귀하	-7.46267
d	-7.46818
▁생각	-7.46845
▁사	-7.46868
▁use	-7.46874
▁바랍니다	-7.47462
▁죠	-7.47725
▁필요	-7.48046
문	-7.48143
▁Please	-7.48836
▁new	-7.50822
▁up	-7.51018
트	-7.51514
▁가지	-7.51829
▁In	-7.52718
▁대한	-7.5375
▁make	-7.53854
▁위해	-7.54359
▁형	-7.54494
▁now	-7.55054
▁need	-7.55412
▁get	-7.55447
▁이번	-7.55727
▁대	-7.5574
▁셨	-7.5653
▁나요	-7.57169
▁order	-7.57422
▁any	-7.58055
▁And	-7.58387
▁what	-7.58712
▁께	-7.5894
▁성	-7.58987
이	-7.59389
든	-7.60271
▁much	-7.60693
▁So	-7.61133
!	-7.62186
▁다른	-7.62472
시	-7.63101
장	-7.6366
▁될	-7.6397
▁한국	-7.64643
▁10	-7.64863
▁really	-7.6496
▁just	-7.65291
▁There	-7.66029
▁first	-7.66201
▁go	-7.66899
▁또한	-7.67669
▁5	-7.68098
▁who	-7.6822
및	-7.68268
▁other	-7.69253
▁!	-7.69734
▁서	-7.69937
▁business	-7.70334
▁너무	-7.71351
▁그렇	-7.71754
▁문제	-7.71957
▁라고	-7.72185
▁용	-7.72696
▁price	-7.73475
▁구매	-7.73613
▁lot	-7.7396
▁only	-7.74074
▁contact	-7.74231
▁해야	-7.74791
▁well	-7.74914
나	-7.75034
▁send	-7.75226
▁Our	-7.76452
스	-7.77273
▁they	-7.77352
▁사람	-7.7737
▁two	-7.77391
▁라	-7.77601
▁말	-7.77682
▁해서	-7.77777
▁좀	-7.78184
▁셔서	-7.78206
▁than	-7.78326
▁배송	-7.78329
▁가격	-7.78451
▁많이	-7.78812
▁here	-7.78956
▁뭐	-7.79418
▁going	-7.79763
▁그래서	-7.80138
▁으면	-7.80186
▁them	-7.80323
▁지만	-7.81757
▁서비스	-7.82082
▁등	-7.82198
▁여기	-7.82771
▁맞	-7.82819
▁work	-7.82958
▁What	-7.83393
▁people	-7.83767
▁다고	-7.84031
▁년	-7.84109
▁알려	-7.8416
▁made	-7.845
▁함께	-7.85106
▁이렇	-7.85244
▁요	-7.85281
▁후	-7.85318
▁too	-7.85345
▁그것	-7.85443
▁possible	-7.85492
▁두	-7.85875
▁no	-7.86181
▁should	-7.86592
▁But	-7.86683
▁차	-7.86833
▁take	-7.87597
▁또	-7.8771
▁진짜	-7.88039
로	-7.88245
▁네요	-7.88287
▁were	-7.88369
▁다시	-7.88712
▁상품	-7.88982
▁how	-7.89064
▁그런데	-7.89587
▁상	-7.8968
▁check	-7.89887
▁며	-7.89901
▁말씀	-7.90787
▁어떻	-7.91092
▁진행	-7.91259
▁next	-7.91328
▁after	-7.91347
▁am	-7.91546
▁먹	-7.92094
간	-7.92338
▁used	-7.92367
▁let	-7.92942
▁화	-7.9331
▁아요	-7.9342
▁던	-7.93453
▁he	-7.93736
일	-7.94898
▁see	-7.95328
▁길	-7.95455
▁many	-7.95564
▁Thank	-7.95607
▁오늘	-7.95847
가	-7.96401
▁다면	-7.96703
▁meeting	-7.9683
▁였	-7.97078
▁Korea	-7.97102
▁소개	-7.97121
▁정말	-7.97238
▁따라	-7.97833
재	-7.98342
정	-7.98458
▁4	-7.98828
It	-7.99191
▁부	-7.99989
▁매우	-8.00461
양	-8.00504
▁However	-8.0083
▁이제	-8.01204
▁메일	-8.01339
▁맛	-8.01868
▁That	-8.0194
▁안녕	-8.02378
▁help	-8.02435
▁데	-8.02695
▁again	-8.02715
▁look	-8.0295
▁미	-8.03068
ve	-8.03307
▁last	-8.03496
▁세	-8.04225
▁어떤	-8.04407
▁기술	-8.04437
체	-8.04646
▁hope	-8.04684
▁다는	-8.04706
▁니	-8.04789
▁long	-8.04826
품	-8.05341
지만	-8.05491
▁high	-8.06531
▁팀	-8.06539
▁through	-8.06569
▁경우	-8.06579
▁점	-8.06606
▁만들	-8.06658
▁some	-8.07167
▁그럼	-8.07196
▁부터	-8.07281
▁무	-8.0779
▁어서	-8.08522
▁현	-8.09104
▁customers	-8.09144
▁A	-8.09276
▁계	-8.09371
드	-8.09409
▁As	-8.09914
▁보다	-8.10035
▁는지	-8.10283
▁even	-8.10431
▁월	-8.11329
션	-8.11516
▁How	-8.11788
▁씨	-8.12455
▁판매	-8.12522
▁몇	-8.12806
▁하나	-8.13036
▁give	-8.13126
▁such	-8.13331
량	-8.134
▁day	-8.13754
▁soon	-8.13764
▁delivery	-8.14039
▁집	-8.14202
▁습니까	-8.14207
▁team	-8.14298
전	-8.14331
저	-8.14365
▁week	-8.14404
▁려고	-8.14525
부	-8.15127
▁days	-8.15959
▁마	-8.16185
▁Then	-8.16293
▁사항	-8.1641
1	-8.16478
▁불	-8.16631
팅	-8.16766
▁약	-8.16769
▁본	-8.168
단	-8.16806
▁정도	-8.17221
▁contract	-8.17325
▁기능	-8.17501
▁"	-8.18435
▁찾	-8.19283
▁come	-8.19619
▁year	-8.19904
▁디자	-8.20175
▁준비	-8.20401
▁구	-8.20592
▁won	-8.20605
▁which	-8.20621
▁달	-8.20807
▁부탁	-8.20926
▁예정	-8.21272
으시	-8.2199
▁email	-8.22427
...	-8.22563
▁선	-8.22749
▁information	-8.22827
▁날	-8.23129
▁예요	-8.23134
▁개발	-8.23276
▁통해	-8.23605
▁food	-8.23611
▁소	-8.23757
▁problem	-8.24174
▁Oh	-8.24531
▁십시오	-8.24545
▁명	-8.24566
▁three	-8.24567
어	-8.24617
▁바로	-8.24661
▁공	-8.24718
▁before	-8.24884
▁당사	-8.25349
물	-8.25386
▁생산	-8.25674
▁이상	-8.25765
▁did	-8.26314
분	-8.26345
▁계약	-8.26354
▁best	-8.26628
You	-8.27436
▁요청	-8.27868
▁20	-8.27873
▁introduce	-8.2823
▁언제	-8.28397
▁가장	-8.28592
▁혹시	-8.28592
▁위한	-8.28649
▁비	-8.28656
▁모두	-8.29018
▁ask	-8.29071
▁%	-8.29315
구	-8.2935
▁고자	-8.30243
실	-8.3031
터	-8.30361
▁today	-8.30391
질	-8.30659
▁buy	-8.30686
▁추가	-8.30778
▁그러	-8.30784
▁못	-8.30842
▁정보	-8.30853
수	-8.3101
▁줄	-8.31337
▁제작	-8.31726
▁동안	-8.32121
▁왜	-8.32231
요	-8.32284
▁number	-8.3275
▁도움	-8.33224
▁Can	-8.33346
▁이용	-8.33437
▁service	-8.33467
▁Korean	-8.34172
▁then	-8.34188
식	-8.34295
직	-8.34456
▁place	-8.35379
▁why	-8.35402
▁이런	-8.35869
▁their	-8.35933
야	-8.36041
▁지난	-8.36197
▁over	-8.36225
▁새로운	-8.36608
▁years	-8.3664
▁way	-8.36642
▁little	-8.36812
▁사업	-8.37081
▁금	-8.37549
▁technology	-8.37574
▁using	-8.37682
▁건	-8.3776
▁관련	-8.37839
▁연구	-8.37888
▁feel	-8.38128
▁회의	-8.38635
▁얼마	-8.38705
▁면서	-8.38738
▁said	-8.38873
▁시작	-8.38906
▁person	-8.39001
▁이나	-8.39077
▁업체	-8.39123
▁these	-8.39151
▁water	-8.3936
▁design	-8.3956
▁큰	-8.39968
▁관리	-8.39968
▁예	-8.39986
▁could	-8.40077
▁looking	-8.40282
▁온	-8.40521
▁배	-8.40871
▁앞	-8.41119
▁먼	-8.41282
치	-8.41482
ed	-8.41609
th	-8.41924
▁얘	-8.42396
▁Hello	-8.424
▁without	-8.43029
▁When	-8.43405
Oh	-8.43587
▁쉽	-8.43748
▁회	-8.43863
▁eat	-8.43868
▁various	-8.43894
▁may	-8.43942
▁진	-8.44119
▁그런	-8.44595
▁sorry	-8.44772
▁재	-8.44965
▁each	-8.4519
▁No	-8.45432
력	-8.45489
▁6	-8.45574
▁back	-8.45716
▁괜찮	-8.46063
▁same	-8.46521
▁100	-8.46717
▁포함	-8.47021
▁Do	-8.47083
▁예약	-8.473
▁전화	-8.47582
▁높	-8.47875
▁purchase	-8.47881
있	-8.47954
한	-8.48026
▁sent	-8.48172
▁30	-8.48188
▁상황	-8.48641
▁most	-8.48644
▁최	-8.48702
▁이것	-8.48821
▁tell	-8.48907
▁quality	-8.48992
▁provide	-8.49132
소	-8.49599
▁음식	-8.49666
▁free	-8.49677
▁into	-8.49736
▁너	-8.49843
2	-8.49892
감	-8.49993
▁관심	-8.50098
▁hard	-8.50231
▁didn	-8.50295
▁그러면	-8.5057
▁드릴	-8.50871
▁아이	-8.50945
냥	-8.50964
▁입	-8.51356
▁스	-8.51825
▁pay	-8.51903
▁different	-8.52164
▁customer	-8.52487
▁시스템	-8.52899
▁봐	-8.52928
경	-8.53052
▁방문	-8.53406
▁while	-8.53467
▁죄송	-8.53679
▁바	-8.54322
▁had	-8.54467
▁에요	-8.54474
원	-8.54778
▁장	-8.54926
▁month	-8.55408
▁직원	-8.55412
▁볼	-8.55728
면	-8.55746
▁니까	-8.55926
▁7	-8.5597
▁easy	-8.55973
당	-8.56155
▁received	-8.56349
▁ordered	-8.56486
▁better	-8.57068
약	-8.57281
상	-8.57709
▁able	-8.57964
▁출	-8.58028
▁system	-8.58171
▁왔	-8.58182
▁where	-8.58597
▁일정	-8.58654
▁room	-8.588
▁change	-8.58964
▁something	-8.59231
▁방	-8.59273
▁사실	-8.59308
▁함	-8.59392
▁away	-8.59417
속	-8.59422
▁드렸	-8.59512
▁great	-8.59521
넣	-8.5975
▁선택	-8.59822
럽	-8.59911
▁문	-8.60051
▁already	-8.60691
▁빨리	-8.60836
▁간	-8.60951
▁비용	-8.61145
▁조금	-8.61159
▁addition	-8.61577
▁companies	-8.61676
▁반	-8.61761
▁변	-8.61908
▁date	-8.61985
▁처	-8.62025
점	-8.6212
▁First	-8.62338
▁due	-8.62422
▁thank	-8.6245
▁을까요	-8.62467
▁must	-8.62474
▁sales	-8.62475
▁receive	-8.6251
▁set	-8.62607
▁questions	-8.6312
▁걸	-8.63179
성	-8.63432
▁중요	-8.63543
요일	-8.63549
▁부분	-8.63801
번	-8.6417
▁거래	-8.64171
▁schedule	-8.64505
▁payment	-8.64775
메일	-8.64858
▁home	-8.64981
▁visit	-8.6519
▁는데요	-8.6525
▁처리	-8.65286
근	-8.65331
▁해요	-8.6538
▁돼	-8.65416
▁always	-8.65495
금	-8.65679
고	-8.65809
▁put	-8.65839
▁around	-8.66192
▁Let	-8.66321
국	-8.66464
▁작업	-8.67365
대	-8.67561
▁해외	-8.67564
▁손	-8.67568
▁발	-8.67889
▁e	-8.67926
▁직접	-8.68043
▁추천	-8.68044
▁제안	-8.68115
보	-8.68135
▁매	-8.68183
▁~	-8.68269
▁참	-8.68376
▁(	-8.68509
▁amount	-8.68558
▁파	-8.68561
▁궁금	-8.68713
▁공급	-8.69038
▁Is	-8.69197
▁할인	-8.69236
▁호텔	-8.69746
▁market	-8.69816
▁say	-8.69944
▁Therefore	-8.70118
▁heard	-8.70342
▁시장	-8.70351
▁유지	-8.70411
비	-8.70423
▁방법	-8.7047
▁skin	-8.70503
▁cost	-8.70644
▁data	-8.70658
▁별	-8.70677
론	-8.70723
▁still	-8.71045
▁They	-8.71437
▁곳	-8.71681
후	-8.71751
▁together	-8.71831
▁전문	-8.71886
▁기업	-8.72107
▁됐	-8.72394
▁sure	-8.73115
액	-8.73136
▁8	-8.73334
제	-8.73375
태	-8.73418
▁services	-8.73456
▁없이	-8.7352
▁잡	-8.73584
▁지불	-8.73689
▁down	-8.73695
▁process	-8.74095
▁여러분	-8.74405
우	-8.74537
▁라는	-8.74835
▁같이	-8.7518
▁열	-8.75312
▁try	-8.75894
▁거나	-8.75981
▁case	-8.75997
▁계획	-8.76
▁production	-8.7609
▁available	-8.76102
▁He	-8.76437
▁살	-8.76507
▁품질	-8.7654
▁유	-8.76633
의	-8.7666
▁내용	-8.76684
▁이미	-8.76826
▁store	-8.76905
▁For	-8.76991
▁설명	-8.77213
심	-8.77219
주	-8.77293
▁charge	-8.77464
▁누	-8.777
차	-8.78027
진	-8.78031
▁find	-8.78094
▁남	-8.78127
▁도와	-8.78311
▁으신	-8.78341
▁피부	-8.78496
▁12	-8.78501
▁doing	-8.7891
▁줍니다	-8.79065
▁restaurant	-8.79243
▁15	-8.7925
▁위	-8.7927
▁어야	-8.79352
▁does	-8.79393
▁마음	-8.7943
▁course	-8.79952
▁him	-8.79978
▁future	-8.80016
▁달러	-8.80289
▁무엇	-8.80356
▁특	-8.80569
▁결과	-8.80679
▁각	-8.80762
는	-8.81087
▁reply	-8.8112
▁forward	-8.81122
▁working	-8.81125
▁Also	-8.81538
▁50	-8.81714
▁양	-8.81775
▁발생	-8.81916
▁important	-8.82086
▁치	-8.82301
▁difficult	-8.82302
▁여러	-8.82342
▁house	-8.82666
▁향	-8.82885
▁kind	-8.83205
▁understand	-8.83224
The	-8.83249
▁게임	-8.83279
▁keep	-8.83467
▁초	-8.83615
▁결정	-8.8362
▁large	-8.83772
▁문의	-8.84575
▁within	-8.84802
▁빠른	-8.84912
▁quickly	-8.84982
▁taste	-8.85262
▁its	-8.85305
▁doesn	-8.85484
▁since	-8.85991
▁discount	-8.86658
입	-8.86729
▁도착	-8.86896
▁hotel	-8.86957
▁세계	-8.87009
러나	-8.87167
▁투자	-8.8721
▁small	-8.87345
▁외	-8.8768
▁이러	-8.87876
▁타	-8.88291
▁things	-8.88339
▁overseas	-8.89031
▁meet	-8.89195
▁겁니다	-8.89197
라인	-8.8954
▁정확	-8.89544
▁최고	-8.8964
▁car	-8.89642
▁이해	-8.89677
▁research	-8.89857
▁음	-8.89904
▁okay	-8.90223
▁sending	-8.9028
내	-8.9028
▁고요	-8.90323
▁구성	-8.90353
▁막	-8.91125
What	-8.91216
▁샘플	-8.9124
No	-8.91445
▁작	-8.91634
▁size	-8.91747
mail	-8.92087
▁편	-8.92201
율	-8.92309
▁감	-8.92312
▁materials	-8.92434
▁갖	-8.92465
▁총	-8.92606
▁got	-8.9283
▁새	-8.92861
▁money	-8.92868
▁아서	-8.9306
▁being	-8.93077
▁once	-8.93101
▁아무	-8.93125
▁적용	-8.9316
▁making	-8.93253
▁color	-8.93416
▁첨부	-8.93474
▁off	-8.93616
▁she	-8.93661
▁world	-8.94136
▁설	-8.9421
▁website	-8.94346
▁단	-8.9449
▁every	-8.9467
건	-8.94774
▁during	-8.95362
편	-8.95372
▁thought	-8.95591
n	-8.95614
▁건강	-8.95786
▁걱정	-8.95833
폰	-8.96192
▁재고	-8.96286
▁All	-8.96394
▁yet	-8.96883
▁편안	-8.96995
▁해결	-8.97014
빠	-8.97044
▁제조	-8.97127
▁업무	-8.97213
▁대로	-8.97372
▁total	-8.97577
▁자세	-8.97695
▁인데	-8.97704
▁easily	-8.97716
래	-8.97777
▁연결	-8.97796
▁phone	-8.97914
▁쓰	-8.9804
▁anything	-8.98072
▁거든요	-8.98282
▁친	-8.98284
▁한테	-8.98568
▁provides	-8.98657
▁조	-8.98701
▁지역	-8.98755
▁end	-8.98907
▁프로젝	-8.98915
▁office	-8.99139
▁reservation	-8.99505
▁call	-8.99595
▁데이터	-8.99636
▁뿐	-8.99949
▁기간	-8.99971
▁Okay	-9.00004
생	-9.00165
▁name	-9.00209
▁interested	-9.00274
▁My	-9.00279
▁기대	-9.0039
▁start	-9.0051
▁은데	-9.00512
▁both	-9.00533
▁online	-9.00534
존	-9.00551
▁드	-9.00667
증	-9.00734
▁보험	-9.00971
▁종류	-9.01202
▁지원	-9.01204
▁번호	-9.01225
▁body	-9.01326
▁최대	-9.01363
▁real	-9.01402
때	-9.01576
▁효과	-9.01675
▁situation	-9.01683
▁확	-9.01705
▁part	-9.01954
▁담당	-9.01973
▁식	-9.02053
▁additional	-9.02071
▁hair	-9.0217
▁those	-9.0228
▁항상	-9.02499
▁협력	-9.02744
반	-9.02829
▁설치	-9.03076
▁봤	-9.0309
▁사진	-9.03126
▁plan	-9.03158
▁으며	-9.03809
▁꼭	-9.03968
▁air	-9.04026
▁환	-9.04077
▁처럼	-9.0408
▁request	-9.04143
▁details	-9.04208
▁recommend	-9.04231
▁9	-9.04288
▁another	-9.04507
회	-9.0453
다리	-9.04601
▁영업	-9.04627
▁life	-9.04711
▁든	-9.04743
▁모르	-9.04813
▁일반	-9.04879
▁)	-9.04965
▁Are	-9.05019
▁power	-9.05175
▁뒤	-9.05322
▁경험	-9.05323
▁sell	-9.05333
▁inform	-9.05397
He	-9.05564
▁한다	-9.05694
▁답변	-9.05927
▁노력	-9.06048
▁색상	-9.06355
만	-9.06363
▁놓	-9.06503
▁이유	-9.06534
▁인지	-9.06561
색	-9.06648
▁환경	-9.06755
▁모델	-9.06756
대로	-9.06803
어가	-9.0685
불	-9.07052
웨어	-9.07087
▁이야기	-9.07263
추	-9.07274
▁big	-9.07312
▁그러니까	-9.07314
▁care	-9.07413
▁advance	-9.07449
That	-9.07618
위	-9.07684
▁came	-9.0778
해	-9.07781
▁few	-9.07816
▁미국	-9.07837
선	-9.08281
▁experience	-9.08291
▁권	-9.08643
짜	-9.08643
▁관	-9.08719
▁own	-9.08819
▁per	-9.08834
▁크	-9.09436
▁째	-9.09527
▁공장	-9.09682
▁보여	-9.09725
▁돈	-9.0975
▁offer	-9.09969
▁enjoy	-9.09998
▁목	-9.10057
▁project	-9.1019
▁equipment	-9.10359
▁안전	-9.10387
▁빠르	-9.1043
▁between	-9.10605
▁contacting	-9.10876
▁활용	-9.10891
▁위치	-9.11074
▁생	-9.11364
▁그래	-9.11508
민	-9.11658
▁보호	-9.11666
▁-	-9.11686
▁his	-9.11697
▁insurance	-9.11762
▁answer	-9.11927
▁더욱	-9.12126
▁manager	-9.12138
▁talk	-9.12193
▁아주	-9.12207
어디	-9.12371
▁sample	-9.12547
오	-9.12611
▁space	-9.12625
▁사이트	-9.1269
▁딱	-9.12858
▁장비	-9.12936
▁development	-9.13121
▁스마트	-9.1326
▁잖아	-9.13284
▁done	-9.13315
슨	-9.13408
▁enough	-9.13438
▁currently	-9.13534
▁material	-9.13539
▁light	-9.13546
▁홈	-9.13557
▁얻	-9.13676
▁정	-9.13772
ly	-9.1386
계	-9.1398
▁rice	-9.14003
y	-9.14163
▁Why	-9.14204
▁delivered	-9.14261
▁children	-9.14392
▁show	-9.1446
▁special	-9.14833
▁하루	-9.14885
▁우	-9.15125
▁open	-9.15126
▁코	-9.15144
료	-9.15163
▁프로그램	-9.15204
츠	-9.1526
But	-9.15861
▁function	-9.15912
▁끝	-9.1602
▁랑	-9.16185
▁나오	-9.16674
▁설계	-9.1683
▁충분	-9.17044
▁첫	-9.17148
▁인가요	-9.17211
▁bit	-9.17305
We	-9.17355
▁management	-9.17468
▁소프트	-9.17557
안	-9.17636
▁sir	-9.1768
▁video	-9.17895
▁event	-9.17936
▁웹	-9.17989
▁소재	-9.18388
This	-9.18556
▁채	-9.18639
화	-9.18732
▁increase	-9.18747
▁기회	-9.18761
▁nice	-9.18852
▁attached	-9.18871
▁셔야	-9.18984
▁far	-9.19081
Hey	-9.19136
▁보관	-9.19161
▁개인	-9.19167
▁everything	-9.19176
▁우선	-9.19383
▁요리	-9.19405
▁역	-9.19636
롭	-9.19888
▁With	-9.19913
▁다가	-9.19943
▁times	-9.20219
▁믿	-9.20285
러	-9.20446
▁가요	-9.2069
▁appreciate	-9.21023
목	-9.21023
▁side	-9.21062
▁올	-9.21116
▁장치	-9.21138
▁피	-9.2157
▁Since	-9.21687
▁ingredients	-9.21701
▁performance	-9.21722
디	-9.21808
▁Dear	-9.2185
▁완료	-9.21885
▁밖	-9.21916
▁자동	-9.21934
▁clean	-9.21964
▁셔	-9.22039
▁눈	-9.22077
▁area	-9.22094
▁ago	-9.22203
▁질	-9.22412
▁her	-9.22555
▁Your	-9.22789
업	-9.22803
운	-9.22812
▁즐	-9.22885
래도	-9.22886
니	-9.22895
▁wholesale	-9.22913
지막	-9.2294
▁만나	-9.23087
▁운영	-9.23215
▁최대한	-9.2324
▁choose	-9.23247
▁미리	-9.23314
▁After	-9.23501
▁found	-9.23762
로그	-9.23949
▁일부	-9.23996
▁tomorrow	-9.24167
▁인해	-9.24222
▁오래	-9.24434
▁강	-9.24703
▁방식	-9.24743
▁적합	-9.24803
▁잠	-9.24818
▁Hey	-9.24836
▁전기	-9.24843
▁comes	-9.24851
in	-9.24968
▁광고	-9.25077
▁내일	-9.25171
중	-9.25372
▁여행	-9.2544
▁작동	-9.25595
▁기계	-9.25626
▁내부	-9.25811
▁전달	-9.25911
▁대표	-9.26259
▁참석	-9.26319
▁키	-9.26354
▁items	-9.26398
▁결제	-9.26421
▁효	-9.26513
▁hours	-9.26618
적	-9.26635
▁planning	-9.26675
▁comfortable	-9.26745
▁브랜드	-9.2698
▁deliver	-9.2704
▁친구	-9.27319
▁카메라	-9.27325
▁happy	-9.27561
쪽	-9.27566
▁사이즈	-9.27673
▁취소	-9.27673
▁완전	-9.27703
씩	-9.27764
아	-9.27784
So	-9.27819
▁type	-9.27869
▁low	-9.27871
▁thing	-9.28174
▁사장	-9.28229
▁employees	-9.28309
▁minutes	-9.28371
▁five	-9.28422
애	-9.28424
▁trip	-9.28513
▁속	-9.28553
▁software	-9.28558
피	-9.28701
▁특별	-9.28732
▁라면	-9.28798
▁재료	-9.28916
▁proceed	-9.28918
▁으실	-9.29027
▁휴대	-9.29214
역	-9.29218
▁질문	-9.29343
▁excellent	-9.29456
▁machine	-9.29458
al	-9.29627
▁support	-9.29753
▁Mr	-9.29762
▁prepare	-9.29922
▁만족	-9.30062
▁control	-9.3016
▁충전	-9.30328
▁To	-9.30371
▁morning	-9.304
▁11	-9.304
▁according	-9.30462
루	-9.3051
▁game	-9.30706
▁months	-9.30911
▁stock	-9.30962
▁드린	-9.31108
▁자료	-9.31218
▁apologize	-9.31225
▁These	-9.31316
▁책	-9.31334
▁quantity	-9.31353
즈	-9.31503
▁interest	-9.31573
▁성공	-9.31692
▁wait	-9.31975
▁방지	-9.3206
▁left	-9.32065
▁비즈니스	-9.32137
조	-9.32461
▁해도	-9.32463
▁늦	-9.32506
▁dollars	-9.32598
▁add	-9.32681
▁never	-9.32706
▁wrong	-9.32711
▁조건	-9.33042
미	-9.33122
▁자리	-9.33193
▁four	-9.33232
▁popular	-9.33323
▁makes	-9.33409
▁000	-9.33475
▁Because	-9.33729
▁돼요	-9.33735
▁관계	-9.33735
▁식사	-9.33773
▁색	-9.33875
▁country	-9.34017
▁wanted	-9.34111
종	-9.34146
▁asked	-9.3415
▁파일	-9.34192
▁갈	-9.34265
▁developed	-9.3429
▁period	-9.34435
▁통	-9.3445
▁드려	-9.34591
▁포장	-9.34629
외	-9.34655
▁콘	-9.34686
▁보증	-9.34703
▁decided	-9.34774
▁위해서	-9.349
▁second	-9.34903
크	-9.34927
1,	-9.34928
▁인기	-9.34948
Yes	-9.34951
라	-9.34972
석	-9.35102
▁soft	-9.35276
▁세트	-9.35293
▁시키	-9.35361
▁result	-9.35525
▁으니	-9.35577
▁수량	-9.35665
▁인터넷	-9.35779
링	-9.358
▁부동산	-9.35927
▁느낌	-9.3615
▁model	-9.3637
▁잖아요	-9.36561
여	-9.36585
▁hear	-9.36895
▁designed	-9.37001
▁보이	-9.37021
▁트	-9.37035
▁입니까	-9.37125
▁크기	-9.37138
▁성능	-9.37187
▁조절	-9.37245
▁refund	-9.37342
▁소식	-9.37385
▁full	-9.37477
▁proposal	-9.37483
▁device	-9.37594
▁팔	-9.37652
er	-9.37803
▁love	-9.37826
/	-9.37915
용	-9.37979
▁later	-9.37995
▁이름	-9.38125
부분	-9.38279
▁Of	-9.38315
▁mail	-9.38448
▁told	-9.38485
▁factory	-9.3849
▁reason	-9.38511
▁Good	-9.38564
▁until	-9.38676
▁애	-9.38733
▁벌	-9.39212
▁체	-9.39311
▁stay	-9.39349
▁/	-9.39568
▁시켜	-9.3958
▁기억	-9.39603
▁연	-9.3961
▁예상	-9.39724
▁content	-9.40019
만큼	-9.40036
▁department	-9.401
▁지속	-9.40121
▁산	-9.40339
▁어느	-9.40381
▁둘	-9.40383
▁평	-9.40579
▁family	-9.40581
▁검토	-9.40724
▁perfect	-9.40748
▁신다면	-9.40931
▁top	-9.41065
▁p	-9.41191
▁address	-9.41477
▁mind	-9.41619
▁prevent	-9.41763
▁고려	-9.41865
록	-9.4193
▁편리	-9.41955
▁패	-9.42025
▁headquarters	-9.42467
▁problems	-9.43015
▁쪽	-9.43048
▁동물	-9.43111
▁요즘	-9.43133
▁discuss	-9.4323
▁긴	-9.43256
▁checked	-9.43271
▁실제	-9.43351
▁확실	-9.43362
▁제거	-9.43458
▁품	-9.4347
▁released	-9.4347
▁카탈	-9.43486
▁기본	-9.43582
▁needs	-9.43634
▁요구	-9.43647
▁mean	-9.43687
▁컴퓨터	-9.44013
▁fit	-9.44022
There	-9.4403
▁전자	-9.44052
▁동	-9.44055
▁brand	-9.44139
▁백	-9.44164
▁500	-9.44452
▁delicious	-9.44481
▁oil	-9.4452
▁사무실	-9.44581
▁200	-9.44697
▁shipping	-9.44775
▁군요	-9.44946
▁TV	-9.45021
▁토	-9.45207
▁line	-9.45386
▁자동차	-9.45492
▁자신	-9.45551
▁seems	-9.45629
브	-9.45716
▁wear	-9.45757
▁coming	-9.45828
▁단계	-9.45895
▁수출	-9.45964
▁업	-9.46058
▁광	-9.46116
▁40	-9.46132
▁주소	-9.46203
▁natural	-9.46324
▁book	-9.46461
▁지요	-9.46523
▁front	-9.46546
▁Now	-9.46552
▁완벽	-9.46618
▁든지	-9.46636
▁industry	-9.46783
▁main	-9.46818
▁variety	-9.47073
▁actually	-9.47077
▁related	-9.4709
▁아야	-9.47136
듣	-9.47323
▁expected	-9.47384
▁based	-9.47461
▁went	-9.47472
▁continue	-9.47477
▁old	-9.47625
▁hand	-9.47756
▁가져	-9.47939
▁B	-9.48036
▁로부터	-9.48047
▁black	-9.482
▁가족	-9.48215
▁될까요	-9.48379
~	-9.48499
▁cannot	-9.48585
▁sold	-9.48706
▁called	-9.48837
▁견적	-9.49008
프	-9.49013
판	-9.49275
▁haven	-9.49294
▁card	-9.49369
▁운동	-9.49514
▁strong	-9.49626
▁어제	-9.49658
박	-9.49721
▁devices	-9.49916
▁천	-9.49937
▁카드	-9.5005
▁become	-9.50054
▁existing	-9.50074
▁낮	-9.50133
방	-9.50165
▁측	-9.50198
"	-9.50319
▁스타일	-9.50352
▁couldn	-9.50362
▁health	-9.50444
▁논의	-9.50456
발	-9.50485
더	-9.50523
▁rate	-9.50536
명	-9.50541
동	-9.50551
▁results	-9.50574
▁테	-9.50664
▁절	-9.50684
▁applied	-9.50717
▁C	-9.50826
▁메뉴	-9.50925
▁play	-9.51058
▁face	-9.5114
▁국내	-9.51152
▁colors	-9.51299
▁마다	-9.51341
▁ship	-9.51415
배	-9.51444
▁yesterday	-9.51661
▁납품	-9.51718
▁S	-9.51784
▁층	-9.5181
e	-9.52022
▁safe	-9.52051
▁시설	-9.52074
▁hold	-9.52102
▁읽	-9.52185
S	-9.52214
▁move	-9.52428
▁looks	-9.5246
▁changed	-9.52505
에	-9.52559
▁bad	-9.52843
▁sound	-9.52889
▁building	-9.52963
▁계약서	-9.52985
▁종	-9.53011
▁참고	-9.53014
페이	-9.5303
▁might	-9.53106
▁completed	-9.53148
▁types	-9.53159
▁식당	-9.53243
▁saw	-9.53283
▁최소	-9.53341
착	-9.53451
▁지연	-9.5355
▁Even	-9.53554
▁팩	-9.53581
▁앱	-9.53725
▁D	-9.53835
▁추	-9.53907
▁영상	-9.53919
▁unit	-9.53967
▁live	-9.54083
▁청소	-9.54244
▁including	-9.54311
▁supply	-9.54327
▁account	-9.54418
▁아래	-9.54455
▁박	-9.54478
▁create	-9.54519
▁soup	-9.54524
▁무료	-9.54529
▁Wow	-9.54583
▁넘	-9.54793
▁곧	-9.54802
▁explain	-9.54848
▁출장	-9.55013
▁자연	-9.55109
▁드릴게요	-9.55429
▁사랑	-9.55528
▁몸	-9.55664
▁hot	-9.55705
▁OK	-9.55729
까	-9.55749
▁행사	-9.56028
▁parts	-9.56079
▁Don	-9.56112
▁건가요	-9.56205
▁cooperation	-9.56287
▁이동	-9.56301
못	-9.56399
▁려면	-9.56487
산	-9.56535
▁test	-9.56659
▁goods	-9.56815
▁송	-9.56853
▁presentation	-9.57226
▁suitable	-9.57388
▁matter	-9.57409
류	-9.57429
▁attention	-9.57433
▁협	-9.57473
형	-9.57524
▁신청	-9.57548
▁inside	-9.57644
▁worry	-9.57823
랑	-9.57852
▁담	-9.57881
▁아침	-9.579
▁기쁩니다	-9.57903
▁list	-9.57903
▁environment	-9.58002
▁특징	-9.58037
▁orders	-9.58074
유	-9.58176
▁less	-9.58223
▁conditions	-9.58224
절	-9.58266
개월	-9.58271
▁waiting	-9.58313
▁아마	-9.58327
▁leave	-9.58339
▁건조	-9.58341
▁construction	-9.58404
급	-9.58522
▁features	-9.5856
Wow	-9.58625
▁weeks	-9.58658
▁심	-9.5866
▁program	-9.58667
▁simple	-9.58718
▁안정	-9.58762
▁under	-9.588
▁결	-9.58835
▁several	-9.58917
▁부담	-9.58978
▁부서	-9.58982
▁else	-9.59057
▁보장	-9.59062
출	-9.59084
▁center	-9.59246
D	-9.59372
▁staff	-9.59472
▁temperature	-9.59509
▁usually	-9.59528
▁Did	-9.59598
▁immediately	-9.59621
날	-9.59676
▁고급	-9.59691
▁어렵	-9.59696
▁러	-9.59942
▁안내	-9.60092
▁유명	-9.60109
▁운송	-9.6014
▁energy	-9.60152
▁교육	-9.60195
▁테스트	-9.60481
▁fee	-9.60506
▁current	-9.60522
통	-9.60541
려	-9.60635
▁듯	-9.60636
▁attend	-9.60663
견	-9.60665
▁호	-9.6067
▁급	-9.60838
▁particular	-9.6108
▁floor	-9.61123
▁냐	-9.61337
▁produce	-9.61373
▁ready	-9.61388
▁마케팅	-9.61425
▁recommended	-9.61566
▁box	-9.61684
▁한다고	-9.61852
렴	-9.62002
▁케이	-9.62016
▁장소	-9.62062
▁steel	-9.62098
다	-9.62118
▁나가	-9.62149
▁battery	-9.62197
▁선적	-9.62233
▁At	-9.6234
▁fun	-9.62346
답	-9.62395
▁힘	-9.62412
▁paid	-9.62447
▁close	-9.62448
▁졌	-9.62471
▁application	-9.62495
▁file	-9.62532
▁recently	-9.62539
▁method	-9.62736
▁requested	-9.62913
▁safety	-9.62923
▁리	-9.62945
▁만든	-9.62963
▁opportunity	-9.62971
▁camera	-9.63038
▁detailed	-9.63083
▁아닙니다	-9.63109
▁간단	-9.63148
▁allows	-9.63275
▁contains	-9.63299
▁센터	-9.63323
▁coffee	-9.63411
▁read	-9.63541
▁believe	-9.63623
▁신뢰	-9.63655
▁교체	-9.63669
A	-9.63684
▁provided	-9.63736
깐	-9.63824
▁convenient	-9.6384
▁watch	-9.63853
▁발송	-9.63901
▁remember	-9.64025
▁산업	-9.6406
▁million	-9.64077
▁개선	-9.64112
▁cm	-9.6412
▁catalog	-9.64147
▁약속	-9.64178
▁getting	-9.64267
길	-9.64315
▁run	-9.64334
▁옷	-9.64375
▁job	-9.64412
습	-9.64465
녀	-9.64495
▁computer	-9.64614
▁review	-9.64618
▁공유	-9.64667
▁fabric	-9.64707
▁분석	-9.64743
▁속도	-9.64775
▁구조	-9.64776
▁point	-9.64868
▁새로	-9.64929
▁red	-9.64947
▁영화	-9.65046
▁조사	-9.6516
파	-9.65168
▁만드	-9.65287
▁head	-9.65369
▁착용	-9.65539
▁라도	-9.65705
▁늘	-9.65743
모	-9.65789
▁having	-9.65884
개	-9.65993
▁smart	-9.66022
▁인상	-9.66034
처	-9.66117
▁대신	-9.66126
▁은행	-9.66285
▁못했	-9.66346
▁25	-9.66514
▁talking	-9.66558
▁성장	-9.6662
▁검사	-9.66657
▁meat	-9.66706
▁작성	-9.66727
▁치료	-9.66765
▁구나	-9.66792
▁발전	-9.66837
▁이후	-9.66899
▁폼	-9.66902
▁따로	-9.6692
향	-9.66978
▁handle	-9.6699
▁국제	-9.67059
▁everyone	-9.67199
▁fine	-9.67292
▁refer	-9.67295
▁security	-9.67301
▁return	-9.67346
▁식품	-9.67374
▁사이	-9.67476
▁24	-9.67534
▁picture	-9.6754
▁share	-9.67851
min	-9.67932
▁contacted	-9.68113
▁purchasing	-9.68371
▁저기	-9.68408
▁confirmed	-9.68483
▁rooms	-9.68486
▁보안	-9.6849
쁘	-9.68502
▁takes	-9.68512
▁Ji	-9.68568
▁added	-9.68623
▁mobile	-9.68628
▁cold	-9.68671
▁past	-9.68729
▁apply	-9.68877
▁One	-9.68951
▁marketing	-9.69126
복	-9.69173
▁sign	-9.69197
▁someone	-9.69359
▁객	-9.69396
▁almost	-9.69455
▁굉장	-9.69507
▁영	-9.69511
▁costs	-9.6957
)	-9.69619
▁파트너	-9.69924
▁찍	-9.69925
▁deposit	-9.70023
▁arrive	-9.70028
텐	-9.7007
▁idea	-9.70111
▁non	-9.70136
▁나와	-9.70164
▁purchased	-9.7017
집	-9.70181
▁차이	-9.70187
▁electric	-9.70204
▁directly	-9.70398
르	-9.70415
▁Just	-9.70454
▁매장	-9.70476
▁prepared	-9.70695
▁공기	-9.7073
If	-9.70791
▁item	-9.70984
r	-9.71168
▁부드	-9.71185
▁form	-9.71216
▁부족	-9.7131
▁delay	-9.71423
각	-9.71459
▁Well	-9.71523
▁솔	-9.71623
▁플랫	-9.71714
▁영향	-9.71806
▁온도	-9.71882
▁cool	-9.72019
▁busy	-9.72035
▁나왔	-9.72134
▁inventory	-9.72193
▁증가	-9.7227
▁located	-9.72355
씬	-9.72407
▁난	-9.72422
▁조정	-9.72425
▁소리	-9.72512
▁storage	-9.72514
▁AI	-9.72514
▁goes	-9.72544
▁news	-9.72587
▁깊	-9.72652
▁fast	-9.72915
▁합니까	-9.72944
▁terms	-9.7301
▁초대	-9.73093
▁커피	-9.73149
젠	-9.73458
▁도매	-9.73599
▁기준	-9.73685
관	-9.73727
▁저녁	-9.73811
혀	-9.73858
▁필터	-9.73871
▁에너지	-9.73888
▁app	-9.7393
▁mistake	-9.73987
3	-9.7408
▁famous	-9.74151
am	-9.7418
▁무선	-9.74193
▁trying	-9.74212
▁덕	-9.74216
▁300	-9.74238
▁relationship	-9.74659
▁노	-9.74746
▁클	-9.74876
▁quite	-9.74899
▁regarding	-9.74907
▁밥	-9.7494
▁어도	-9.75221
▁Once	-9.75247
▁writing	-9.75289
▁머리	-9.7529
▁menu	-9.75322
▁sauce	-9.75434
▁넓	-9.75769
▁아이디어	-9.75856
▁라인	-9.76154
름	-9.7621
▁국	-9.76389
▁앉	-9.76457
▁white	-9.76511
▁팬	-9.76527
찬	-9.76587
▁한다는	-9.76649
▁위험	-9.76681
▁necessary	-9.76724
▁field	-9.76729
▁국가	-9.76872
월	-9.76886
▁으니까	-9.77003
▁thinking	-9.77038
▁대단	-9.7704
마	-9.77056
▁countries	-9.7706
▁보통	-9.77098
▁방송	-9.7713
▁issue	-9.77167
▁deal	-9.77206
▁regular	-9.77274
은	-9.77332
▁활동	-9.77341
▁short	-9.77453
딩	-9.77455
▁saying	-9.7749
▁bring	-9.77493
▁started	-9.77613
▁Kim	-9.77812
▁창고	-9.77859
▁십니까	-9.77927
▁유통	-9.78149
▁측정	-9.78232
▁accept	-9.78259
▁pretty	-9.78301
▁건물	-9.7835
▁trust	-9.78378
▁옵션	-9.78472
▁difference	-9.78531
▁재미	-9.78562
▁실수	-9.78695
세	-9.78759
▁tried	-9.78813
▁훨	-9.78927
▁fact	-9.79046
▁중국	-9.79271
씨	-9.79277
▁raw	-9.79392
▁확장	-9.79662
락	-9.79691
▁scheduled	-9.79738
나라	-9.79744
▁cut	-9.79746
디어	-9.79796
Why	-9.79803
▁오랜	-9.79961
▁functions	-9.79988
Then	-9.80069
▁교환	-9.80077
▁인증	-9.80107
g	-9.80165
▁expensive	-9.80248
▁level	-9.80299
▁definitely	-9.80365
▁caused	-9.80416
▁exchange	-9.80546
▁의미	-9.80658
악	-9.80661
▁생활	-9.80664
▁included	-9.80702
▁estimate	-9.80732
연	-9.80753
▁demand	-9.81018
▁더라고요	-9.81071
▁아닌	-9.81084
끼	-9.81149
▁줘	-9.81508
▁unique	-9.81575
▁investment	-9.81612
▁간편	-9.81632
▁선물	-9.81775
달	-9.81867
▁포	-9.81914
▁similar	-9.81989
▁speed	-9.82044
▁수입	-9.8205
▁Jong	-9.82202
초	-9.82272
▁international	-9.82343
▁경쟁	-9.82413
▁develop	-9.82454
▁느	-9.82471
▁local	-9.82488
▁풀	-9.82507
▁입금	-9.82536
▁상담	-9.8261
▁medical	-9.82654
▁often	-9.82777
▁earlier	-9.82827
▁whether	-9.82827
▁latest	-9.82832
▁로봇	-9.82888
▁반려	-9.82969
▁최선	-9.82989
▁kitchen	-9.83039
▁bought	-9.83065
▁렌	-9.83199
▁facilities	-9.83243
▁further	-9.83243
▁She	-9.83385
▁prices	-9.83413
▁글	-9.83421
▁damage	-9.83524
▁lower	-9.83573
▁표시	-9.83587
동안	-9.83597
▁solve	-9.83604
▁Hi	-9.83709
▁wide	-9.83718
▁inconvenience	-9.83758
▁guess	-9.83771
▁invoice	-9.83822
How	-9.83823
▁dry	-9.83826
▁왜냐하면	-9.83841
▁equipped	-9.83909
스틱	-9.83946
▁냄새	-9.83962
▁우수	-9.84131
▁school	-9.84134
▁basic	-9.84181
▁music	-9.84262
▁cover	-9.84295
결	-9.8433
▁means	-9.84354
과	-9.84403
▁최신	-9.8448
▁pick	-9.84502
▁아파트	-9.84514
▁십니다	-9.84582
▁뵙	-9.84657
백	-9.84693
▁delayed	-9.8477
▁Today	-9.84771
▁등록	-9.84807
▁임	-9.84812
▁weight	-9.84854
▁site	-9.85048
▁정리	-9.85051
▁청구	-9.85066
▁학습	-9.85111
▁depend	-9.85121
▁견	-9.85125
▁즉시	-9.85136
▁강력	-9.85148
▁주방	-9.8527
▁의견	-9.85338
▁므로	-9.85401
▁heat	-9.85452
▁taking	-9.85487
▁갑자	-9.85566
▁complete	-9.85587
▁컬러	-9.8578
▁접	-9.85783
▁paper	-9.85806
▁아까	-9.85807
▁least	-9.8584
▁따르	-9.85843
울	-9.8587
▁힘들	-9.85906
▁음료	-9.86052
린	-9.86057
▁배달	-9.86108
▁drink	-9.8619
▁media	-9.86257
C	-9.8634
▁learning	-9.86415
▁communication	-9.86454
▁준	-9.86459
▁question	-9.86508
▁Seoul	-9.86516
▁기타	-9.8658
▁취	-9.86626
▁책임	-9.86674
▁인사	-9.86723
▁eating	-9.86757
▁자랑	-9.86788
▁얼굴	-9.86824
▁주요	-9.86884
▁CEO	-9.86897
▁built	-9.86902
▁자기	-9.86944
▁갔	-9.86964
▁property	-9.8701
▁통신	-9.8706
릿	-9.87193
▁helps	-9.8723
▁외국	-9.87256
▁hands	-9.87258
▁했었	-9.87271
▁Currently	-9.87382
▁cooking	-9.87558
▁cleaning	-9.87579
▁깨끗	-9.8763
▁spicy	-9.87701
quality	-9.87703
▁돌	-9.87741
Let	-9.87825
▁그건	-9.87838
▁general	-9.87869
▁스러운	-9.87892
▁수요	-9.88029
jin	-9.88105
▁합	-9.88131
▁night	-9.88181
와	-9.88187
▁디지털	-9.88255
▁화장	-9.88344
▁숙	-9.88443
▁60	-9.88545
▁플라	-9.88554
▁living	-9.88563
▁충	-9.88589
▁주변	-9.88603
▁고민	-9.88631
▁김	-9.88659
릭	-9.88744
테이	-9.8895
▁style	-9.88988
2,	-9.88996
▁서울	-9.89058
▁18	-9.89231
▁healthy	-9.89279
able	-9.89342
▁changes	-9.894
▁learn	-9.89421
▁supplies	-9.89453
▁높이	-9.8947
▁held	-9.89522
▁produced	-9.89612
▁Friday	-9.89646
▁신경	-9.8971
▁수정	-9.89997
▁의료	-9.90262
▁Unite	-9.90277
▁버튼	-9.90282
▁홍보	-9.90349
▁bag	-9.90377
▁yourself	-9.90416
▁treatment	-9.90432
▁quick	-9.90454
▁표	-9.90483
▁송금	-9.90498
▁분명	-9.90509
▁turn	-9.90552
▁By	-9.90865
▁발표	-9.90873
▁써	-9.90889
▁소비자	-9.9095
▁다니	-9.90969
▁거리	-9.91124
▁으셨	-9.91141
▁헤드	-9.91181
▁맞춰	-9.91182
▁학생	-9.91239
▁study	-9.91308
▁캐	-9.9134
▁바라	-9.91365
▁location	-9.91415
▁May	-9.91454
▁supplier	-9.91529
▁improve	-9.91535
▁higher	-9.91558
▁nothing	-9.91763
▁티	-9.91921
Is	-9.91937
▁among	-9.92026
▁table	-9.92074
▁screen	-9.92141
▁sincerely	-9.92157
▁un	-9.92188
▁이건	-9.92231
▁cancel	-9.92308
▁effect	-9.92315
▁병	-9.92431
▁needed	-9.92584
▁isn	-9.9259
▁석	-9.92608
▁다르	-9.9281
▁travel	-9.92899
▁selling	-9.92904
▁warehouse	-9.92907
▁특정	-9.92912
▁gave	-9.92939
▁works	-9.92942
▁leader	-9.92978
She	-9.92997
▁States	-9.9302
▁rest	-9.93111
▁19	-9.93121
▁bank	-9.93196
1.	-9.93248
▁가입	-9.93313
▁books	-9.93324
▁목표	-9.93343
▁tea	-9.935
▁increased	-9.93586
▁세탁	-9.93601
▁longer	-9.93653
▁worried	-9.93664
▁할까요	-9.93747
▁Internet	-9.93796
벤	-9.93898
to	-9.93898
▁프레	-9.93922
임	-9.93982
미지	-9.93998
Do	-9.94104
▁documents	-9.94289
▁음악	-9.94477
▁daily	-9.94527
▁보유	-9.94576
▁뛰어난	-9.94594
▁카	-9.94709
▁서류	-9.94728
▁민	-9.94769
▁K	-9.94844
▁태	-9.94844
▁평가	-9.94873
▁reduce	-9.94918
▁wonder	-9.94965
▁half	-9.95002
▁green	-9.95007
▁season	-9.95042
▁0	-9.95098
▁할게요	-9.95123
▁변화	-9.95236
▁image	-9.95314
년	-9.95344
▁adjust	-9.95372
▁최적	-9.95372
▁foreign	-9.95455
▁엄청	-9.95532
▁near	-9.95643
함	-9.95661
▁clothes	-9.95669
널	-9.95727
▁remove	-9.95789
이션	-9.95861
▁Fro	-9.96031
▁partner	-9.96062
▁임대	-9.96083
▁happened	-9.96093
▁비디오	-9.9615
▁young	-9.96269
▁vehicle	-9.96274
▁response	-9.96336
▁따뜻	-9.96346
▁사과	-9.96365
▁다행	-9.96385
▁Se	-9.96499
▁뭔가	-9.9655
▁package	-9.9662
▁points	-9.96656
▁separate	-9.96754
▁비슷	-9.9676
▁페이	-9.96774
▁으세요	-9.96825
▁checking	-9.96831
▁직	-9.96918
▁hit	-9.96924
▁amazing	-9.96959
▁그랬	-9.9704
▁access	-9.97071
▁매일	-9.97087
카	-9.97154
▁single	-9.97234
▁members	-9.97334
▁seen	-9.974
▁장점	-9.97446
현	-9.97494
▁chicken	-9.97503
▁arrived	-9.97514
▁below	-9.97538
▁상세	-9.97553
▁late	-9.97577
▁멋	-9.97593
▁transportation	-9.97853
▁기록	-9.97902
▁According	-9.97921
▁수준	-9.97926
▁detail	-9.98245
▁includes	-9.98326
▁가정	-9.98336
▁투	-9.98482
▁가치	-9.98489
▁동일	-9.98606
온	-9.98645
▁filter	-9.98676
▁range	-9.98787
▁영양	-9.98798
▁view	-9.98815
▁삼	-9.98822
▁receiving	-9.98829
법	-9.98865
▁비교	-9.98972
▁warm	-9.99075
▁cream	-9.99164
▁레스토랑	-9.99171
▁구축	-9.9932
▁touch	-9.994
▁cause	-9.99404
▁디	-9.99417
▁모니터	-9.99453
다가	-9.99585
▁employee	-9.99602
▁wireless	-9.99652
▁automatically	-9.99663
▁outside	-9.99737
▁E	-9.99783
북	-9.99823
▁include	-9.99826
▁consider	-9.9983
▁though	-9.9987
▁alone	-9.99873
두	-9.99918
▁gift	-9.99955
▁잖	-10.0002
a	-10.0004
▁clear	-10.0006
시간	-10.0028
▁인데요	-10.003
▁박스	-10.0036
▁노래	-10.0038
▁introduced	-10.004
▁마세요	-10.0052
▁전원	-10.0064
▁독	-10.0065
▁finish	-10.007
▁completely	-10.0073
써	-10.008
▁은데요	-10.008
▁수행	-10.0089
▁comfort	-10.0091
▁social	-10.0093
▁choice	-10.0095
▁curious	-10.0101
▁주택	-10.0104
▁전통	-10.0107
▁터	-10.0111
▁형태	-10.0112
▁커	-10.0119
▁worked	-10.012
▁original	-10.0121
▁group	-10.0124
▁저장	-10.0132
티	-10.014
▁personal	-10.0146
▁순	-10.0149
▁shipped	-10.0151
▁법	-10.0153
▁rent	-10.0155
▁으	-10.0155
▁촬영	-10.0165
▁부드러	-10.0176
쯤	-10.0194
▁났	-10.0194
:	-10.0211
▁연락처	-10.0216
▁compared	-10.0217
▁games	-10.022
▁baby	-10.0222
▁true	-10.023
▁early	-10.023
▁룸	-10.0235
▁이걸	-10.0239
▁pressure	-10.0243
▁수익	-10.0244
▁kg	-10.0245
▁요금	-10.0245
▁도매가	-10.0256
▁report	-10.0258
▁plastic	-10.0269
▁Not	-10.0273
▁pork	-10.0273
▁T	-10.0282
▁부탁드립니다	-10.0287
▁specific	-10.0307
련	-10.0312
책	-10.0318
▁button	-10.0323
▁동시	-10.0333
▁December	-10.034
▁밀	-10.034
▁엄마	-10.0346
▁훌륭	-10.0353
▁Thanks	-10.0353
c	-10.0353
▁모양	-10.0354
▁separately	-10.0369
▁대상	-10.0385
▁shipment	-10.0387
They	-10.039
▁professional	-10.0401
▁warranty	-10.0404
▁decide	-10.0406
▁노트	-10.0412
▁digital	-10.0425
▁meal	-10.0427
▁solution	-10.043
▁satisfied	-10.0434
▁도시	-10.0439
▁짜	-10.044
꽤	-10.0448
▁manufacturing	-10.0456
▁극	-10.0457
▁비해	-10.0458
▁한데	-10.0467
▁제시	-10.047
▁mentioned	-10.0472
▁fresh	-10.0474
좌	-10.0476
▁PC	-10.0487
▁14	-10.0487
▁South	-10.049
▁wish	-10.0498
▁manage	-10.0498
friendly	-10.0505
▁public	-10.0506
▁carefully	-10.0509
호	-10.0509
▁Have	-10.0526
▁position	-10.0529
▁항공	-10.0532
▁eyes	-10.0533
l	-10.0546
▁internal	-10.0552
▁Or	-10.0567
▁heart	-10.0577
▁reach	-10.0577
▁규모	-10.0589
▁잔	-10.059
시피	-10.0595
▁일본	-10.0598
▁제어	-10.0612
▁estate	-10.0612
극	-10.0617
▁미래	-10.0629
▁반응	-10.0635
부터	-10.0665
▁깔끔	-10.0672
▁끼	-10.0677
▁decision	-10.0685
▁stop	-10.0691
다는	-10.0692
▁calling	-10.0692
▁sale	-10.0695
▁dog	-10.0697
▁took	-10.0697
▁비행	-10.0698
▁누가	-10.0704
▁항	-10.0705
▁통화	-10.0712
표	-10.0718
할	-10.0734
▁판	-10.0737
▁화면	-10.0741
▁죽	-10.0741
▁traditional	-10.0747
▁기다려	-10.076
▁블랙	-10.0771
▁함유	-10.0773
밥	-10.0777
▁afternoon	-10.0778
▁machines	-10.0785
▁G	-10.0787
▁그걸	-10.0797
▁커버	-10.0799
▁transaction	-10.0808
▁완성	-10.0811
▁조리	-10.0811
▁업데이트	-10.0816
2.	-10.0818
▁installed	-10.0819
▁뭘	-10.0822
▁근데	-10.0824
▁여전	-10.0825
▁students	-10.0837
▁긍	-10.084
▁ordering	-10.0841
▁condition	-10.0842
▁패키지	-10.0847
▁write	-10.0847
▁유감	-10.0854
▁enter	-10.0869
▁Jae	-10.0874
▁LED	-10.0878
▁understanding	-10.0879
▁상당	-10.0879
무	-10.0891
▁대리	-10.0891
▁uses	-10.0918
▁careful	-10.0923
▁혼자	-10.0928
▁손상	-10.0932
▁owner	-10.0934
림	-10.0968
▁공항	-10.098
▁케이블	-10.0981
▁맞춤	-10.0991
▁contents	-10.1002
▁Sure	-10.1005
학	-10.1007
▁능력	-10.1017
▁global	-10.1024
▁users	-10.1027
▁dust	-10.1032
꾸	-10.1038
▁Lee	-10.1051
▁age	-10.1059
▁apartment	-10.1064
▁보냅니다	-10.1066
▁16	-10.1079
▁대출	-10.1088
st	-10.1098
벌	-10.1104
▁목적	-10.1122
▁yes	-10.1127
▁연장	-10.1129
▁L	-10.1129
움	-10.1135
▁packaging	-10.1143
▁혁	-10.1143
▁express	-10.1145
▁branch	-10.115
▁dishes	-10.1151
▁value	-10.1155
▁로서	-10.1159
다고	-10.1166
▁된다	-10.118
▁옆	-10.1183
▁가구	-10.1188
▁병원	-10.1201
▁happen	-10.1206
어나	-10.122
▁솔직	-10.1226
▁fill	-10.1238
▁증	-10.1238
▁ensure	-10.1242
▁R	-10.1245
삶	-10.1262
▁혜택	-10.1262
▁powder	-10.1268
▁근처	-10.127
▁13	-10.1275
▁comfortably	-10.1278
▁New	-10.1279
▁winter	-10.1302
▁domestic	-10.1302
▁safely	-10.1304
▁링	-10.1306
▁계신	-10.1308
▁anywhere	-10.131
▁마시	-10.1313
▁units	-10.1326
▁manufacturer	-10.1329
▁platform	-10.1329
▁불량	-10.1331
▁expect	-10.1333
▁범	-10.134
격	-10.1348
▁신용	-10.1352
▁인정	-10.1356
▁six	-10.1356
▁빼	-10.1359
▁noodles	-10.1368
▁시킬	-10.1372
▁child	-10.1374
▁자주	-10.1376
▁ma	-10.1381
▁유형	-10.1385
▁places	-10.1389
▁weather	-10.1392
▁환자	-10.1394
▁냉장	-10.1394
▁financial	-10.1398
▁Ah	-10.1411
▁Here	-10.1418
셜	-10.1435
▁minute	-10.1435
▁가죽	-10.1435
▁아니면	-10.1441
▁봐요	-10.1444
▁credit	-10.1445
es	-10.145
up	-10.1452
▁previous	-10.1455
▁여쭤	-10.1456
▁human	-10.1468
▁party	-10.148
▁풍부	-10.1482
▁shoes	-10.1487
▁boss	-10.1487
깝	-10.1488
▁Unfortunately	-10.1489
▁moment	-10.1491
▁기관	-10.1495
▁running	-10.1497
킹	-10.1509
▁대비	-10.1511
▁washing	-10.1512
▁답	-10.1522
▁fish	-10.1525
▁U	-10.1536
▁방향	-10.154
▁집중	-10.1545
▁장기	-10.1552
란	-10.1558
▁On	-10.1563
엄	-10.1575
▁fully	-10.1576
▁kimchi	-10.1579
▁올라	-10.1583
▁걸리	-10.1587
▁싸	-10.1589
▁interior	-10.1591
볍	-10.1595
▁suddenly	-10.1596
▁samples	-10.1597
▁매출	-10.1607
▁standard	-10.1608
▁코로나	-10.162
▁유리	-10.1621
▁복	-10.1626
▁whole	-10.1631
▁운전	-10.1641
▁developing	-10.1647
고기	-10.1647
▁이익	-10.165
▁겨울	-10.1655
▁moisture	-10.1662
▁수분	-10.1667
▁청	-10.1672
▁voice	-10.1675
▁increasing	-10.1676
▁현지	-10.1678
창	-10.1679
▁processing	-10.1685
▁연기	-10.1689
▁계산	-10.1701
▁friend	-10.1716
▁driving	-10.1723
ic	-10.1727
▁역할	-10.173
▁어려운	-10.1737
▁Seok	-10.1747
▁engine	-10.1757
▁chance	-10.1759
▁women	-10.1762
▁화학	-10.1769
▁sleep	-10.1771
▁열심	-10.1785
▁창	-10.1787
▁cook	-10.1788
▁행복	-10.1796
▁sweet	-10.1803
▁체크	-10.1806
▁offers	-10.1811
▁guide	-10.1812
▁고정	-10.1816
▁operation	-10.1826
▁탁	-10.1839
▁강화	-10.1841
▁training	-10.1841
▁drive	-10.1844
▁내구	-10.1848
▁participate	-10.1858
▁user	-10.1863
▁플레이	-10.1868
환경	-10.1871
▁man	-10.1871
▁fair	-10.1887
▁network	-10.1888
▁leather	-10.1889
▁friends	-10.1893
▁eco	-10.1894
▁durable	-10.1898
▁여성	-10.1909
▁newly	-10.193
▁내년	-10.1943
▁restaurants	-10.1945
▁cell	-10.1948
칠	-10.195
▁areas	-10.1958
▁carry	-10.196
▁케	-10.1962
▁못한	-10.1964
▁shape	-10.1976
▁악	-10.198
o	-10.1982
▁안심	-10.1988
▁export	-10.1988
밍	-10.199
쉽	-10.199
▁관광	-10.1992
▁giving	-10.1993
▁known	-10.1999
▁above	-10.2
▁핸드	-10.2009
▁치즈	-10.2015
Because	-10.2016
▁properly	-10.2018
▁입력	-10.202
▁매트	-10.2025
▁학교	-10.2033
틀	-10.2035
▁조명	-10.2046
▁바닥	-10.2048
▁gas	-10.2053
▁선호	-10.2055
▁고기	-10.2065
▁현장	-10.2066
▁봐야	-10.208
▁마무리	-10.2087
▁noise	-10.2089
▁닭	-10.2089
▁exactly	-10.2096
▁clients	-10.2104
▁100%	-10.2105
▁CCTV	-10.2111
▁제한	-10.2114
▁anyone	-10.2115
▁maintain	-10.2121
족	-10.2125
▁공정	-10.2128
▁consist	-10.2139
▁pack	-10.2145
▁잠시	-10.2145
▁배우	-10.2151
▁exact	-10.2155
▁feeling	-10.2155
열	-10.2157
▁김치	-10.2166
▁premium	-10.2173
▁wife	-10.2174
▁언니	-10.2175
▁itself	-10.2176
▁한지	-10.2177
▁분위	-10.2177
▁Look	-10.2178
▁살펴	-10.218
▁purpose	-10.2187
▁entire	-10.219
▁glad	-10.219
▁쿠	-10.2197
▁pieces	-10.2197
▁레	-10.22
▁win	-10.2214
▁Some	-10.2221
드시	-10.2232
▁경제	-10.2237
▁major	-10.2242
▁결혼	-10.2242
▁$	-10.2244
▁단가	-10.226
▁systems	-10.2261
▁instead	-10.2262
▁given	-10.2264
▁전략	-10.2267
▁통합	-10.2267
▁밤	-10.2269
▁봉	-10.2271
▁붙	-10.2275
▁step	-10.2281
▁손님	-10.2283
▁부착	-10.2286
▁사고	-10.2289
▁city	-10.2291
▁double	-10.2292
워크	-10.2295
▁along	-10.2305
▁쇼핑	-10.2306
▁신선	-10.2314
."	-10.2314
▁울	-10.2314
▁나이	-10.2319
▁display	-10.2322
G	-10.2327
▁opening	-10.2327
▁pet	-10.233
▁wine	-10.2331
▁commercial	-10.2359
▁capacity	-10.2359
▁벽	-10.2369
▁북	-10.2373
누	-10.2385
▁술	-10.2395
▁이내	-10.2399
살	-10.24
▁invite	-10.2408
▁자유	-10.2408
▁관해	-10.241
▁선수	-10.2414
▁엔진	-10.2415
▁blood	-10.2423
▁consumers	-10.2426
p	-10.2432
▁required	-10.2435
▁빛	-10.2439
▁certain	-10.2439
▁volume	-10.2443
▁을까	-10.2447
▁risk	-10.2452
▁opened	-10.2457
▁욕	-10.2461
▁Each	-10.2471
▁benefits	-10.2476
데	-10.2477
칙	-10.2481
▁육	-10.2488
▁dinner	-10.2494
▁똑같	-10.2503
▁맺	-10.2504
범	-10.2505
품질	-10.2509
▁message	-10.2514
▁smooth	-10.2517
▁건설	-10.2523
▁release	-10.2528
▁블	-10.2529
▁positive	-10.253
▁smell	-10.2531
▁디스	-10.2532
▁seat	-10.2535
▁IT	-10.2544
▁한다면	-10.2547
▁final	-10.2548
▁Where	-10.255
▁웃	-10.255
▁녹	-10.2551
Now	-10.2559
▁핏	-10.256
▁Monday	-10.2576
▁소유	-10.2581
▁men	-10.2587
▁install	-10.2589
▁더라도	-10.2589
▁glass	-10.2604
▁COVID	-10.2613
▁사회	-10.2615
▁어린이	-10.2615
▁door	-10.2615
▁최종	-10.2618
▁메모	-10.2622
▁rich	-10.2636
▁보고	-10.2639
취	-10.2643
su	-10.2648
▁인원	-10.2651
▁건데	-10.266
▁improved	-10.2676
▁cheese	-10.2677
▁모바일	-10.2677
▁anytime	-10.2681
▁build	-10.2681
▁structure	-10.2683
▁골프	-10.2687
졌	-10.2688
▁혹	-10.2688
▁advantage	-10.2688
▁작년	-10.2689
▁섬유	-10.2693
▁착	-10.2695
▁plant	-10.2697
▁아기	-10.2701
▁80	-10.2701
▁middle	-10.2705
▁China	-10.2705
▁blue	-10.2705
▁faster	-10.2706
스트	-10.2707
갑	-10.2709
▁contain	-10.2714
▁표면	-10.2717
▁follow	-10.2717
▁타이	-10.2723
▁inquiry	-10.2723
▁움직	-10.2728
▁mode	-10.2728
▁차단	-10.2736
▁가방	-10.2741
▁easier	-10.2742
▁highly	-10.2742
▁용량	-10.2742
▁song	-10.2747
▁맡	-10.2748
▁네트	-10.2749
▁movie	-10.2754
▁밑	-10.2761
님	-10.2771
▁주식	-10.2774
▁마이크	-10.2775
▁options	-10.2777
▁Does	-10.2778
▁correct	-10.2785
▁inspection	-10.2802
▁나온	-10.2806
▁furniture	-10.2825
▁침	-10.2827
▁쉬	-10.2827
▁probably	-10.2835
▁머	-10.2835
▁장난	-10.2839
▁English	-10.2845
▁어떠	-10.2853
▁either	-10.2855
seok	-10.2863
▁scent	-10.2864
▁surface	-10.2867
▁loss	-10.2872
▁호환	-10.2873
▁bulk	-10.2881
▁유연	-10.2884
▁welcome	-10.2885
▁숙박	-10.2891
병	-10.2898
▁texture	-10.2898
▁다운	-10.2899
▁언	-10.2902
▁덜	-10.2904
▁essential	-10.2909
▁어머	-10.2913
▁shopping	-10.2919
▁구독	-10.2921
▁탑재	-10.2921
▁그럴	-10.2922
▁g	-10.2931
▁느껴	-10.2934
▁o	-10.2934
▁문화	-10.2934
▁sense	-10.2942
▁protection	-10.2948
▁save	-10.2952
▁수리	-10.2959
▁응	-10.2963
▁가공	-10.2963
▁정상	-10.2973
▁wasn	-10.2975
▁cars	-10.2982
▁오픈	-10.2986
▁공학	-10.2989
▁라서	-10.299
▁려	-10.299
공	-10.2992
▁식물	-10.2995
▁videos	-10.2996
어오	-10.2997
Ah	-10.3003
▁especially	-10.3005
▁협상	-10.301
▁특허	-10.3014
And	-10.3016
▁절대	-10.3021
▁convenience	-10.3024
▁주말	-10.3024
▁stand	-10.3024
▁환영	-10.3025
▁인쇄	-10.3034
▁signed	-10.3038
▁원합니다	-10.3045
▁mm	-10.3052
free	-10.3053
▁language	-10.3057
▁distribution	-10.3062
▁effective	-10.307
▁밝	-10.3071
Are	-10.3089
맛	-10.3096
▁hurry	-10.312
▁charging	-10.3122
▁친절	-10.3124
▁example	-10.3125
▁golf	-10.3129
▁실내	-10.313
▁accommodation	-10.3134
▁동의	-10.3143
망	-10.3146
▁파티	-10.3151
▁한가요	-10.3152
▁크림	-10.3158
▁airport	-10.3158
▁소요	-10.3158
▁문서	-10.3163
▁representative	-10.3173
▁eye	-10.3176
▁deep	-10.3184
▁톤	-10.319
손	-10.3191
▁방수	-10.3191
▁뽑	-10.3197
▁words	-10.3198
▁land	-10.3198
▁생겼	-10.3199
▁할지	-10.3208
▁guarantee	-10.3216
▁sit	-10.3225
예	-10.3226
▁거든	-10.3238
아보	-10.3248
▁신발	-10.3254
▁wash	-10.3255
매	-10.3263
▁USB	-10.3265
▁self	-10.3274
▁bottom	-10.3275
▁internet	-10.3275
▁key	-10.3275
▁적절	-10.3278
▁된다면	-10.3281
었	-10.3287
▁fire	-10.3288
▁축하	-10.33
▁폭	-10.3303
▁heavy	-10.3305
▁memory	-10.3305
▁근무	-10.331
스크	-10.332
▁율	-10.332
▁슬	-10.3322
▁stainless	-10.3324
▁천연	-10.3325
▁history	-10.3334
▁신속	-10.3341
▁connect	-10.3342
▁검	-10.3347
▁break	-10.3348
▁신가요	-10.3356
▁listen	-10.3364
▁P	-10.3366
▁보상	-10.3368
▁세미	-10.3376
▁포인	-10.3383
▁일상	-10.3397
▁director	-10.3403
환	-10.3408
▁feels	-10.3408
즌	-10.3413
▁지나	-10.342
▁re	-10.3421
▁recent	-10.3422
▁150	-10.3422
▁니다	-10.3431
▁technologies	-10.3433
▁grow	-10.3439
▁providing	-10.3443
▁루	-10.3447
▁섭	-10.3453
▁plans	-10.3455
▁메시	-10.3456
▁myself	-10.3463
▁hearing	-10.3471
▁invest	-10.3473
▁shop	-10.3475
▁달라	-10.3475
▁seeing	-10.3479
▁allow	-10.3492
▁wants	-10.3502
▁필수	-10.3511
테리	-10.3511
▁자극	-10.3511
▁알리	-10.3517
▁match	-10.3524
▁ways	-10.3524
▁억	-10.3527
▁sea	-10.3531
▁희망	-10.3533
▁willing	-10.3535
▁짧	-10.3542
▁installation	-10.3543
▁designs	-10.3551
례	-10.3553
▁표준	-10.3553
▁M	-10.356
▁경	-10.3561
▁실험	-10.3563
▁partners	-10.3565
▁프로	-10.3602
▁expand	-10.3602
▁주차	-10.3621
▁주행	-10.3629
▁ever	-10.3632
▁analysis	-10.3633
▁지급	-10.3644
▁focus	-10.3646
▁센서	-10.3648
▁protect	-10.365
▁의자	-10.3653
▁reliable	-10.3654
퍼	-10.3658
▁pre	-10.366
▁전용	-10.3669
▁asking	-10.3671
▁inquire	-10.3679
▁납	-10.3682
턴	-10.3684
▁status	-10.3684
▁tour	-10.3685
대금	-10.369
▁deadline	-10.3694
▁Who	-10.3695
▁뚜	-10.3697
▁mother	-10.3714
▁round	-10.3726
▁present	-10.3732
▁스트레	-10.3737
▁connection	-10.3755
▁지점	-10.3758
별	-10.3762
▁액	-10.3764
▁검색	-10.3767
머지	-10.3773
▁automatic	-10.3778
▁승인	-10.3782
▁가스	-10.3786
▁cotton	-10.3787
▁먼지	-10.3789
▁growth	-10.38
▁택	-10.3801
▁conference	-10.3807
▁자금	-10.3813
▁surprised	-10.3819
▁cancer	-10.382
▁preparing	-10.3828
▁maximum	-10.3838
▁milk	-10.3841
▁각각	-10.3842
▁지효	-10.3846
▁cake	-10.3848
▁입장	-10.3849
▁Alright	-10.3859
▁승	-10.3861
▁소음	-10.3866
▁스테인리스	-10.3869
▁ones	-10.3876
▁돕	-10.388
▁시기	-10.3888
te	-10.3899
▁link	-10.3911
▁다리	-10.3912
▁피해	-10.3919
▁보냈	-10.3925
▁보낼	-10.3928
탕	-10.3945
▁launch	-10.3945
▁교	-10.3947
▁져	-10.3948
▁models	-10.3949
▁링크	-10.3955
측	-10.396
▁다릅니다	-10.3962
뀌	-10.3963
▁electronic	-10.3964
When	-10.3964
▁요소	-10.3968
▁흡수	-10.3974
▁테이블	-10.3976
▁efficiency	-10.3989
▁버	-10.3997
▁접근	-10.4008
▁operating	-10.4016
▁Which	-10.4022
▁셋	-10.4027
▁그림	-10.403
키	-10.4036
▁modern	-10.4047
▁침대	-10.405
▁가진	-10.4052
ers	-10.4057
▁activities	-10.4058
▁:	-10.4064
▁마감	-10.4066
로드	-10.4069
▁manual	-10.4079
▁issues	-10.408
▁워	-10.4094
▁양해	-10.4095
cm	-10.4101
▁Will	-10.4102
▁종이	-10.4102
▁watching	-10.4105
on	-10.4107
려움	-10.412
▁reasonable	-10.4123
▁엔	-10.4123
▁buying	-10.4126
▁vehicles	-10.4145
▁공부	-10.4147
▁영어	-10.4159
▁option	-10.4174
▁solar	-10.4177
▁농	-10.4185
▁꺼	-10.4186
▁third	-10.4187
▁프리미	-10.4188
▁세척	-10.4201
▁tastes	-10.4205
▁으셔	-10.4205
▁durability	-10.4207
▁구요	-10.4208
켓	-10.4209
▁explanation	-10.4209
담	-10.4216
▁dish	-10.4219
플레이	-10.4223
▁여유	-10.4225
릴	-10.4228
▁박람	-10.4229
▁흥미	-10.4239
▁aware	-10.424
▁Yeah	-10.4248
▁robot	-10.4264
▁언어	-10.4264
▁매니	-10.4266
▁Come	-10.4268
▁내장	-10.4272
▁얼	-10.428
▁칼	-10.4282
▁lunch	-10.4282
▁쓸	-10.4285
▁70	-10.4289
▁inquiries	-10.4293
▁반영	-10.4295
▁letter	-10.43
▁beautiful	-10.4303
time	-10.4305
▁계정	-10.4307
▁편의	-10.4311
▁코드	-10.4311
▁common	-10.4314
▁secure	-10.4319
조건	-10.4322
▁bed	-10.4325
▁defective	-10.4326
▁암	-10.4327
i	-10.4328
곳	-10.4333
▁exercise	-10.4334
▁state	-10.4336
▁분리	-10.4341
Did	-10.435
▁replace	-10.4352
▁monthly	-10.4354
▁thanks	-10.4357
▁damaged	-10.4358
▁ice	-10.4359
말	-10.4359
▁90	-10.4361
▁쉬운	-10.4366
▁flight	-10.4374
▁즉	-10.4375
▁considering	-10.438
▁기술력	-10.4382
▁An	-10.4382
▁플	-10.4382
▁Before	-10.4385
▁evening	-10.4387
▁텐데	-10.4389
본	-10.4392
이드	-10.4394
▁Due	-10.4403
▁promote	-10.4409
▁기름	-10.4409
▁전해	-10.4413
▁몰랐	-10.4413
▁출고	-10.4413
▁납부	-10.4416
▁작품	-10.4417
▁stage	-10.4425
▁바람	-10.4429
▁success	-10.4434
▁시험	-10.4438
▁Next	-10.444
▁nervous	-10.4446
▁내려	-10.4448
▁휴가	-10.4459
▁boxes	-10.4459
▁과학	-10.446
▁남성	-10.4466
▁그룹	-10.4468
▁는다	-10.4472
▁Recently	-10.448
▁대형	-10.4481
▁&	-10.4482
▁당연히	-10.4482
▁keeps	-10.4493
▁effects	-10.4496
▁waste	-10.4497
▁board	-10.4502
▁코스	-10.4508
▁abroad	-10.4512
▁시원	-10.4519
▁page	-10.4529
포	-10.4533
▁agree	-10.454
▁조심	-10.4541
▁업그레이드	-10.4545
▁huge	-10.4557
▁atmosphere	-10.4557
▁promotion	-10.456
▁드라이	-10.4562
▁Use	-10.4564
▁대화	-10.4564
▁visiting	-10.4566
▁단순	-10.4568
▁꽃	-10.4585
▁gives	-10.4586
▁비싸	-10.459
째	-10.4594
▁looked	-10.4615
▁설립	-10.4625
▁인가	-10.4631
▁식기	-10.4632
▁artificial	-10.4635
▁cable	-10.464
▁사정	-10.4648
▁W	-10.4648
▁post	-10.4654
▁비타민	-10.4657
▁10%	-10.4658
▁version	-10.4662
▁표현	-10.4669
▁글로	-10.4679
term	-10.468
받	-10.4685
chan	-10.4689
hyo	-10.469
▁beans	-10.4691
▁기사	-10.4699
▁supposed	-10.4703
▁제게	-10.471
영	-10.4712
In	-10.4724
▁lost	-10.4725
▁Through	-10.4725
이프	-10.4738
▁created	-10.4739
▁Sir	-10.4756
▁moving	-10.476
▁V	-10.4766
머	-10.4769
▁multi	-10.4769
▁정부	-10.477
▁rather	-10.477
▁starting	-10.4778
겪	-10.4781
▁generation	-10.4784
▁버전	-10.4785
▁량	-10.4786
▁정신	-10.4787
▁펜	-10.4789
▁vacation	-10.4793
▁따	-10.4796
층	-10.4799
▁탈	-10.4801
▁Wednesday	-10.4804
▁note	-10.481
템	-10.4811
▁mission	-10.4824
or	-10.4825
▁Isn	-10.4825
▁ball	-10.4832
▁hospital	-10.4833
end	-10.4837
껑	-10.4838
▁limited	-10.484
렸	-10.484
▁쌀	-10.4842
▁loan	-10.4845
▁feet	-10.4845
▁husband	-10.485
드릴까요	-10.4857
▁와서	-10.4861
▁미세	-10.4864
▁달리	-10.4866
▁군	-10.4868
▁invitation	-10.4868
▁budget	-10.4873
▁rental	-10.4874
▁수업	-10.4881
▁아이고	-10.4885
▁실망	-10.4893
▁shows	-10.4893
▁sizes	-10.4896
▁sounds	-10.4897
▁Chinese	-10.4898
▁mainly	-10.4899
▁예산	-10.4901
▁father	-10.4902
▁조직	-10.4906
▁text	-10.4907
▁beef	-10.4909
▁모터	-10.4911
▁출판	-10.4912
▁결합	-10.4919
▁photos	-10.492
▁Many	-10.4921
▁press	-10.4925
▁summer	-10.493
▁클라우	-10.4936
▁met	-10.4937
▁confident	-10.4941
▁중간	-10.4941
▁strength	-10.4942
▁extra	-10.4942
▁skills	-10.4945
▁kinds	-10.4946
▁action	-10.495
▁January	-10.4955
▁여름	-10.4958
▁story	-10.4959
▁normal	-10.4964
▁혼	-10.4965
▁confirm	-10.4967
▁lose	-10.4968
▁kids	-10.4968
전거	-10.4975
▁uncomfortable	-10.4977
▁advanced	-10.4989
▁핵	-10.4991
mm	-10.4993
▁충격	-10.5001
ha	-10.5005
▁17	-10.5005
k	-10.5009
▁원료	-10.5009
▁어서요	-10.5009
▁X	-10.5009
▁feature	-10.5013
황	-10.5015
▁뜻	-10.5016
▁Japan	-10.5023
▁reserve	-10.5029
▁오염	-10.503
▁사과드립니다	-10.5046
▁밴	-10.5047
Don	-10.5048
▁사무	-10.505
▁물류	-10.5058
▁hey	-10.5061
ri	-10.5062
▁thick	-10.5069
▁mouth	-10.5071
▁추출	-10.5072
▁아웃	-10.5077
▁이쪽	-10.5078
ation	-10.5081
b	-10.5083
▁Go	-10.5085
▁bathroom	-10.509
▁president	-10.509
▁hour	-10.5094
ion	-10.5097
▁이곳	-10.51
▁살짝	-10.5105
▁통해서	-10.5112
▁prefer	-10.5112
▁advertisement	-10.5113
▁beginning	-10.5117
▁Most	-10.5119
▁connected	-10.5121
▁boasts	-10.5128
▁properties	-10.5128
▁drinks	-10.513
▁줬	-10.513
▁carbon	-10.5132
out	-10.5138
▁November	-10.5141
▁음성	-10.5149
▁felt	-10.5152
▁흐	-10.5155
▁예쁘	-10.5157
▁400	-10.5161
▁says	-10.5168
▁신다고	-10.517
▁가까운	-10.517
▁ideas	-10.5175
▁seconds	-10.5175
▁established	-10.5179
▁smartphone	-10.5184
▁monitor	-10.5187
▁accurate	-10.521
▁맨	-10.5213
념	-10.5218
▁urgent	-10.5222
▁cells	-10.5226
▁유럽	-10.5228
겁	-10.5233
▁foods	-10.5233
▁스케줄	-10.5235
▁raise	-10.5243
▁trade	-10.5243
으며	-10.5244
▁record	-10.5246
▁기획	-10.525
▁진정	-10.5251
4	-10.5256
▁confidence	-10.5259
My	-10.5263
▁로운	-10.5263
▁변동	-10.5264
블	-10.5266
▁오랫	-10.5271
▁응용	-10.5272
▁O	-10.5274
▁successful	-10.5282
▁parking	-10.5285
커	-10.5287
▁hop	-10.529
▁Would	-10.5292
▁laptop	-10.5292
▁ahead	-10.5304
▁American	-10.5306
▁불가	-10.5308
▁serve	-10.5312
▁seminar	-10.5316
▁감소	-10.5317
▁주의	-10.5323
▁waterproof	-10.5324
▁useful	-10.5328
▁progress	-10.5335
▁판단	-10.5335
▁률	-10.5338
▁processed	-10.5346
능	-10.5346
▁순간	-10.5349
▁파이	-10.535
▁고무	-10.5361
▁transfer	-10.5365
year	-10.5365
폐	-10.5371
▁인간	-10.5372
▁척	-10.5372
▁어쨌	-10.5379
▁hello	-10.5379
▁레이	-10.5379
▁launched	-10.5381
▁실패	-10.5382
▁cameras	-10.5388
▁헤어	-10.539
▁suggest	-10.5391
▁재생	-10.5401
▁catalogue	-10.5403
▁집니다	-10.5405
▁21	-10.541
▁helpful	-10.5416
▁serious	-10.5426
▁축	-10.543
▁끝나	-10.5439
▁efficient	-10.5441
▁agency	-10.5451
▁selected	-10.5454
▁Like	-10.5456
▁impact	-10.5474
ting	-10.5474
▁operate	-10.5481
▁reading	-10.5481
▁픽업	-10.5488
▁프린	-10.5495
▁력	-10.5499
▁North	-10.5512
▁Hotel	-10.5512
▁culture	-10.5518
▁으로써	-10.5525
▁화물	-10.5535
▁나무	-10.554
▁카페	-10.5541
▁Ha	-10.5556
▁container	-10.5558
▁리스	-10.5559
▁양식	-10.5563
▁stores	-10.5564
▁딸	-10.5565
▁현대	-10.5569
▁위생	-10.5581
특	-10.5586
▁nature	-10.5586
▁vegetables	-10.5591
▁점점	-10.5596
▁피드	-10.5598
▁Anyway	-10.56
▁털	-10.5611
▁pictures	-10.5614
▁attach	-10.5614
▁base	-10.5619
케이	-10.5619
▁영광	-10.5624
▁압	-10.5629
▁어려울	-10.5636
새	-10.5648
객	-10.5651
▁introduction	-10.5661
▁oh	-10.5665
▁fall	-10.568
▁몰라	-10.5693
▁려는	-10.5703
▁married	-10.5711
▁benefit	-10.572
Please	-10.5723
이너	-10.5724
▁passed	-10.5725
▁walk	-10.5726
▁etc	-10.5735
▁tools	-10.5737
▁highest	-10.5738
▁sensitive	-10.5739
▁opinion	-10.5748
▁favorite	-10.5748
싱	-10.5748
철	-10.5751
▁cases	-10.5754
▁actual	-10.5759
닿	-10.576
▁lid	-10.576
B	-10.5767
▁promise	-10.5767
est	-10.5769
염	-10.577
▁제안서	-10.577
ho	-10.5772
▁추적	-10.5775
▁lead	-10.5778
보드	-10.5794
▁가상	-10.5796
너	-10.5797
▁마치	-10.5797
▁wearing	-10.5807
▁corporate	-10.5811
clock	-10.5812
▁시계	-10.5813
▁select	-10.5813
▁role	-10.5824
▁규	-10.5825
▁생겨	-10.5829
▁metal	-10.5829
▁teeth	-10.5836
▁official	-10.5837
것	-10.585
▁태양	-10.5867
▁안타	-10.587
▁rubber	-10.5874
▁interesting	-10.5874
▁playing	-10.5884
▁refrigerator	-10.5887
▁운	-10.5888
P	-10.5895
▁골	-10.5909
▁Dong	-10.5911
▁전송	-10.5913
▁근	-10.5913
based	-10.5914
▁출력	-10.592
▁stable	-10.5925
▁suggested	-10.5927
세요	-10.593
▁드셔	-10.5936
▁cloud	-10.5938
▁존재	-10.5939
▁세련	-10.5943
▁올려	-10.5945
권	-10.5947
▁컵	-10.5948
플리케	-10.5951
▁대체	-10.5953
▁written	-10.5954
▁부인	-10.5955
▁협조	-10.5965
L	-10.5971
들	-10.5973
▁series	-10.5976
▁excited	-10.5976
▁search	-10.598
▁learned	-10.598
▁지식	-10.5982
gi	-10.5982
▁against	-10.5983
▁전환	-10.5986
▁떨어	-10.5992
▁생성	-10.5996
▁logistics	-10.6003
▁multiple	-10.6003
▁좋아	-10.6005
▁import	-10.6006
므로	-10.6011
▁특성	-10.6012
▁increases	-10.6013
▁worth	-10.6013
▁class	-10.6014
▁wind	-10.6022
▁퍼	-10.6026
▁seem	-10.6027
▁maintenance	-10.6027
▁낼	-10.6033
▁베	-10.6036
▁세상	-10.6038
리즈	-10.6046
▁finished	-10.6046
▁web	-10.6051
▁trouble	-10.6053
▁드릴까요	-10.6059
▁patients	-10.6064
▁스포츠	-10.6066
▁foam	-10.6067
▁smoothly	-10.6067
▁master	-10.6068
▁require	-10.6075
▁해줍니다	-10.6079
▁pants	-10.6079
▁오일	-10.608
▁length	-10.6084
▁copy	-10.6085
▁빵	-10.609
▁올리	-10.6091
▁Christmas	-10.6092
▁cutting	-10.6093
▁guys	-10.6093
셔	-10.6096
▁감지	-10.6098
했	-10.61
▁불만	-10.6105
▁꾸준	-10.6105
T	-10.6111
▁bar	-10.6111
▁수술	-10.6111
E	-10.6116
드리	-10.6118
▁드실	-10.613
▁direction	-10.6132
▁behind	-10.6144
▁된다고	-10.6149
▁찾아	-10.6151
▁컨트롤	-10.6157
▁선명	-10.6165
▁projects	-10.6165
▁단지	-10.6167
▁대학	-10.6171
▁wedding	-10.6172
▁남편	-10.6178
▁wouldn	-10.6179
▁묻	-10.6183
▁탄소	-10.6185
▁accident	-10.6185
▁exhibition	-10.6186
▁프리	-10.6192
▁세포	-10.6194
▁setting	-10.6201
▁mom	-10.6211
▁bottle	-10.622
▁끌	-10.6223
거리	-10.6225
▁avoid	-10.6226
ji	-10.623
▁supports	-10.6233
▁시대	-10.6238
▁repair	-10.6243
▁parents	-10.6243
▁charged	-10.6247
▁gratitude	-10.6248
▁became	-10.6249
▁sports	-10.6255
▁i	-10.6258
▁honest	-10.6259
▁individual	-10.6264
▁클래	-10.6265
▁technical	-10.6274
깔	-10.6279
▁등급	-10.6299
▁가벼운	-10.6301
▁암호	-10.6302
▁disease	-10.6305
▁government	-10.6307
▁오류	-10.6309
▁remittance	-10.6314
▁느낄	-10.6328
▁걸릴	-10.633
do	-10.6331
▁weekend	-10.6335
▁inquired	-10.6335
▁성과	-10.6339
▁놀	-10.6339
▁깨	-10.6345
▁연료	-10.6345
▁23	-10.6356
▁medicine	-10.6358
▁연출	-10.6359
▁자산	-10.636
얼	-10.6361
▁cooperate	-10.6362
▁완	-10.6374
투	-10.6377
▁funny	-10.6381
▁곡	-10.639
▁크리스마스	-10.6394
▁partnership	-10.6399
제품	-10.6399
▁소매	-10.6402
▁컨	-10.6402
▁오디오	-10.6412
▁손잡	-10.6412
▁brother	-10.6413
▁logo	-10.6413
▁suit	-10.6417
▁electricity	-10.6421
▁시킵니다	-10.6423
▁profit	-10.6423
▁세대	-10.6428
▁kept	-10.6434
▁닦	-10.6435
▁gets	-10.6435
립	-10.6435
▁리모	-10.645
▁캠	-10.6451
▁경영	-10.6451
coming	-10.6452
▁pepper	-10.6455
▁balance	-10.646
▁시청	-10.6461
▁상승	-10.6465
▁specifications	-10.6465
른	-10.6471
아지	-10.6472
▁others	-10.6476
런	-10.6477
▁캡	-10.6488
▁금속	-10.649
▁편집	-10.6492
▁collection	-10.6494
▁audio	-10.6502
▁Thursday	-10.6515
▁environmental	-10.6517
▁래	-10.652
▁receipt	-10.652
▁virtual	-10.6528
▁연습	-10.6531
▁changing	-10.6533
▁foot	-10.6534
▁While	-10.6535
▁crazy	-10.6542
▁미니	-10.6546
rd	-10.6547
▁점심	-10.6549
▁바탕	-10.6558
타	-10.6561
▁pass	-10.6562
▁예방	-10.6563
▁extend	-10.6566
▁gaming	-10.6569
▁produces	-10.6569
▁서명	-10.657
▁적당	-10.6572
▁단체	-10.6574
▁회전	-10.6574
▁respond	-10.6579
▁지방	-10.6583
▁유기	-10.6585
▁applying	-10.6588
▁education	-10.6597
▁냉동	-10.6598
▁brush	-10.6601
▁height	-10.6603
▁producing	-10.6612
검	-10.6617
▁replacement	-10.6617
▁policy	-10.6624
훈	-10.6631
▁의사	-10.6633
▁상업	-10.664
▁출발	-10.6644
▁도입	-10.665
▁역사	-10.665
▁simply	-10.6651
▁manufactured	-10.6655
▁비밀	-10.6659
▁collect	-10.6661
▁following	-10.6662
▁브	-10.6665
▁사양	-10.6665
▁건축	-10.6666
▁movement	-10.6672
▁vacuum	-10.6679
▁의해	-10.6682
▁미치	-10.6682
▁전력	-10.6684
▁feedback	-10.6685
▁art	-10.6693
▁어울	-10.6694
▁인터	-10.6696
▁via	-10.6712
▁빠	-10.6719
▁external	-10.672
▁miss	-10.672
▁cute	-10.6723
▁일자	-10.6723
▁anti	-10.6729
▁impossible	-10.6734
▁뛰	-10.6734
▁experts	-10.6736
▁진출	-10.674
▁강한	-10.6743
▁소중	-10.6745
▁medium	-10.6748
맨	-10.6751
▁수집	-10.6752
▁motor	-10.677
▁sets	-10.6773
▁placed	-10.6778
u	-10.678
▁값	-10.6781
▁businesses	-10.6783
▁industrial	-10.6787
▁재배	-10.679
▁활성	-10.6794
▁remaining	-10.6806
▁moved	-10.6808
▁통과	-10.6819
▁주제	-10.6825
▁스피커	-10.6831
▁만듭니다	-10.6832
▁상상	-10.6834
▁류	-10.6837
▁recognized	-10.6849
▁확정	-10.6849
▁자재	-10.6851
▁reduced	-10.6857
▁정밀	-10.6857
▁튼튼	-10.6859
▁허	-10.6861
▁멋진	-10.6862
▁서버	-10.6863
▁드려요	-10.6863
▁driver	-10.6868
▁appropriate	-10.6874
▁장애	-10.6881
▁subscription	-10.6882
▁batteries	-10.6887
▁동료	-10.6891
▁중심	-10.6901
le	-10.6917
략	-10.6919
▁철	-10.692
▁보입니다	-10.692
▁절약	-10.6921
토	-10.6922
▁어떨	-10.6922
▁document	-10.6923
▁더니	-10.6927
▁봅니다	-10.6929
▁필리핀	-10.6929
▁nearby	-10.6929
막	-10.6933
▁까	-10.6935
운데	-10.6941
x	-10.6945
▁드론	-10.6953
▁문자	-10.6955
▁필	-10.6957
▁저렇	-10.6962
▁견고	-10.6962
▁매운	-10.6969
▁가득	-10.697
봉	-10.6971
▁accessories	-10.6972
▁동영	-10.6973
▁Last	-10.698
버리	-10.6988
▁1000	-10.6998
수록	-10.7001
▁film	-10.7001
▁몰	-10.7003
▁으므로	-10.7004
가루	-10.7009
▁회계	-10.701
▁code	-10.7011
▁camping	-10.7015
▁solid	-10.7022
▁disappointed	-10.7029
▁따른	-10.703
▁tool	-10.7032
▁논	-10.7037
related	-10.7038
less	-10.7045
▁wholesaler	-10.7054
▁그래픽	-10.7064
남	-10.7065
▁글쎄	-10.7071
▁tired	-10.7073
설	-10.7078
▁efforts	-10.7086
▁정기	-10.709
▁현상	-10.7097
▁sudden	-10.7099
▁October	-10.7101
▁update	-10.7104
▁bags	-10.7112
▁paste	-10.7113
▁facility	-10.7114
▁error	-10.7124
푸	-10.7126
▁주인	-10.7128
▁grateful	-10.7129
▁degrees	-10.7134
▁허리	-10.7135
▁fan	-10.7138
▁돼지	-10.714
▁advertising	-10.7157
▁America	-10.7157
▁finally	-10.7159
귀	-10.716
▁단백	-10.7161
▁제주	-10.7162
▁outdoor	-10.7168
▁진단	-10.7171
▁ability	-10.7171
▁twice	-10.7172
▁스트리	-10.7177
▁expenses	-10.7181
▁requirements	-10.7183
▁caught	-10.7186
▁strategy	-10.7186
코	-10.7187
▁규정	-10.719
▁member	-10.7197
▁흰	-10.7201
▁22	-10.7202
▁긴장	-10.7204
▁란	-10.7214
▁responsible	-10.7215
▁기에	-10.7216
▁정책	-10.7217
▁customized	-10.7217
▁지켜	-10.722
▁손실	-10.722
▁포트	-10.7224
▁workers	-10.7225
▁얇	-10.723
▁누르	-10.7234
▁탄	-10.7234
▁참가	-10.7242
▁2021	-10.7243
▁goal	-10.7245
▁aren	-10.7249
▁최상	-10.7255
▁collaboration	-10.7259
▁photo	-10.726
▁fixed	-10.7262
▁빈	-10.7266
▁harmful	-10.7274
▁cheaper	-10.7274
▁images	-10.7277
▁즐거운	-10.7279
▁홀	-10.7279
▁legs	-10.7282
노	-10.7284
▁intelligence	-10.7288
▁기념	-10.7289
▁폐	-10.7292
▁iron	-10.7296
▁m	-10.7296
▁상대	-10.7302
▁slightly	-10.7303
▁recording	-10.7307
▁applications	-10.733
▁을지	-10.733
▁엔지니어	-10.7332
▁solutions	-10.7339
▁notice	-10.7342
폼	-10.7344
K	-10.7361
▁stir	-10.7361
▁luxurious	-10.7361
▁원활	-10.7362
▁funds	-10.7362
▁fuel	-10.7373
▁cleaner	-10.7376
▁speak	-10.7379
▁printing	-10.7382
▁단위	-10.7383
▁becomes	-10.7384
니다	-10.7385
▁weird	-10.7391
▁sugar	-10.7392
▁sides	-10.7397
볼	-10.7402
▁frame	-10.7406
▁neck	-10.7413
▁happens	-10.7418
▁overall	-10.7421
▁lightweight	-10.7423
▁Ok	-10.7424
▁>(	-10.7425
▁chair	-10.7434
▁설명서	-10.7438
▁Among	-10.7438
▁F	-10.7439
▁인력	-10.7449
▁수용	-10.7451
▁plate	-10.7459
▁honor	-10.7463
▁Jeju	-10.7467
▁cup	-10.7467
▁active	-10.7467
워	-10.7472
▁affect	-10.7474
▁breakfast	-10.748
ness	-10.7481
▁꼼꼼	-10.7495
▁wall	-10.7497
돌	-10.7498
▁익	-10.7507
▁첨단	-10.7508
▁지정	-10.7509
▁Wi	-10.751
▁꿈	-10.7512
▁knowledge	-10.7524
▁답니다	-10.7532
▁책상	-10.7533
Can	-10.7537
ro	-10.7539
▁액세서리	-10.754
▁concept	-10.7552
▁desk	-10.7552
Just	-10.7553
▁potential	-10.7555
▁knew	-10.7555
▁취급	-10.7556
▁CCC	-10.756
R	-10.7565
술	-10.7569
▁compatible	-10.7572
▁wood	-10.7572
▁talked	-10.7581
▁minimum	-10.7585
▁힘든	-10.7586
▁특수	-10.7587
▁cards	-10.7595
▁advice	-10.76
▁brought	-10.76
▁드라마	-10.76
▁캠핑	-10.76
▁스틸	-10.76
▁못해	-10.7601
▁programs	-10.7605
▁lighting	-10.7605
▁x	-10.7605
▁1,000	-10.7606
수료	-10.7606
▁fruit	-10.7609
▁remote	-10.7614
▁금융	-10.7615
▁250	-10.7626
F	-10.7629
▁anymore	-10.763
▁의뢰	-10.7632
▁그리	-10.7637
▁Should	-10.7639
▁tax	-10.7643
글	-10.7643
▁character	-10.7644
▁word	-10.7645
▁그래요	-10.7647
▁부위	-10.7648
▁across	-10.7664
▁conducted	-10.7677
▁생긴	-10.7678
▁공동	-10.7681
▁regulations	-10.7682
▁practice	-10.7683
▁join	-10.7687
▁자면	-10.769
▁anyway	-10.7691
▁Take	-10.7692
벨	-10.7698
▁spend	-10.7699
▁세제	-10.77
▁introducing	-10.7706
▁곤	-10.7709
▁paying	-10.7711
빈	-10.7724
kg	-10.7732
▁라이	-10.7732
▁forget	-10.7736
▁certification	-10.7736
▁조립	-10.7738
▁transactions	-10.7739
▁바이러스	-10.7739
▁돌아가	-10.774
플	-10.7741
▁powerful	-10.7743
▁그만	-10.7747
▁growing	-10.7749
dong	-10.7759
▁flavor	-10.7764
▁taken	-10.7775
▁답장	-10.7776
▁fat	-10.7777
그	-10.7778
▁lives	-10.7782
▁window	-10.7782
▁organic	-10.7782
▁사부	-10.7785
▁어우	-10.7786
▁People	-10.7795
▁소비	-10.7797
▁자꾸	-10.781
▁훈련	-10.7813
▁아버지	-10.7814
▁adjusted	-10.7819
▁reflect	-10.7823
▁meetings	-10.7828
▁칫솔	-10.7828
▁알루미늄	-10.7829
▁메	-10.783
▁distance	-10.7833
▁확대	-10.7839
▁ultra	-10.7844
um	-10.7854
▁angry	-10.7859
집니다	-10.786
▁하드	-10.7861
▁염	-10.7867
▁심지	-10.7872
▁버스	-10.7875
▁더군요	-10.7879
쟤	-10.789
▁Philippines	-10.7892
▁쿠폰	-10.7892
▁알림	-10.7906
▁confirmation	-10.7906
▁소형	-10.7915
▁시트	-10.7917
▁survey	-10.7919
▁대기	-10.7922
▁portable	-10.7937
▁다름	-10.7946
▁holding	-10.7946
군	-10.7952
▁chat	-10.7955
▁나올	-10.7958
▁wrote	-10.7968
▁events	-10.7971
갈	-10.7974
▁연말	-10.7985
▁화이트	-10.7985
▁informed	-10.7997
▁볼게요	-10.8001
Isn	-10.8004
▁도전	-10.8006
▁작용	-10.8008
▁닫	-10.8009
왔	-10.801
▁massage	-10.801
▁opinions	-10.8015
▁신호	-10.8017
▁회복	-10.8022
▁실행	-10.8022
▁Make	-10.8023
께	-10.8028
▁gold	-10.8031
▁사운드	-10.8033
▁standards	-10.8039
닝	-10.8056
▁client	-10.8063
▁보조	-10.8077
▁stew	-10.8078
▁sensor	-10.8079
▁ate	-10.808
nd	-10.808
▁양념	-10.808
빙	-10.8084
▁region	-10.8088
▁체험	-10.8094
▁복잡	-10.8094
▁ground	-10.8097
▁유해	-10.8103
▁catch	-10.8104
▁thin	-10.8108
▁첨가	-10.811
▁Made	-10.8111
▁공사	-10.812
▁냐고	-10.8131
▁cosmetics	-10.814
▁갖춘	-10.8142
▁Japanese	-10.8143
▁teacher	-10.8143
it	-10.8146
▁average	-10.8158
▁housing	-10.8158
▁draft	-10.8158
▁computers	-10.8167
으면	-10.8171
▁나타	-10.8172
▁characteristics	-10.8172
▁agreement	-10.8175
▁heating	-10.818
▁birthday	-10.8189
▁터치	-10.8192
▁helped	-10.8193
▁pot	-10.8193
▁bill	-10.8201
레	-10.8204
합	-10.8207
Yeah	-10.8208
▁이루	-10.8209
▁N	-10.8213
▁배출	-10.8213
▁bread	-10.8221
▁더라고	-10.8221
▁carried	-10.8222
크림	-10.8228
핑	-10.8231
▁mask	-10.8232
▁지지	-10.8233
행	-10.8235
▁통한	-10.8238
▁펀	-10.8238
▁grown	-10.8242
▁certified	-10.8242
청	-10.8243
▁leading	-10.8252
▁pizza	-10.8254
▁aluminum	-10.8254
▁Try	-10.8256
▁정해	-10.8258
▁tasks	-10.8262
▁target	-10.8263
▁profits	-10.8264
▁cargo	-10.827
▁찬	-10.827
▁신규	-10.8272
▁우편	-10.8277
채	-10.8278
▁줄여	-10.828
으니	-10.8298
▁프레임	-10.8303
등	-10.8311
▁ten	-10.8312
▁Bluetooth	-10.8318
▁하하	-10.8318
압	-10.8319
▁천천	-10.8319
▁칭	-10.8324
▁발주	-10.8332
리티	-10.8336
▁협의	-10.834
▁5%	-10.8341
▁녹음	-10.8345
징	-10.8348
▁classic	-10.835
▁켜	-10.8354
▁철저	-10.8354
▁older	-10.8354
▁lines	-10.8355
▁considered	-10.8356
▁mine	-10.8365
Based	-10.8379
▁physical	-10.8382
▁consideration	-10.8384
▁내리	-10.8388
▁brain	-10.8391
▁assist	-10.8397
▁burden	-10.8397
▁마사	-10.8398
▁reality	-10.84
몰	-10.8403
▁이어	-10.8408
▁dark	-10.8415
▁defect	-10.8419
▁chemical	-10.8423
▁son	-10.8425
▁fix	-10.8439
▁시각	-10.8439
▁concerns	-10.8439
▁바디	-10.8444
▁lens	-10.8448
▁innovative	-10.8449
▁어쩔	-10.8449
▁수령	-10.8452
▁안경	-10.8456
▁숨	-10.8457
▁cooked	-10.8461
▁풍	-10.8465
암	-10.8469
▁Everyone	-10.8477
▁complex	-10.8481
▁딩	-10.8481
▁fried	-10.8485
▁beauty	-10.8485
▁core	-10.8495
▁Company	-10.8499
항	-10.85
▁register	-10.8505
▁망	-10.8511
▁블루투스	-10.8514
▁ID	-10.8517
▁source	-10.8518
▁consultation	-10.8518
▁주목	-10.8519
▁organize	-10.8524
▁sells	-10.8527
▁US	-10.854
▁지도	-10.8541
▁왕	-10.8543
▁usage	-10.8551
▁turned	-10.8553
▁straight	-10.8556
▁인형	-10.8557
▁agricultural	-10.8564
▁integrated	-10.8565
▁studio	-10.8568
▁돌아	-10.857
▁유아	-10.8572
▁뇌	-10.8575
▁원두	-10.8581
논	-10.8585
▁hasn	-10.8588
▁ideal	-10.8588
▁그날	-10.8589
▁짐	-10.859
▁조언	-10.8598
▁평균	-10.86
face	-10.8602
▁원격	-10.8612
콤	-10.8618
▁교통	-10.8618
찬가	-10.8623
▁annual	-10.8634
▁flat	-10.8635
▁접수	-10.8637
▁베이	-10.8645
▁Although	-10.8649
튼	-10.8651
▁chocolate	-10.8652
▁으면서	-10.8657
▁salt	-10.8667
▁liked	-10.8674
▁stored	-10.8677
▁juice	-10.8679
▁shoot	-10.8694
▁고대	-10.8696
륨	-10.8698
▁indoor	-10.8706
▁개최	-10.8715
▁대응	-10.8716
▁땅	-10.8716
▁clearly	-10.8717
▁학	-10.8726
▁student	-10.8737
▁largest	-10.8737
▁호스	-10.8741
▁flexible	-10.8748
▁고장	-10.8753
▁청정	-10.8755
▁용이	-10.8764
맙	-10.8765
▁어머님	-10.8766
▁남겨	-10.8774
▁mix	-10.878
▁멀	-10.878
▁mass	-10.8782
▁cash	-10.8782
▁마늘	-10.8785
▁sometimes	-10.8787
▁reduces	-10.8787
▁회원	-10.879
▁만두	-10.8793
▁trend	-10.8794
▁stability	-10.8799
▁피자	-10.88
▁glasses	-10.88
▁게시	-10.8803
▁가이드	-10.8813
▁files	-10.8814
▁hurt	-10.8815
▁뉴스	-10.8818
▁달려	-10.883
▁채워	-10.8832
▁accurately	-10.8835
▁liquid	-10.884
▁achieve	-10.8844
교	-10.8847
놓	-10.8852
▁Kwang	-10.8855
▁일찍	-10.8868
▁액세	-10.8868
▁고르	-10.8869
▁clothing	-10.887
▁프로세	-10.8873
▁10,000	-10.8873
랩	-10.8874
▁phones	-10.8876
▁빌	-10.8877
▁는지요	-10.8884
▁멀티	-10.8885
▁Finally	-10.8887
▁Two	-10.8888
▁spring	-10.8891
▁hall	-10.8893
▁stick	-10.8895
▁H	-10.8903
▁reviews	-10.8912
가스	-10.8918
▁guests	-10.8919
▁wrap	-10.8925
▁cancellation	-10.8936
▁signing	-10.8942
▁flow	-10.8952
▁감독	-10.8955
▁노출	-10.8955
▁우유	-10.8957
▁Man	-10.8968
▁Introducing	-10.8971
▁sophisticated	-10.8971
▁바이오	-10.8972
▁즐겨	-10.8979
▁개별	-10.8982
▁plants	-10.8984
▁불러	-10.8986
▁seven	-10.8986
▁biggest	-10.8988
▁worn	-10.8988
▁fits	-10.8996
▁grade	-10.8997
▁지났	-10.9002
▁lack	-10.9003
▁garlic	-10.9005
▁visited	-10.9009
▁measures	-10.9012
▁meals	-10.9014
▁아이스	-10.9018
▁Asia	-10.9023
▁satisfaction	-10.9023
▁마십시오	-10.9023
▁실시	-10.9029
▁fashion	-10.9038
▁균형	-10.904
▁투명	-10.9047
독	-10.905
▁인공지능	-10.9057
▁appointment	-10.9057
▁difficulties	-10.9058
십	-10.9062
▁switch	-10.9066
▁바다	-10.9066
▁배치	-10.9069
▁우려	-10.9076
7	-10.9077
▁보낸	-10.9083
▁28	-10.9084
▁지사	-10.9084
▁대중	-10.9085
휴	-10.9089
리스	-10.9091
▁멤버	-10.9092
▁120	-10.9097
▁failure	-10.91
▁stocks	-10.9103
▁closed	-10.9113
▁상관없	-10.9114
-19	-10.9115
▁Be	-10.9116
▁립	-10.9119
To	-10.9126
▁애완	-10.9127
▁direct	-10.9131
▁markets	-10.9134
▁푸	-10.9142
▁선정	-10.9142
▁초콜	-10.9145
▁시켰	-10.9149
▁canceled	-10.9151
▁기구	-10.9155
▁유일	-10.9158
▁보수	-10.9158
▁자마자	-10.9163
▁급한	-10.917
▁행동	-10.9181
▁protein	-10.9191
▁떡	-10.9192
▁촉	-10.9194
▁competitive	-10.9198
▁에어컨	-10.9198
▁dogs	-10.9205
▁프라이	-10.9208
▁머무	-10.921
▁lease	-10.9212
▁마우스	-10.9216
▁Tuesday	-10.9216
▁firm	-10.9223
▁occur	-10.9224
▁couple	-10.9224
▁27	-10.9225
▁아름다	-10.9231
▁laundry	-10.9233
▁scared	-10.9234
▁압력	-10.9236
▁eggs	-10.9238
▁설문	-10.9239
▁조용	-10.9239
▁detergent	-10.9242
▁는구나	-10.9245
▁road	-10.9249
▁neat	-10.925
▁놀랐	-10.9251
▁frozen	-10.9252
Look	-10.9261
▁establish	-10.9262
▁패션	-10.9265
▁습	-10.9267
▁adding	-10.9268
▁creating	-10.9269
▁조작	-10.927
▁프로모	-10.927
▁desired	-10.927
▁print	-10.9271
▁square	-10.9271
▁bright	-10.9276
▁45	-10.9283
▁바쁜	-10.9287
▁단단	-10.929
▁leaves	-10.9294
▁영수	-10.9295
침	-10.9298
O	-10.9299
▁conduct	-10.93
▁however	-10.9305
▁전합니다	-10.9308
▁tone	-10.9308
an	-10.9314
▁diseases	-10.9317
▁private	-10.9321
▁보드	-10.9323
▁loved	-10.9324
▁depends	-10.9327
▁grip	-10.9328
For	-10.9333
▁quiet	-10.9339
▁깜짝	-10.934
▁썼	-10.9342
▁Instead	-10.9342
▁showing	-10.9346
▁컴	-10.9349
▁dad	-10.9359
▁calls	-10.9359
▁스타	-10.9361
M	-10.9361
현실	-10.9364
▁push	-10.9367
▁accounting	-10.9369
▁combination	-10.9369
▁손해	-10.9369
▁스스	-10.937
▁movies	-10.9371
▁listening	-10.9371
▁Park	-10.9375
▁누군	-10.9378
▁Great	-10.938
▁naturally	-10.9381
▁뜯	-10.9381
▁dried	-10.9382
▁discounts	-10.9383
▁organization	-10.9386
▁pad	-10.9392
▁35	-10.9396
▁재정	-10.94
▁rates	-10.9403
▁갑니다	-10.9405
6	-10.9411
▁precious	-10.9412
▁pain	-10.9416
ar	-10.9425
▁channel	-10.9428
▁증명	-10.9432
▁예술	-10.9433
W	-10.9434
▁고생	-10.9438
▁cheap	-10.9446
▁디테	-10.9448
▁homes	-10.9448
▁limit	-10.9449
▁engineering	-10.9453
탄	-10.9462
▁트렌	-10.9465
▁핸들	-10.9467
팁	-10.9467
the	-10.9469
▁enable	-10.9469
▁tight	-10.947
Who	-10.948
▁Saturday	-10.9485
▁하우스	-10.9493
▁상호	-10.9494
▁아들	-10.9495
▁server	-10.9496
▁전시회	-10.9504
▁휴식	-10.9505
▁분기	-10.9505
▁familiar	-10.9521
▁넉넉	-10.9521
스타	-10.9523
▁urgently	-10.9523
▁measure	-10.9526
양이	-10.9537
▁실리콘	-10.954
▁surgery	-10.954
▁vary	-10.954
▁concern	-10.9541
▁인치	-10.9544
▁throughout	-10.9544
▁인공	-10.9545
▁contracts	-10.955
ra	-10.9556
▁자원	-10.9557
▁명확	-10.9558
▁잠재	-10.9558
▁생일	-10.9562
▁당일	-10.9562
▁figure	-10.9563
▁평생	-10.9564
▁reference	-10.9569
▁responsibility	-10.9577
▁돌려	-10.9577
▁공격	-10.9582
8	-10.9587
▁requires	-10.9591
▁basis	-10.9595
▁베트남	-10.9595
▁응답	-10.9596
▁2000	-10.9611
▁personnel	-10.9613
h	-10.9615
▁Koreans	-10.9616
▁지구	-10.9618
▁station	-10.9624
▁채소	-10.9625
▁파우	-10.9629
▁eight	-10.9632
▁근육	-10.9632
▁ingredient	-10.9643
▁stress	-10.965
▁possibility	-10.965
▁showed	-10.9664
븐	-10.9668
mi	-10.9668
▁Lastly	-10.967
▁Yang	-10.9679
▁아닌데	-10.9683
▁쇼	-10.9691
▁양세	-10.9692
▁나갈	-10.9693
▁shown	-10.9695
▁tested	-10.97
▁stylish	-10.9704
▁protects	-10.9708
▁아서요	-10.9712
▁모시	-10.9714
▁Right	-10.9719
효	-10.9719
▁defects	-10.9721
▁생명	-10.9729
▁initial	-10.9742
▁penalty	-10.9743
난	-10.9747
▁dance	-10.975
▁줄게	-10.975
▁promised	-10.9751
▁Customers	-10.9753
친	-10.9757
▁rules	-10.9764
▁York	-10.9768
▁co	-10.977
▁그립	-10.9776
▁바꿔	-10.9778
▁Europe	-10.978
gu	-10.9783
▁treat	-10.9783
▁전반	-10.9796
▁pets	-10.9799
▁20%	-10.98
▁registration	-10.9801
▁resolution	-10.9812
▁부산	-10.9813
▁펌프	-10.9822
▁nose	-10.9823
▁covers	-10.9824
▁도매상	-10.9824
V	-10.9828
▁mini	-10.9834
▁600	-10.9845
type	-10.985
▁나눠	-10.9851
▁이사	-10.9856
▁fiber	-10.987
▁broken	-10.9875
▁divided	-10.9876
▁접속	-10.988
위치	-10.9883
▁significantly	-10.9894
▁mixed	-10.9899
버	-10.9906
▁postpone	-10.9907
닛	-10.9912
▁Attached	-10.9913
▁fees	-10.9915
▁김종	-10.9915
▁feed	-10.9918
▁교재	-10.9919
▁processes	-10.9924
▁둘째	-10.9933
▁broadcast	-10.9935
평	-10.9943
▁agent	-10.9945
&	-10.9946
▁냉	-10.995
▁octopus	-10.995
▁swimming	-10.995
▁촉촉	-10.9951
▁살균	-10.9951
▁promotional	-10.9952
▁houses	-10.996
▁agreed	-10.996
▁현금	-10.9963
fried	-10.9965
▁ramen	-10.997
▁Unlike	-10.997
▁어때	-10.9973
끔	-10.9977
▁합성	-10.9979
how	-10.9982
▁offered	-10.9984
Okay	-10.9984
레인	-10.9987
▁brown	-10.9989
▁캔	-10.9991
를	-10.9992
▁joint	-10.9994
광	-10.9996
v	-10.9996
resistant	-11.0004
▁compensation	-11.0008
▁격	-11.0013
▁영국	-11.0014
5	-11.0019
▁놀라	-11.0027
▁dedicated	-11.0027
▁패널	-11.0029
▁모자	-11.0038
▁번역	-11.0043
▁pull	-11.0043
▁output	-11.0044
▁ERP	-11.0046
▁angle	-11.0048
▁Both	-11.0057
▁begin	-11.0061
▁makeup	-11.0062
▁장식	-11.0063
▁economic	-11.0063
▁bacteria	-11.0064
던	-11.0065
▁캐나다	-11.0066
▁entertainment	-11.0066
▁radio	-11.0069
네	-11.0077
▁raised	-11.0078
▁continuous	-11.0084
▁런닝	-11.0085
▁experienced	-11.0086
▁아시아	-11.0086
▁paint	-11.0087
규칙	-11.0095
▁라이트	-11.0096
▁successfully	-11.0106
▁putting	-11.0107
▁교수	-11.0109
▁discussed	-11.0115
▁telling	-11.0116
▁면역	-11.012
▁methods	-11.012
농	-11.0139
▁yellow	-11.0143
▁seafood	-11.0143
래요	-11.0143
▁planned	-11.0143
가요	-11.0156
▁베이스	-11.0167
▁kit	-11.0168
▁port	-11.0168
천	-11.0169
▁speaking	-11.0175
▁consumption	-11.0182
▁무역	-11.0199
▁spray	-11.0201
걸이	-11.0203
▁drinking	-11.0204
▁helping	-11.0205
▁독점	-11.0206
▁경기	-11.0207
자리	-11.0208
▁춤	-11.0209
▁alcohol	-11.0221
▁쓰레기	-11.0221
▁선보	-11.0223
익	-11.0224
▁Could	-11.0224
상도	-11.0238
▁Only	-11.0239
▁International	-11.0241
▁SNS	-11.0241
▁originally	-11.0244
▁Start	-11.0249
▁장갑	-11.0251
▁suits	-11.0253
▁community	-11.026
▁resources	-11.0261
▁Second	-11.0263
▁지키	-11.0265
▁improves	-11.0272
▁룩	-11.0274
▁둔	-11.0278
▁toothpaste	-11.028
▁August	-11.0281
▁Get	-11.029
▁달성	-11.029
어도	-11.0291
탈	-11.0296
▁proper	-11.0299
ur	-11.0301
▁shot	-11.0303
▁Gwang	-11.0314
▁daughter	-11.0317
▁empty	-11.0319
▁인도	-11.0322
en	-11.0329
▁독일	-11.0329
▁트리	-11.0335
▁저런	-11.0338
껏	-11.0339
▁절감	-11.0349
▁components	-11.035
▁percent	-11.0359
▁inquiring	-11.0359
▁뜨	-11.036
▁arrival	-11.036
봐	-11.0361
폭	-11.0376
kuk	-11.0379
▁염색	-11.038
▁seeds	-11.0385
▁gone	-11.0387
▁offering	-11.0388
▁covered	-11.0389
▁LA	-11.0396
▁expert	-11.0396
▁actively	-11.04
▁초청	-11.0401
▁고속	-11.0406
Where	-11.0417
▁마침	-11.0422
▁스토리	-11.0433
벽	-11.0436
셋	-11.0437
▁lights	-11.0438
▁solved	-11.0438
▁weak	-11.0441
▁건지	-11.0455
▁Ma	-11.0455
▁bigger	-11.0459
▁잇	-11.0472
킷	-11.0479
▁모듈	-11.0479
▁emergency	-11.0479
▁streaming	-11.0481
▁그릇	-11.0483
▁줘야	-11.0483
w	-11.0495
▁seaweed	-11.0499
ity	-11.0515
▁어려워	-11.0518
▁놀라운	-11.0521
el	-11.0522
▁신문	-11.0528
▁download	-11.053
▁싱	-11.053
▁합의	-11.0545
▁조합	-11.0545
▁사본	-11.055
▁relieve	-11.0555
▁수납	-11.056
▁substances	-11.056
▁스튜	-11.0561
▁Put	-11.0575
▁고용	-11.0579
▁requests	-11.058
다면	-11.0584
▁player	-11.0585
▁reasons	-11.0587
▁못할	-11.0587
▁델	-11.0591
▁제발	-11.0592
▁consult	-11.0593
▁일치	-11.0595
▁regret	-11.0599
▁minimize	-11.0599
▁됩니까	-11.06
▁기원	-11.0602
▁종료	-11.0605
▁Really	-11.0608
▁십	-11.0611
▁tests	-11.0613
▁눌러	-11.0619
▁pleasant	-11.062
▁unexpected	-11.062
▁afraid	-11.0621
▁스킨	-11.0621
▁장사	-11.0622
▁slowly	-11.0622
▁셀	-11.0627
▁26	-11.0629
▁score	-11.0634
▁starts	-11.0638
털	-11.0641
▁regardless	-11.0641
Those	-11.0641
▁어린	-11.0643
▁멀리	-11.0651
▁legal	-11.0661
▁알려져	-11.0662
▁빨간	-11.0663
▁dryer	-11.0663
▁broadcasting	-11.0669
▁가질	-11.067
▁99	-11.0676
▁fax	-11.0679
▁description	-11.0681
▁effort	-11.0681
▁도로	-11.0684
▁whenever	-11.0684
▁스티	-11.0694
▁dream	-11.0695
▁oven	-11.0702
▁embarrassed	-11.0703
▁purchases	-11.0708
▁bean	-11.0709
▁interview	-11.0711
즘	-11.0719
▁seats	-11.072
약품	-11.0721
▁track	-11.0722
▁quarter	-11.0722
롯	-11.0723
▁워크	-11.0724
▁UV	-11.0727
강	-11.0735
▁의심	-11.0738
▁advantages	-11.0739
▁robots	-11.0739
▁윤	-11.0745
▁mall	-11.0745
▁느라	-11.0747
▁arrange	-11.0759
▁직장	-11.0759
▁acid	-11.0764
▁씁니다	-11.0764
▁감시	-11.0765
▁탑	-11.0769
▁줘요	-11.0773
바	-11.0784
▁supplied	-11.0785
▁들어와	-11.0785
▁엄청난	-11.0786
▁보완	-11.0788
러운	-11.0791
▁pan	-11.0792
▁듭니다	-11.0794
▁brands	-11.0794
▁Maybe	-11.0794
▁Wait	-11.0795
▁wire	-11.0806
▁mouse	-11.0806
충	-11.0807
▁everyday	-11.0807
▁foundation	-11.0808
▁여보	-11.0809
▁pattern	-11.081
▁튜	-11.0816
▁이중	-11.0817
▁throw	-11.0818
▁는다면	-11.082
▁managed	-11.0822
▁비싼	-11.0822
▁poor	-11.0826
▁reducing	-11.0829
▁Actually	-11.0834
▁greatly	-11.0839
▁platforms	-11.0842
▁pleased	-11.0845
▁entering	-11.0846
▁leaving	-11.0848
▁guest	-11.0848
▁익숙	-11.0848
▁February	-11.0849
▁틀	-11.0855
▁walking	-11.0859
▁operated	-11.086
▁instructions	-11.0861
▁soy	-11.087
▁뷰	-11.0873
▁spread	-11.0876
▁totally	-11.0877
▁mood	-11.0889
▁exclusive	-11.0889
▁sister	-11.089
▁thoroughly	-11.089
Since	-11.089
▁seasoning	-11.089
▁뛰어나	-11.0892
▁검정	-11.0897
day	-11.0905
▁뉴욕	-11.091
▁animal	-11.0911
▁나노	-11.0912
▁벤	-11.0914
웠	-11.0919
▁진동	-11.0921
먼	-11.0922
▁전망	-11.0928
▁행	-11.0929
First	-11.0933
▁믹	-11.0934
▁chairs	-11.0936
▁buyers	-11.094
▁pool	-11.094
리아	-11.0942
▁appearance	-11.0952
▁pasta	-11.0955
▁testing	-11.0964
▁slow	-11.0965
guk	-11.0966
▁AA	-11.0966
▁직물	-11.0967
ment	-11.0972
▁traffic	-11.0973
필	-11.0974
▁2022	-11.0982
▁유행	-11.0982
▁조만	-11.0983
▁enhance	-11.0984
▁Seung	-11.0985
▁성인	-11.0987
작	-11.0988
▁각도	-11.099
▁customs	-11.0992
접	-11.0993
▁super	-11.0994
혜	-11.0995
▁강하	-11.0995
▁missing	-11.1005
▁communicate	-11.101
▁bottles	-11.101
▁소화	-11.1013
▁들어갔	-11.1016
▁speaker	-11.1018
▁perfectly	-11.1022
▁에어	-11.1022
▁어깨	-11.1026
rs	-11.1027
▁bro	-11.1031
▁Eun	-11.1031
▁젖	-11.1038
▁diet	-11.1043
▁mat	-11.1045
▁개설	-11.1047
▁determine	-11.1054
▁science	-11.1058
▁Busan	-11.1058
▁들어간	-11.1061
▁High	-11.1061
▁resistance	-11.1061
▁wow	-11.1061
▁감자	-11.1074
▁removed	-11.1078
▁해야지	-11.1086
▁유선	-11.1091
변	-11.1093
▁complaints	-11.1096
▁popularity	-11.1102
▁·	-11.1103
Come	-11.1103
▁larger	-11.1107
▁더불	-11.1108
▁optimal	-11.1121
첩	-11.1122
▁strap	-11.1124
▁진공	-11.1127
▁콩	-11.1127
▁듀	-11.1129
▁investing	-11.1137
▁무리	-11.1139
▁ginseng	-11.1144
▁patented	-11.1146
▁coupon	-11.1146
▁던데	-11.115
▁끓	-11.1154
순	-11.1164
▁더라구요	-11.1166
▁corner	-11.117
▁played	-11.1176
신가요	-11.1179
▁freely	-11.118
▁gloves	-11.1182
▁rise	-11.1183
▁800	-11.1184
▁custom	-11.1193
텔	-11.1196
▁income	-11.12
▁끈	-11.1201
▁force	-11.1216
▁executives	-11.1216
Fi	-11.1218
▁SEO	-11.123
▁노하	-11.1235
종일	-11.1235
f	-11.1246
▁purposes	-11.1254
꺼이	-11.1257
▁sheet	-11.1259
▁fields	-11.1277
▁patient	-11.1278
Uh	-11.1278
▁Still	-11.1278
▁기재	-11.1279
▁drying	-11.1283
ul	-11.1285
▁buildings	-11.1298
택	-11.1304
▁bowl	-11.1314
▁Manager	-11.132
▁cafe	-11.132
▁메인	-11.1321
▁Baek	-11.1329
디오	-11.1332
▁manufacture	-11.1336
▁벗	-11.134
▁완화	-11.1341
▁registered	-11.1342
▁scale	-11.1355
▁샤워	-11.1361
빛	-11.1365
▁personally	-11.1365
▁Yu	-11.1366
▁ride	-11.1368
▁fight	-11.1369
▁들어갈	-11.1371
까요	-11.1375
▁expanding	-11.1376
sized	-11.1383
▁normally	-11.1385
▁functional	-11.1386
▁competition	-11.1386
▁beer	-11.1387
▁dress	-11.139
▁shower	-11.1393
▁turns	-11.1399
▁엄격	-11.1405
▁approval	-11.1406
▁packs	-11.1408
▁경력	-11.141
▁GB	-11.1421
▁gain	-11.1421
▁Min	-11.1424
▁pump	-11.1424
▁워낙	-11.1427
▁각자	-11.1428
▁Island	-11.1428
잔	-11.1429
▁drug	-11.1437
▁냈	-11.1448
▁extract	-11.1448
▁briefly	-11.145
▁younger	-11.1452
▁계실	-11.1457
▁national	-11.1462
▁+	-11.1466
▁occurred	-11.1471
▁players	-11.1474
▁suggestion	-11.1476
▁32	-11.1481
▁choosing	-11.1494
▁sturdy	-11.1494
▁anniversary	-11.1494
▁secret	-11.1502
▁니트	-11.1504
▁깔	-11.1504
▁household	-11.1506
▁높여	-11.1506
na	-11.1515
▁Various	-11.1516
▁Su	-11.1518
▁Up	-11.1533
yeong	-11.1534
▁September	-11.1539
▁classes	-11.1539
▁직업	-11.1541
▁메이크	-11.1542
ive	-11.1545
▁meters	-11.1556
▁Sang	-11.1557
▁chose	-11.1559
▁improving	-11.1561
득	-11.1561
▁종합	-11.1562
▁발행	-11.1563
▁entered	-11.1567
▁세정	-11.157
▁filled	-11.1572
▁킹	-11.1572
▁transport	-11.1573
Go	-11.1575
▁complaint	-11.1575
▁놔	-11.1577
▁seriously	-11.1585
▁conveniently	-11.1588
▁NFT	-11.1588
▁sites	-11.159
▁adults	-11.1596
럭	-11.1601
▁수면	-11.1605
▁trading	-11.1605
▁계십니다	-11.1606
▁circumstances	-11.1607
▁characters	-11.1608
▁fruits	-11.1608
▁widely	-11.1609
팩	-11.1611
▁lock	-11.162
▁놀이	-11.1626
▁reduction	-11.1628
▁가슴	-11.1632
▁microphone	-11.1633
▁drama	-11.1635
▁pocket	-11.1635
▁panel	-11.1635
▁독자	-11.1649
▁cat	-11.1653
▁엉	-11.1653
▁급여	-11.1655
▁소금	-11.1661
▁organized	-11.1661
▁likely	-11.1671
▁license	-11.1673
▁studying	-11.1675
▁institute	-11.1679
룸	-11.1679
몇	-11.1679
▁printer	-11.168
▁신축	-11.1681
▁존	-11.1681
▁More	-11.1684
▁스파	-11.1687
▁시행	-11.1691
▁steps	-11.1696
▁wondering	-11.1697
▁유전자	-11.1698
▁외관	-11.1702
▁임원	-11.1703
▁마리	-11.1705
▁conditioner	-11.1705
▁Give	-11.1706
▁짓	-11.171
▁sad	-11.171
se	-11.1715
▁바지	-11.1718
▁recognition	-11.1719
▁투숙	-11.1719
Right	-11.1725
▁감동	-11.1726
▁input	-11.1726
▁퇴	-11.1728
One	-11.173
▁번거	-11.173
▁잠금	-11.1731
▁chain	-11.1737
▁자격	-11.1737
▁staying	-11.1737
▁factors	-11.1738
▁expansion	-11.1741
▁떡볶이	-11.1741
▁educational	-11.1745
▁정하	-11.1748
▁부르	-11.1751
▁는다는	-11.1753
man	-11.1757
▁덮	-11.1758
▁dangerous	-11.1764
컨	-11.1771
▁Other	-11.1771
▁튀	-11.1774
▁reviewed	-11.1774
▁낸	-11.1775
▁scalp	-11.1787
▁click	-11.1788
▁sharing	-11.1791
us	-11.1799
▁fishing	-11.1807
▁animals	-11.1809
co	-11.1813
▁upper	-11.1813
▁잡지	-11.1814
▁이루어	-11.1815
▁Ms	-11.1824
▁spaces	-11.1825
▁어차	-11.183
▁proud	-11.1833
▁컬렉	-11.1833
won	-11.1834
힌	-11.1837
▁Another	-11.1837
▁allowed	-11.1838
▁procedure	-11.184
▁measurement	-11.184
▁가시	-11.1843
▁감정	-11.1843
▁savory	-11.1856
▁micro	-11.1856
▁Enjoy	-11.1862
▁레이저	-11.1862
one	-11.1862
▁묵	-11.1878
yeon	-11.1878
▁Perhaps	-11.188
▁거치	-11.188
▁OO	-11.1883
▁머물	-11.1885
▁맥주	-11.1886
▁advertisements	-11.1886
멍	-11.1887
▁결론	-11.1887
축	-11.1896
▁화재	-11.1898
▁큽니다	-11.1902
▁attractive	-11.1902
9	-11.1903
▁Dur	-11.1903
▁March	-11.1904
▁owners	-11.1906
▁prize	-11.1909
▁discussion	-11.1911
▁떨어져	-11.1918
▁균	-11.1921
of	-11.1922
▁broth	-11.1927
Your	-11.1931
▁tracking	-11.1933
▁한식	-11.1946
▁branches	-11.195
▁강철	-11.1951
▁땀	-11.1951
▁데스크	-11.1956
▁찾아보	-11.1958
▁재산	-11.196
▁Jeon	-11.1962
▁themselves	-11.1972
▁shared	-11.1975
▁31	-11.1976
▁stronger	-11.1977
옷	-11.198
▁떼	-11.1982
▁다섯	-11.1997
▁adjustable	-11.2
엽	-11.2004
져서	-11.2005
▁자고	-11.2009
▁는다고	-11.2012
▁수도	-11.2013
▁텐	-11.2014
▁초점	-11.2015
▁smells	-11.2016
▁황	-11.202
▁브러	-11.2021
▁vision	-11.2021
▁teams	-11.2022
▁소독	-11.2022
).	-11.2025
▁떠나	-11.2027
트럭	-11.2029
▁sincere	-11.2037
▁industries	-11.2042
▁뿌리	-11.2042
▁납니다	-11.2042
▁relief	-11.2042
▁나쁜	-11.2042
▁다녀	-11.2044
▁라디오	-11.2047
줄	-11.2048
큐	-11.2049
pm	-11.205
▁Team	-11.2051
▁tape	-11.2055
▁보충	-11.2057
▁cushion	-11.2065
▁플랜	-11.2066
▁usual	-11.2066
▁drop	-11.2068
▁전시	-11.2069
▁tourist	-11.2074
페인	-11.2074
hun	-11.2076
▁attending	-11.2077
▁coating	-11.2078
▁손목	-11.2078
▁쳐	-11.2081
▁그만큼	-11.2082
▁프로그래밍	-11.2089
▁compact	-11.209
▁걸립니다	-11.2091
▁거주	-11.2091
▁upgraded	-11.2094
▁치킨	-11.2094
▁녹화	-11.2097
▁piece	-11.2098
lo	-11.2102
▁drugs	-11.2106
▁해졌	-11.2108
▁steam	-11.2122
▁바퀴	-11.2122
▁Re	-11.2126
▁creates	-11.2135
▁프랑스	-11.2137
▁획득	-11.2137
▁rapidly	-11.2137
▁shampoo	-11.2138
▁snacks	-11.2144
▁입자	-11.2158
▁BB	-11.2162
▁50%	-11.2165
▁과거	-11.2171
▁수고	-11.2178
▁hesitate	-11.2178
▁스크	-11.2183
▁filters	-11.2183
▁대하	-11.2184
▁forgot	-11.2184
▁evaluation	-11.2184
▁behalf	-11.2185
▁주스	-11.2186
▁block	-11.2187
▁밸	-11.2189
▁수치	-11.2191
▁오른	-11.2191
▁certificate	-11.2193
As	-11.2194
▁shooting	-11.2194
▁신고	-11.2195
▁시공	-11.2196
▁클렌	-11.2209
▁July	-11.2209
랄	-11.2209
▁activity	-11.2211
▁이외	-11.2213
▁Me	-11.2213
▁바르	-11.2214
▁반도	-11.2217
▁분류	-11.2219
▁fabrics	-11.2222
▁그래야	-11.2224
▁appliances	-11.2226
▁부스	-11.2231
▁반대	-11.2231
▁gray	-11.2232
▁luxury	-11.2233
▁meantime	-11.2234
▁VR	-11.2237
▁records	-11.2238
▁둘러	-11.2238
▁leg	-11.224
▁replaced	-11.2245
▁vitamin	-11.2245
▁GPS	-11.2256
▁30%	-11.2257
▁텍스	-11.2259
▁페	-11.226
FFF	-11.2264
영장	-11.2265
▁guaranteed	-11.227
▁continues	-11.2278
척	-11.228
숙	-11.228
▁전국	-11.2288
▁Usually	-11.2288
▁dishwasher	-11.229
▁preparation	-11.229
▁compensate	-11.2298
▁sleeping	-11.23
▁stuff	-11.2301
▁기울	-11.2304
▁숫자	-11.2304
짐	-11.2314
▁편지	-11.2316
맞	-11.2337
▁club	-11.2339
▁apps	-11.234
▁sun	-11.2361
▁쭉	-11.2362
▁runs	-11.2368
▁입주	-11.2376
▁except	-11.2377
▁belly	-11.2377
없이	-11.2377
▁퀄	-11.2379
▁km	-11.2387
H	-11.2388
▁valuable	-11.2388
▁방해	-11.2393
▁신기	-11.2401
▁상점	-11.2404
▁허용	-11.2405
▁law	-11.241
;	-11.2412
▁cables	-11.2415
▁foreigners	-11.2416
▁이르	-11.2421
없	-11.2432
▁matters	-11.2438
▁pure	-11.2442
▁songs	-11.2443
▁fur	-11.245
▁hardware	-11.2451
▁골목	-11.2452
▁Especially	-11.2452
com	-11.2458
▁purifier	-11.2461
BBB	-11.2461
▁keyboard	-11.2461
▁monitoring	-11.2465
▁signal	-11.2468
▁maintaining	-11.247
▁factories	-11.2475
▁cutlet	-11.2475
▁continuously	-11.2476
▁질병	-11.2477
speed	-11.2486
아웃	-11.2487
▁유사	-11.2489
▁practical	-11.2498
▁pleasure	-11.2499
▁복합	-11.25
▁perform	-11.25
▁연예	-11.2501
▁블루	-11.2502
▁Hold	-11.2502
▁cooling	-11.2507
▁복사	-11.2509
▁task	-11.2511
ol	-11.2517
▁onions	-11.2519
▁investors	-11.2522
▁transmission	-11.2524
▁Canada	-11.2524
hyeon	-11.2527
▁OOO	-11.2527
▁동기	-11.2527
▁likes	-11.2531
▁continued	-11.2533
▁updated	-11.2534
으	-11.2535
▁Jun	-11.2535
▁kindly	-11.2536
ization	-11.254
▁affordable	-11.255
▁exports	-11.2554
▁흔들	-11.2556
▁ticket	-11.256
▁칠	-11.2572
▁rough	-11.2572
▁moisturizing	-11.2574
▁approved	-11.2579
▁절단	-11.259
▁뛰어납니다	-11.2598
▁압축	-11.2598
▁순환	-11.2599
▁슈	-11.2609
Wait	-11.2611
▁ratio	-11.2611
연동	-11.2613
▁notification	-11.2614
▁tablet	-11.2618
▁snow	-11.2623
▁발효	-11.2625
▁신체	-11.2628
▁friendly	-11.2634
▁공연	-11.2634
몸	-11.2636
▁enjoyed	-11.2642
▁served	-11.2646
▁라이브	-11.2652
▁으려고	-11.2653
▁Feel	-11.2654
▁합시다	-11.2673
▁difficulty	-11.2685
▁conversation	-11.2685
▁stated	-11.2686
▁suggestions	-11.2693
▁remind	-11.2694
몬	-11.2695
▁counseling	-11.2698
▁거쳐	-11.2705
▁지침	-11.2706
▁실까요	-11.2706
▁c	-11.2708
▁만날	-11.2711
Ji	-11.2712
▁인생	-11.2713
▁야채	-11.2714
▁묘	-11.2716
▁국수	-11.272
▁instruments	-11.2725
▁era	-11.2725
▁Fortunately	-11.2726
▁imported	-11.2727
▁맞이	-11.273
▁상관	-11.2734
▁강의	-11.2735
ju	-11.274
▁soap	-11.2743
였	-11.2743
▁potatoes	-11.2748
▁바꿀	-11.2748
▁바이	-11.2749
낼	-11.2749
▁가을	-11.2749
▁eaten	-11.2751
▁optimized	-11.2752
▁스탠드	-11.2752
▁Until	-11.2755
il	-11.2755
▁액체	-11.2756
▁아울	-11.2757
▁목소	-11.2758
▁연속	-11.276
슈	-11.2763
▁settings	-11.2767
▁extension	-11.2773
▁specialized	-11.2779
▁dumplings	-11.278
▁스테이	-11.2785
▁consumer	-11.2787
▁받아들	-11.2794
▁favor	-11.2796
▁accommodate	-11.2799
▁relevant	-11.2799
▁스캔	-11.2799
▁동네	-11.28
▁복구	-11.2806
▁벨트	-11.2813
▁allowing	-11.2817
▁causes	-11.2822
▁microwave	-11.2824
ry	-11.2826
▁Jin	-11.2829
▁수상	-11.2833
▁reviewing	-11.2835
▁patent	-11.2836
많	-11.2839
▁expression	-11.2839
▁billion	-11.2848
▁좁	-11.2851
▁closer	-11.2853
▁assets	-11.2856
▁적응	-11.2856
▁negotiations	-11.2858
▁lotion	-11.2859
▁harder	-11.2863
With	-11.2864
▁가까	-11.2865
니깐	-11.2869
▁무상	-11.2871
▁awesome	-11.2875
▁어떠신가요	-11.2876
N	-11.2876
▁grill	-11.288
자재	-11.288
▁knows	-11.2888
▁tissue	-11.2889
▁wheel	-11.2892
▁manufacturers	-11.2894
▁hat	-11.2894
▁실용	-11.29
▁effectively	-11.2903
▁band	-11.2904
슬	-11.2904
▁누락	-11.2908
패	-11.2909
▁끝내	-11.2912
▁article	-11.2915
▁carrying	-11.2922
ate	-11.2922
꽉	-11.2926
▁toothbrush	-11.2926
▁dial	-11.293
▁소포	-11.2932
▁악기	-11.2938
▁한정	-11.294
▁claim	-11.2942
▁록	-11.2943
▁360	-11.2949
▁remit	-11.2954
▁센	-11.2963
즐	-11.2968
▁calm	-11.297
▁면도	-11.2977
▁rear	-11.2978
▁심장	-11.2979
▁설탕	-11.2981
▁thermal	-11.2982
art	-11.2983
쾌	-11.299
▁farm	-11.2991
▁holiday	-11.2993
▁belt	-11.2993
▁흔	-11.2998
▁capital	-11.3002
▁transparent	-11.3005
▁일시	-11.3007
▁랜	-11.3008
져	-11.3011
▁map	-11.3012
▁간식	-11.3013
▁secured	-11.3017
▁situations	-11.3018
▁spot	-11.3019
▁니까요	-11.3026
▁cakes	-11.303
▁sitting	-11.303
▁쓴	-11.3031
어들	-11.3031
▁Consider	-11.3031
승	-11.3033
▁수확	-11.3033
▁Asian	-11.3033
▁electrical	-11.3033
▁힌	-11.3047
▁opportunities	-11.3056
▁관찰	-11.3056
▁포켓	-11.3057
▁비누	-11.3063
▁subject	-11.3071
▁Customer	-11.3074
▁silver	-11.3082
▁잉크	-11.3082
▁기여	-11.3084
▁할까	-11.3087
▁구분	-11.3087
▁감각	-11.3088
▁미터	-11.3091
▁worrying	-11.3095
▁plug	-11.3096
▁올바른	-11.3108
▁insufficient	-11.3108
▁somewhere	-11.3108
▁중앙	-11.3109
▁optical	-11.3109
▁pink	-11.3109
▁efficiently	-11.311
동생	-11.3111
▁engineers	-11.3114
▁Hong	-11.3114
▁경량	-11.3116
▁임상	-11.3116
1'	-11.3118
칭	-11.3119
▁filming	-11.3121
▁정성	-11.3124
▁라운	-11.3127
▁accidents	-11.3128
▁celebrate	-11.3128
kook	-11.3133
▁hiking	-11.3134
▁여서	-11.3135
▁쌍	-11.3139
▁train	-11.3139
▁wet	-11.314
랐	-11.3148
▁일체	-11.3151
▁램	-11.3152
▁gifts	-11.3156
▁Food	-11.3156
▁조기	-11.3158
▁ourselves	-11.316
▁memories	-11.316
▁컨설	-11.316
▁거품	-11.3161
▁운반	-11.3163
▁피로	-11.3165
▁conducting	-11.317
▁폴리	-11.3178
▁levels	-11.318
▁chemicals	-11.3181
▁lie	-11.3183
▁quotation	-11.3186
▁proven	-11.3188
▁빅	-11.3191
▁vegetable	-11.3203
▁가만	-11.3211
▁retail	-11.3212
▁Vietnam	-11.3213
▁menus	-11.3221
▁가루	-11.3226
▁humans	-11.3229
세척	-11.3231
▁불안	-11.3237
▁gym	-11.3239
▁handling	-11.324
▁Keep	-11.3241
▁골라	-11.3246
▁returned	-11.3251
▁농장	-11.3251
▁degree	-11.3251
▁die	-11.3252
▁심플	-11.326
▁물리	-11.3265
▁100,000	-11.3266
▁varies	-11.3266
▁smaller	-11.3276
▁수영	-11.3278
어야	-11.3281
▁호주	-11.3282
▁shall	-11.3292
▁다이얼	-11.3292
▁냉각	-11.3293
▁published	-11.3294
▁거짓	-11.3296
풍	-11.3298
▁innovation	-11.331
▁blade	-11.3312
▁떨	-11.3313
▁혼합	-11.3317
▁플러그	-11.3319
▁dual	-11.332
▁accumulated	-11.3321
▁전소	-11.3322
▁de	-11.3323
▁keeping	-11.3324
▁배울	-11.3329
▁리라	-11.3332
▁우주	-11.3333
▁29	-11.3334
▁cooperative	-11.3346
▁추억	-11.3346
▁Designed	-11.3347
▁베개	-11.3347
▁농업	-11.3347
▁failed	-11.3348
▁maybe	-11.3348
▁창의	-11.3351
▁expanded	-11.3352
▁See	-11.3361
석진	-11.3367
▁5,000	-11.337
▁slim	-11.3373
▁으십니까	-11.3373
▁연령	-11.3373
▁생길	-11.3379
▁관절	-11.3379
▁Running	-11.3383
▁born	-11.3385
U	-11.3387
▁laser	-11.339
▁브로	-11.3391
▁보온	-11.3395
▁흑	-11.3403
▁휴	-11.3404
▁lab	-11.3406
▁비트	-11.3408
0	-11.3409
tic	-11.341
▁scene	-11.3418
▁destination	-11.3418
▁alarm	-11.3418
▁controller	-11.3418
▁cross	-11.342
▁section	-11.3424
▁원가	-11.3425
▁college	-11.3426
▁coverage	-11.3427
▁단골	-11.3427
▁flower	-11.3432
▁추진	-11.3436
▁반찬	-11.344
▁챙겨	-11.3451
▁버터	-11.3452
▁로그	-11.3459
▁칩	-11.3459
▁sing	-11.3459
▁핑	-11.3465
▁이자	-11.3466
▁snack	-11.3472
▁아동	-11.3473
▁measuring	-11.3481
▁CD	-11.3482
▁세균	-11.3483
li	-11.3484
▁exported	-11.3487
▁plane	-11.3489
▁roll	-11.3489
▁마이	-11.3493
▁visual	-11.3498
▁stages	-11.3499
▁blanket	-11.35
▁toy	-11.35
▁fault	-11.3507
▁payments	-11.3508
▁바이어	-11.3511
▁ml	-11.3518
▁topic	-11.3519
▁열정	-11.3526
젤	-11.3527
▁repay	-11.3528
▁copies	-11.3535
▁moist	-11.3535
▁frequently	-11.3535
▁wonderful	-11.3539
▁extended	-11.3539
▁파란	-11.3541
뷰	-11.3541
▁큰일	-11.3548
▁capture	-11.3549
▁고유	-11.355
Seok	-11.3555
▁luck	-11.3561
▁cozy	-11.3562
▁동작	-11.3563
▁승기	-11.3567
▁변환	-11.3567
▁caus	-11.3569
▁residential	-11.357
▁mark	-11.3572
▁보였	-11.3582
톤	-11.3583
▁만화	-11.3585
▁아프	-11.3585
▁radish	-11.3589
▁membership	-11.359
▁쾌적	-11.359
▁reservations	-11.3591
▁양말	-11.3593
▁대접	-11.3596
▁serving	-11.361
▁doll	-11.3611
▁apartments	-11.3616
ru	-11.3616
▁슬림	-11.3618
▁salty	-11.3619
▁단어	-11.3619
▁재무	-11.3625
▁expectations	-11.3626
▁이럴	-11.3627
▁될지	-11.3632
▁egg	-11.3638
샵	-11.3645
▁유발	-11.3655
▁뼈	-11.3656
▁2,000	-11.3656
Should	-11.3657
▁frequency	-11.366
▁carrier	-11.3665
쉬	-11.3672
▁햇	-11.3672
▁revised	-11.3676
▁participants	-11.3681
▁Co	-11.3685
▁신중	-11.3685
▁languages	-11.3686
▁invited	-11.369
▁이래	-11.3694
▁모아	-11.3697
▁relatively	-11.37
▁delighted	-11.37
▁베스트	-11.3701
▁succeeded	-11.3702
▁쿨	-11.3704
▁act	-11.3704
▁recorded	-11.3707
▁procedures	-11.372
▁reaction	-11.3721
▁페인트	-11.3728
▁dental	-11.3728
▁씹	-11.3728
▁refreshing	-11.3728
▁April	-11.3729
▁억제	-11.3732
▁mid	-11.3733
▁축구	-11.3734
▁션	-11.3734
▁천만	-11.3735
▁reached	-11.3736
바이	-11.3737
▁토론	-11.3739
▁Master	-11.3745
performance	-11.375
▁sick	-11.3756
▁어려우	-11.3756
▁silicone	-11.3756
▁teach	-11.3756
Here	-11.3759
▁소진	-11.3763
▁designer	-11.3766
is	-11.3768
▁pension	-11.3777
▁specializ	-11.3778
▁society	-11.3784
▁scary	-11.3784
▁resolved	-11.3788
▁maintained	-11.3791
▁허가	-11.3794
▁booked	-11.3799
릅니다	-11.3801
Well	-11.3801
▁submit	-11.3811
▁beneficial	-11.3812
▁salary	-11.3812
▁worldwide	-11.3812
ne	-11.3816
▁generated	-11.3817
▁washed	-11.3818
▁체인	-11.3823
▁통기	-11.3824
▁오프	-11.3824
▁soil	-11.3829
▁follows	-11.3832
▁technician	-11.3833
▁커뮤니	-11.3839
▁capabilities	-11.384
▁infrastructure	-11.384
▁recovery	-11.3841
▁Jeong	-11.3842
▁임대료	-11.3844
나무	-11.3845
▁겸	-11.3847
▁term	-11.3847
▁consulting	-11.3849
▁조각	-11.3851
▁홍	-11.3851
▁랩	-11.3852
▁제휴	-11.3857
de	-11.3858
▁궁	-11.3861
▁password	-11.3862
▁tip	-11.3862
▁adjustment	-11.3862
▁가져다	-11.3871
그램	-11.3878
▁소문	-11.3887
혁	-11.3891
▁pandemic	-11.3896
▁들어왔	-11.3897
▁boil	-11.3898
▁위성	-11.3905
▁garden	-11.3911
▁지능	-11.3923
▁assistance	-11.3925
▁European	-11.3925
▁June	-11.3925
ary	-11.3927
▁아닌가요	-11.3927
▁변형	-11.3936
▁통제	-11.3937
▁label	-11.3938
▁explained	-11.3938
▁tree	-11.3947
▁strict	-11.3951
▁어야지	-11.3952
▁extent	-11.3953
▁슈퍼	-11.3953
▁university	-11.3953
▁엄	-11.3955
▁bone	-11.3956
▁Check	-11.3957
▁maker	-11.3958
▁투입	-11.3959
▁현황	-11.396
▁appear	-11.3967
▁드레	-11.3967
▁attaching	-11.3969
▁alternative	-11.3974
▁engineer	-11.3974
▁bicycle	-11.3976
▁maximize	-11.3978
▁메타	-11.3982
▁floors	-11.3982
▁conventional	-11.3983
▁obtained	-11.3983
▁Year	-11.3984
▁좌석	-11.3987
▁distributed	-11.3987
▁나옵니다	-11.3989
▁recognize	-11.3989
해서	-11.3999
ling	-11.3999
▁numbers	-11.4001
▁noodle	-11.4005
▁textbooks	-11.4007
▁beyond	-11.401
▁냄	-11.4012
▁빠져	-11.4017
▁다고요	-11.4018
▁어떡	-11.4018
▁신다는	-11.4019
▁dye	-11.4019
▁mistakes	-11.4023
▁타임	-11.4025
▁laugh	-11.4029
▁remov	-11.4033
▁부여	-11.4036
▁neighborhood	-11.4039
틴	-11.4043
▁리조	-11.4044
▁environments	-11.4051
▁announce	-11.406
▁spoon	-11.4062
▁recipe	-11.4062
▁느냐	-11.4066
▁hygiene	-11.4067
▁브레이크	-11.4067
▁Germany	-11.4068
▁납입	-11.4071
▁buyer	-11.4081
Ha	-11.4082
ance	-11.4087
▁lived	-11.409
▁등산	-11.4093
▁hire	-11.4093
▁respect	-11.4094
▁nights	-11.4094
▁이슈	-11.4095
▁이탈리아	-11.4096
▁posted	-11.4102
▁모릅니다	-11.4103
▁ring	-11.4104
ter	-11.4119
▁drone	-11.412
▁기부	-11.4121
Even	-11.4121
▁retailer	-11.4121
▁고소	-11.4123
▁shelf	-11.4125
숍	-11.4125
▁expiration	-11.4125
▁wooden	-11.4125
▁Won	-11.4126
▁combined	-11.4129
▁collected	-11.413
At	-11.4132
▁bus	-11.4133
▁소모	-11.414
minute	-11.415
▁notify	-11.415
?"	-11.4152
▁thoughts	-11.4155
▁뜨거운	-11.4162
▁colleagues	-11.4165
▁조율	-11.4169
▁promoted	-11.4169
▁아우	-11.4171
▁distribute	-11.4173
▁징	-11.4175
▁모기	-11.4175
▁doctor	-11.4179
▁guy	-11.4179
▁롤	-11.418
▁inviting	-11.4183
▁stopped	-11.4183
▁packages	-11.4187
▁Song	-11.4189
동현	-11.4199
▁Pro	-11.4205
▁감상	-11.4206
class	-11.4209
▁hydrogen	-11.4212
▁synthetic	-11.4212
▁vice	-11.4212
▁delivering	-11.4214
▁종종	-11.4218
▁containers	-11.4223
▁친화	-11.4228
▁inner	-11.4234
풀	-11.4235
▁순서	-11.4235
la	-11.4237
▁gently	-11.4241
▁제기	-11.4245
▁가전	-11.4245
▁f	-11.4245
▁손가락	-11.4245
▁넘어	-11.4259
났	-11.426
▁nutrients	-11.4261
▁줄일	-11.4262
▁Nice	-11.4263
soo	-11.4266
▁session	-11.4267
▁rain	-11.4268
▁무릎	-11.4271
▁constantly	-11.4272
▁늘어	-11.4279
▁계절	-11.428
▁생선	-11.4282
▁shock	-11.4287
▁주거	-11.4289
페이스	-11.429
▁supplements	-11.4292
▁아버	-11.4294
▁trends	-11.4295
▁succeed	-11.4298
▁generous	-11.4299
▁plenty	-11.43
▁sesame	-11.43
▁ISO	-11.43
▁reputation	-11.43
▁족	-11.4303
▁HD	-11.4305
▁연주	-11.4312
▁걸쳐	-11.4312
be	-11.432
▁편한	-11.4326
▁mirror	-11.4326
made	-11.4328
▁위기	-11.4329
bu	-11.433
▁ink	-11.433
▁recycled	-11.4331
▁layer	-11.4336
▁다소	-11.4339
▁trusted	-11.4341
▁channels	-11.4343
▁제약	-11.4345
▁listed	-11.4347
▁requesting	-11.4347
▁panels	-11.4352
▁improvement	-11.4357
Good	-11.4357
Take	-11.4357
▁75	-11.4359
▁lining	-11.4359
▁견본	-11.4361
▁displayed	-11.4367
ty	-11.4368
▁불리	-11.4368
▁achieved	-11.4369
▁butter	-11.4375
▁combines	-11.4377
▁installing	-11.4382
▁earn	-11.4385
▁filling	-11.4385
▁sector	-11.4386
덩	-11.4386
▁700	-11.4387
▁십시요	-11.4389
▁sunlight	-11.4389
▁냅니다	-11.4393
▁레드	-11.4408
▁superior	-11.4416
▁°	-11.4417
▁멈	-11.4421
Not	-11.4423
▁마을	-11.4426
▁Us	-11.4431
line	-11.4435
▁mold	-11.4437
▁쥐	-11.4444
▁ear	-11.4446
▁jacket	-11.4446
▁원한다	-11.4447
괄	-11.4449
▁numerous	-11.4449
육	-11.4454
▁엔터	-11.4456
▁reported	-11.4458
▁봄	-11.4458
▁달걀	-11.4458
▁만났	-11.4461
▁load	-11.4466
▁objects	-11.4467
▁자부	-11.4476
▁wool	-11.4478
▁fell	-11.448
▁걸려	-11.4481
▁뻔	-11.4482
▁drones	-11.4483
▁updates	-11.4489
▁계란	-11.449
▁Abou	-11.4496
▁thousand	-11.4497
▁muscles	-11.4501
▁매끄	-11.4504
쓰	-11.4507
▁economy	-11.4509
▁quantities	-11.4509
▁thickness	-11.4509
▁himself	-11.4509
▁혈압	-11.4514
▁strongly	-11.4516
▁guarantees	-11.4521
▁일으	-11.4524
게요	-11.453
▁charges	-11.4537
▁military	-11.4539
▁인프라	-11.4539
▁후보	-11.4541
▁involved	-11.4542
▁agents	-11.4547
▁상표	-11.4554
▁부과	-11.4556
▁hang	-11.4561
▁Fi	-11.4563
섭	-11.4566
house	-11.4566
▁스러	-11.4566
▁instrument	-11.4567
슐	-11.4569
▁와이어	-11.457
▁예능	-11.4575
▁치과	-11.4576
▁구동	-11.458
▁occurs	-11.4585
▁런	-11.4586
▁유재	-11.4589
▁결재	-11.4591
All	-11.4592
▁compare	-11.4594
▁썰	-11.4595
▁packaged	-11.4596
▁ages	-11.4599
▁courier	-11.4599
▁honey	-11.4599
▁diverse	-11.4599
▁LCD	-11.4599
▁이불	-11.4601
▁street	-11.4602
▁com	-11.4603
▁Provide	-11.4609
▁그릴	-11.4611
▁기후	-11.4616
ce	-11.4617
▁meets	-11.4619
▁audience	-11.4628
▁fund	-11.4628
▁갈비	-11.4629
▁elasticity	-11.463
테	-11.463
▁Experience	-11.4631
아노	-11.4633
▁socks	-11.4634
▁아파	-11.4636
▁charger	-11.4637
널리	-11.4639
▁남녀	-11.4639
▁fans	-11.464
▁키워	-11.4646
▁Three	-11.4648
뇨	-11.4652
▁해산	-11.4655
▁University	-11.466
▁얼룩	-11.466
▁patterns	-11.466
▁팅	-11.4667
▁bedroom	-11.4669
▁집안	-11.4689
▁wrist	-11.4689
콘	-11.469
▁무서워	-11.4691
▁토마토	-11.4693
▁mechanical	-11.4693
▁주름	-11.4694
▁pen	-11.4698
용량	-11.4706
▁사례	-11.4708
▁진지	-11.4711
촌	-11.4712
▁주저	-11.4712
▁accounts	-11.4719
▁strange	-11.4719
▁soybean	-11.472
컬	-11.4721
▁background	-11.4722
▁촉진	-11.4724
▁internally	-11.4726
▁arm	-11.4728
▁결혼식	-11.473
언	-11.4733
▁Han	-11.4734
리뷰	-11.4737
▁tons	-11.4738
▁48	-11.4739
▁오르	-11.474
▁헬	-11.474
균	-11.4746
어지	-11.4746
▁calendar	-11.4751
▁truck	-11.4751
▁woman	-11.4752
▁rock	-11.4755
▁핀	-11.4756
아가	-11.4758
law	-11.4759
▁loans	-11.4766
▁문구	-11.4766
▁falling	-11.4769
▁데일	-11.4771
▁발라	-11.4772
▁mention	-11.4774
▁빨라	-11.4776
▁workshop	-11.4783
▁stomach	-11.4783
▁steadily	-11.4783
▁surveillance	-11.4783
▁operates	-11.4786
케	-11.4788
▁Every	-11.4793
▁operations	-11.4794
▁engines	-11.4796
▁한데요	-11.4799
▁정비	-11.4801
▁toys	-11.4801
▁connecting	-11.4805
▁이점	-11.4807
▁cry	-11.4807
▁exporting	-11.4808
▁prompt	-11.4813
▁death	-11.4814
▁guidance	-11.4814
▁park	-11.4814
겹	-11.4814
▁detection	-11.4817
▁미네	-11.4819
▁picked	-11.4825
먹	-11.4827
▁frying	-11.4827
▁bio	-11.4832
▁픽	-11.4839
▁researchers	-11.484
▁studied	-11.4845
▁basically	-11.4845
▁레벨	-11.4846
hui	-11.4851
휘	-11.4857
▁대여	-11.4857
▁얼음	-11.4862
▁supplying	-11.4863
▁의학	-11.4864
▁mushrooms	-11.4867
▁전산	-11.4869
▁album	-11.4876
▁identify	-11.4876
▁hidden	-11.4876
▁hungry	-11.4876
▁labor	-11.4876
Thank	-11.4877
▁ceremony	-11.4877
베이스	-11.488
▁걸렸	-11.4881
et	-11.4883
▁텐데요	-11.4883
▁smartphones	-11.4884
▁짜장	-11.4897
▁굴	-11.4897
▁challenge	-11.4903
▁upgrade	-11.4905
▁signature	-11.4907
▁worries	-11.4907
슘	-11.4907
▁evenly	-11.4907
박스	-11.4908
▁significant	-11.4908
▁pollution	-11.4908
▁ventilation	-11.4908
▁lenses	-11.4908
▁experiences	-11.4909
▁Station	-11.491
▁vibration	-11.4911
▁오피스	-11.4912
▁껍	-11.4912
▁cups	-11.4914
상품	-11.4915
▁centers	-11.4915
립니다	-11.4916
▁높일	-11.4917
▁스토	-11.4917
▁Add	-11.4923
▁Aren	-11.4924
▁tank	-11.4925
을	-11.4928
▁고추	-11.4934
▁폐기	-11.4934
▁senior	-11.4939
▁반송	-11.494
▁발명	-11.4951
▁hole	-11.4953
▁기초	-11.4954
령	-11.4963
참	-11.4969
▁빨	-11.4969
▁한계	-11.497
▁temple	-11.497
▁valve	-11.4971
▁사이드	-11.4974
▁맵	-11.4975
▁affected	-11.4975
▁계세요	-11.4978
▁upon	-11.4987
▁꼬	-11.4988
▁graphic	-11.4989
▁sensors	-11.5
▁precise	-11.5002
▁race	-11.5002
▁complicated	-11.5002
▁arms	-11.5003
▁star	-11.5006
-19.	-11.5007
▁dealing	-11.501
▁semi	-11.501
▁가열	-11.5012
▁flowers	-11.5012
ta	-11.5016
눈	-11.5019
▁눈물	-11.5027
냈	-11.503
▁bills	-11.503
▁fatigue	-11.5033
▁deputy	-11.5033
▁BPA	-11.5034
▁ears	-11.5036
▁당연	-11.5037
▁Depend	-11.504
▁버려	-11.5042
▁warmth	-11.5043
▁꼴	-11.5044
▁갱	-11.5045
▁정의	-11.505
▁공원	-11.5052
▁정원	-11.5054
▁focusing	-11.5055
▁은지	-11.5055
▁유의	-11.5058
▁elements	-11.5059
▁collaborate	-11.5059
▁뉴	-11.506
▁기다릴	-11.506
혔	-11.5062
▁가위	-11.5062
▁estimated	-11.5065
▁휠	-11.5067
slip	-11.5067
▁단축	-11.5067
▁인수	-11.5069
▁editing	-11.507
▁개봉	-11.508
▁매달	-11.5087
▁초보	-11.509
▁speakers	-11.5096
▁insulation	-11.5097
▁honestly	-11.51
▁감염	-11.5101
▁경고	-11.5103
▁boiled	-11.5103
▁drawing	-11.5105
▁계셨	-11.5109
▁Everything	-11.5109
▁이끌	-11.5109
▁sharp	-11.5109
▁떠	-11.5112
▁Seong	-11.5113
▁자본	-11.5116
▁cap	-11.5124
겐	-11.5129
▁facial	-11.5129
▁losing	-11.5129
▁climate	-11.5129
▁competitiveness	-11.5129
▁커뮤니티	-11.5129
▁overcome	-11.513
▁군데	-11.513
▁assistant	-11.513
딜	-11.5131
▁받아들일	-11.5133
▁상사	-11.514
▁host	-11.5147
▁beat	-11.5148
▁대요	-11.5148
▁cast	-11.5151
▁YouTube	-11.5155
▁remains	-11.5159
▁시킨	-11.516
▁composition	-11.5161
▁machinery	-11.5162
▁금지	-11.5162
▁offices	-11.5165
▁볼까요	-11.5166
▁긴급	-11.5166
▁부채	-11.5168
▁본격	-11.5172
▁Tell	-11.5181
use	-11.5183
mo	-11.519
▁entrance	-11.5193
▁미끄럼	-11.5193
▁으신지	-11.5193
▁Easy	-11.5194
▁magazine	-11.5195
솔	-11.5196
▁turning	-11.5196
▁우드	-11.5204
▁noticed	-11.5206
▁부정	-11.5207
▁hate	-11.5213
▁Hurry	-11.5225
댑	-11.5225
▁yarn	-11.5227
▁높였	-11.5228
▁specializes	-11.5229
▁독립	-11.523
▁acting	-11.5234
▁통계	-11.5235
▁튀김	-11.5239
▁Compare	-11.5245
▁힘드	-11.5246
▁remain	-11.5251
▁보존	-11.5254
니까	-11.5256
▁creative	-11.5257
▁DNA	-11.5258
▁subtle	-11.5258
▁180	-11.5259
▁비서	-11.526
▁Sales	-11.526
▁해진	-11.526
▁Welcome	-11.527
▁라이프	-11.5271
▁00	-11.5274
▁Was	-11.5274
▁buttons	-11.5276
▁새우	-11.5279
▁spacious	-11.529
▁lifestyle	-11.5291
▁모임	-11.5291
▁잘라	-11.5292
▁그린	-11.5292
▁principle	-11.5293
▁publishing	-11.5294
▁laptops	-11.5297
▁검수	-11.5298
▁sweat	-11.5299
▁accordingly	-11.53
▁precision	-11.5301
▁다를	-11.5301
▁파산	-11.5302
▁tables	-11.5302
▁쉬워	-11.5313
▁draw	-11.5315
▁미용	-11.5318
▁casual	-11.5322
▁birth	-11.5323
▁트랙	-11.5323
▁스프레이	-11.5323
▁다이어트	-11.5323
▁removal	-11.5324
▁Sometimes	-11.5328
▁courses	-11.5329
▁스위	-11.533
▁closely	-11.533
▁resistant	-11.533
기름	-11.5334
▁Didn	-11.5335
▁으려	-11.5342
▁strengthen	-11.535
▁contribute	-11.535
▁갑작스	-11.5354
▁stories	-11.5355
밌	-11.5355
▁programming	-11.5356
▁aircraft	-11.5356
▁traveling	-11.5358
▁hundred	-11.5358
▁간략	-11.536
▁스위트	-11.5361
▁모여	-11.5361
▁grilled	-11.5363
▁hotels	-11.5363
me	-11.5365
▁writer	-11.5368
▁mixing	-11.5369
▁count	-11.5375
▁사망	-11.5375
▁relax	-11.5378
▁satisfy	-11.5381
▁implement	-11.5382
▁corn	-11.5382
▁ease	-11.5383
▁Yeong	-11.5383
▁narrow	-11.5386
▁worst	-11.5388
▁끊임없	-11.5388
▁텔레	-11.5389
▁커튼	-11.5389
▁차라	-11.5389
▁실현	-11.539
촉	-11.539
▁apology	-11.5391
▁textbook	-11.5392
▁2020	-11.5401
▁블레이	-11.5412
▁sheets	-11.5417
▁instant	-11.542
▁diagnosis	-11.5426
라이언	-11.5428
▁ends	-11.5428
▁초과	-11.5429
▁shoulder	-11.543
▁틱	-11.543
▁중개	-11.5439
▁vitamins	-11.5441
▁happening	-11.545
▁worse	-11.5453
▁sufficient	-11.5453
▁graphics	-11.5453
늬	-11.5454
▁체육	-11.5455
▁upset	-11.5456
▁dead	-11.5456
▁분해	-11.5458
▁앤	-11.5459
▁통관	-11.5459
▁printed	-11.5462
▁grain	-11.5473
style	-11.549
level	-11.5492
▁오징어	-11.5496
AAA	-11.5496
▁seasoned	-11.5501
▁끝난	-11.5503
▁문제점	-11.5504
미터	-11.5515
▁fail	-11.5515
▁mattress	-11.552
▁ordinary	-11.552
▁spent	-11.552
▁pillow	-11.5524
shaped	-11.5525
▁Sorry	-11.5528
▁virus	-11.5529
way	-11.5538
▁넷	-11.5546
▁analyze	-11.5552
▁constant	-11.5553
▁lips	-11.5554
▁squid	-11.5554
▁gradually	-11.5554
▁탄탄	-11.5554
▁신지	-11.5555
▁exposed	-11.5555
▁resort	-11.5558
▁포기	-11.5558
▁마요	-11.556
▁구워	-11.5578
▁tall	-11.5578
▁분사	-11.5583
ge	-11.5587
▁Center	-11.5587
▁불행	-11.5593
and	-11.5594
사장	-11.5594
▁heater	-11.5596
입자	-11.5596
▁networks	-11.5598
3.	-11.5606
▁pop	-11.5609
▁thorough	-11.562
▁주파수	-11.5621
▁세라믹	-11.5621
▁managing	-11.5621
▁selection	-11.5622
▁접착	-11.5625
▁350	-11.5625
ies	-11.5628
▁샷	-11.563
▁mineral	-11.5634
po	-11.5635
▁theme	-11.5636
▁용지	-11.5638
▁이광	-11.5639
▁viewers	-11.5639
▁hurts	-11.5643
▁predict	-11.5645
▁예쁜	-11.5645
▁론	-11.5646
▁fly	-11.5653
▁하늘	-11.5655
꼭지	-11.5661
조식	-11.5673
▁에다	-11.568
람	-11.5681
▁crisis	-11.5688
▁inevitably	-11.5688
▁meaningful	-11.569
▁elastic	-11.5691
person	-11.5692
▁pamphlet	-11.5693
▁wired	-11.5698
▁소주	-11.5698
▁factor	-11.5699
▁저항	-11.5701
ie	-11.5707
▁subscribe	-11.5716
▁닝	-11.5719
▁Jang	-11.5721
▁선도	-11.5722
▁families	-11.5722
▁mortgage	-11.5722
리퍼	-11.5723
▁생체	-11.5726
oc	-11.5739
▁영지	-11.5743
세대	-11.5743
ous	-11.5747
▁이루어져	-11.5748
▁실력	-11.575
▁다니까	-11.5753
▁CPU	-11.5756
▁Restaurant	-11.5756
▁lifetime	-11.576
woo	-11.576
▁managers	-11.5764
▁newspaper	-11.5764
▁India	-11.5764
▁treated	-11.5766
▁순수	-11.5768
▁pads	-11.5772
▁smoke	-11.5776
▁reports	-11.5777
▁mostly	-11.5779
▁imagine	-11.5785
▁가습	-11.5789
▁satisfactory	-11.579
▁manpower	-11.579
▁스프링	-11.5791
▁lowest	-11.5793
▁format	-11.5795
▁부득	-11.5795
▁ceramic	-11.5796
▁toilet	-11.5796
▁edition	-11.5799
▁인보	-11.5801
▁일까요	-11.581
▁살려	-11.5816
▁맛보	-11.5816
▁더블	-11.5817
닮	-11.5825
▁놀랍	-11.5825
▁경찰	-11.5825
▁트레이	-11.5827
▁deeply	-11.5828
▁previously	-11.5829
▁reflected	-11.5829
▁창업	-11.583
▁수소	-11.5834
▁경로	-11.5838
▁particles	-11.5838
▁deposited	-11.5839
▁tag	-11.5841
▁Dr	-11.5851
▁strive	-11.5852
▁아름	-11.5858
쳤	-11.5858
췄	-11.5859
▁soccer	-11.5859
▁studies	-11.5859
▁가르쳐	-11.5859
▁tend	-11.5859
이파이	-11.586
▁implemented	-11.5861
▁소설	-11.5865
▁stone	-11.5866
겼	-11.5866
▁trusting	-11.5867
▁고추장	-11.5868
▁aging	-11.5869
▁aim	-11.5874
▁investments	-11.588
▁맥	-11.5883
핑크	-11.5884
혹	-11.5892
as	-11.5893
▁smile	-11.5893
딥	-11.5893
▁섬세	-11.5894
▁담긴	-11.5894
▁구강	-11.5898
▁광택	-11.5899
ma	-11.5899
▁motion	-11.59
▁AS	-11.5901
▁withstand	-11.5904
▁라서요	-11.5905
곡	-11.5906
▁nutrition	-11.591
▁nutritional	-11.5911
▁은은	-11.5924
▁porridge	-11.5928
▁비빔	-11.5928
utheast	-11.5929
▁청결	-11.593
▁컨디	-11.5931
▁positively	-11.5932
▁응원	-11.5935
After	-11.5936
이브	-11.5937
▁fighting	-11.5943
▁hospitals	-11.5944
▁scratch	-11.5949
▁pages	-11.595
un	-11.5953
▁broke	-11.5954
주얼	-11.5955
▁태국	-11.5956
▁적혀	-11.5957
▁전지	-11.596
▁negative	-11.5963
▁비닐	-11.5963
▁regularly	-11.5969
▁intention	-11.5971
▁붙여	-11.5974
▁finding	-11.5982
▁saving	-11.5984
▁attract	-11.5988
▁onion	-11.599
ble	-11.5991
▁tough	-11.5996
▁participating	-11.5998
▁볶음	-11.5998
▁Bank	-11.5998
▁밝혀	-11.6
▁정교	-11.6
▁marriage	-11.6
▁존경	-11.6001
▁symptoms	-11.6002
▁maintains	-11.6003
▁finance	-11.6005
▁shoe	-11.6005
▁satellite	-11.6007
rok	-11.6009
age	-11.6009
▁50,000	-11.602
▁savings	-11.6025
▁realize	-11.6028
▁웨	-11.603
▁handmade	-11.6033
▁는군요	-11.6035
▁블록	-11.6036
▁missed	-11.6038
ted	-11.6043
▁experiment	-11.6043
▁20,000	-11.6046
▁월세	-11.6051
▁엽	-11.6055
▁폰	-11.6055
▁벨	-11.6064
▁obtain	-11.6065
▁afford	-11.6067
▁컨테이너	-11.6068
▁식탁	-11.6068
▁태양광	-11.6068
▁schedules	-11.6069
▁낙지	-11.6073
▁appears	-11.6074
▁수동	-11.6075
▁focused	-11.6075
▁headset	-11.6075
bin	-11.6076
닉	-11.6076
▁sofa	-11.6081
▁증정	-11.6083
▁recover	-11.6093
▁propose	-11.6097
▁confused	-11.6104
야죠	-11.6105
▁버렸	-11.6108
▁tips	-11.611
▁사유	-11.6111
▁linked	-11.6115
재료	-11.6116
▁굽	-11.6129
▁earphones	-11.6131
▁severe	-11.6137
▁promoting	-11.6138
▁나타났	-11.6138
▁marked	-11.6141
준	-11.6143
▁accepting	-11.6147
▁boiling	-11.6147
▁recommendation	-11.615
▁특이	-11.6151
▁빗	-11.6153
Min	-11.6159
▁saved	-11.616
▁blocks	-11.616
▁pairs	-11.6161
▁이겼	-11.6161
▁피스	-11.6166
▁상하	-11.6168
▁저작	-11.6168
▁정지	-11.6169
▁detect	-11.6172
넛	-11.6174
▁sort	-11.6174
▁generate	-11.6177
▁데리	-11.6177
▁forms	-11.6178
렛	-11.6183
▁꽂	-11.6183
▁살아	-11.6185
▁lightly	-11.6186
▁trial	-11.6187
▁beverages	-11.6189
3,	-11.6191
▁Perfect	-11.6202
▁부대	-11.6202
▁더라	-11.6206
▁Yeon	-11.6206
▁award	-11.6206
off	-11.6207
hether	-11.6209
▁French	-11.6209
▁priority	-11.6209
▁걷	-11.6209
▁brief	-11.621
▁떨어졌	-11.621
▁concentration	-11.6211
▁풍미	-11.6211
▁flavors	-11.6212
스터	-11.6217
▁joke	-11.6218
며	-11.6219
▁36	-11.6221
▁사인	-11.6232
▁depth	-11.6232
▁Australia	-11.6245
▁yeah	-11.6245
맑	-11.6245
▁whatever	-11.6248
▁village	-11.625
학교	-11.6252
▁invested	-11.6253
클	-11.6253
▁piano	-11.6254
▁resume	-11.6254
Everyone	-11.6255
▁스타트	-11.6256
▁Over	-11.6257
▁습도	-11.6257
▁유산	-11.6263
▁artist	-11.6265
▁cleaned	-11.6269
▁groups	-11.6271
▁supplement	-11.6281
▁happiness	-11.6281
▁펴	-11.6281
▁테마	-11.6286
▁muscle	-11.629
scale	-11.6291
▁주기	-11.6293
▁파라	-11.6297
▁reserved	-11.6299
▁competitors	-11.6299
▁900	-11.6299
▁b	-11.6303
▁스러워	-11.6305
▁discussing	-11.6308
▁pockets	-11.6308
▁알아	-11.631
▁demonstration	-11.6317
튬	-11.6317
▁Airport	-11.6317
▁leak	-11.6317
▁importance	-11.6317
▁학년	-11.6318
가운	-11.6318
▁염려	-11.6318
▁exclusively	-11.6319
▁deals	-11.632
▁plays	-11.6322
▁statement	-11.6327
▁debt	-11.6328
▁출입	-11.6328
▁suppliers	-11.6339
▁향기	-11.6344
▁circulation	-11.6353
▁characterized	-11.6353
▁러시아	-11.6353
▁끓여	-11.6355
▁샌드	-11.6355
▁Kong	-11.6356
▁performed	-11.6356
ung	-11.6357
▁오리	-11.6363
ant	-11.6366
generation	-11.6367
▁인재	-11.6378
▁gather	-11.638
▁exterior	-11.6389
▁knife	-11.6389
▁clinical	-11.639
▁러닝	-11.6391
▁대처	-11.6391
▁currency	-11.6391
▁prevention	-11.6392
▁individually	-11.6392
▁불평	-11.6394
▁리더	-11.6395
ine	-11.6396
▁slip	-11.6396
▁surrounding	-11.6401
▁주간	-11.6403
▁습관	-11.6403
▁프	-11.6405
긴	-11.6406
▁hide	-11.6408
▁Somin	-11.6424
▁glance	-11.6425
▁understood	-11.6425
▁pride	-11.6426
▁곰팡이	-11.6426
▁남기	-11.6426
▁windows	-11.6428
▁삼각	-11.6429
혈	-11.6432
▁좌	-11.6434
▁bike	-11.6436
▁blog	-11.6436
▁Congratulations	-11.6436
▁greater	-11.6443
OK	-11.6447
▁현미	-11.6456
이스	-11.6459
▁rapid	-11.6461
▁automation	-11.6462
▁preferred	-11.6462
▁Kindly	-11.6462
▁지하철	-11.6462
▁specifically	-11.6462
▁eliminate	-11.6462
▁accuracy	-11.6463
▁humidity	-11.6463
▁pickup	-11.6466
▁난방	-11.6467
▁경비	-11.6468
▁써야	-11.647
▁싹	-11.6473
▁65	-11.6475
▁구할	-11.6475
▁전동	-11.6478
pa	-11.6479
찮	-11.6479
bo	-11.6484
▁mountain	-11.6486
▁창문	-11.6487
▁룰	-11.6489
▁His	-11.649
▁노동	-11.6492
▁notes	-11.6496
▁grab	-11.6499
▁applies	-11.6499
▁burdensome	-11.6499
▁female	-11.6499
▁irritation	-11.6499
▁reliability	-11.6499
▁sky	-11.6499
▁lip	-11.6499
▁clearance	-11.6499
▁접촉	-11.6499
▁출근	-11.65
▁반죽	-11.65
▁lucky	-11.65
▁delivers	-11.6509
▁$1	-11.6509
▁database	-11.6509
윈	-11.651
▁이력	-11.6513
▁@	-11.6517
▁거친	-11.6524
▁거부	-11.6529
▁truly	-11.6535
▁tteokbokki	-11.6535
▁사은	-11.6536
라지	-11.6537
입니다	-11.6538
▁creation	-11.654
▁한옥	-11.654
▁골드	-11.6544
▁goals	-11.6546
▁automobile	-11.6547
pe	-11.6549
▁outfit	-11.6549
▁오토	-11.6554
▁대행	-11.6555
▁페이스	-11.6557
▁종사	-11.6558
울립니다	-11.6561
▁대회	-11.657
▁awkward	-11.6572
▁navigation	-11.6572
▁으십니다	-11.6572
▁issued	-11.6573
hyeong	-11.6573
▁lecture	-11.6578
▁오버	-11.658
▁Any	-11.6583
▁hint	-11.6584
찌개	-11.6585
▁surely	-11.6592
▁알려진	-11.6593
운드	-11.6604
ent	-11.6606
▁impressive	-11.6609
▁elderly	-11.6609
▁gel	-11.661
▁cultural	-11.6611
▁rid	-11.6612
▁식별	-11.6614
▁순조	-11.6614
▁plates	-11.6617
골	-11.6618
▁string	-11.6621
▁ribs	-11.6623
▁준다	-11.6625
▁옥	-11.6625
▁seller	-11.6635
▁공용	-11.6635
▁meaning	-11.6635
va	-11.6638
▁negotiate	-11.6641
럴	-11.6641
▁strategies	-11.6646
▁chewy	-11.6647
▁extremely	-11.6647
▁알레르기	-11.6648
▁중고	-11.6659
Does	-11.6661
▁칸	-11.6678
▁East	-11.6683
▁temporarily	-11.6684
▁옥수수	-11.6684
▁expertise	-11.6684
▁됨	-11.6684
▁meter	-11.6684
▁freshness	-11.6685
▁이겨	-11.6686
▁랍니다	-11.6687
납	-11.6689
bi	-11.6695
▁bath	-11.6699
▁분산	-11.6701
▁수신	-11.6705
ist	-11.6706
▁ergonomic	-11.6721
▁inevitable	-11.6721
▁UK	-11.6722
▁guidelines	-11.6729
▁campaign	-11.6734
▁answering	-11.6736
▁큐	-11.6746
ize	-11.6747
어묵	-11.6749
▁wheels	-11.6751
▁접이	-11.6752
▁nine	-11.6759
▁autumn	-11.6759
▁inconvenient	-11.6759
▁raising	-11.6759
▁elementary	-11.6759
▁트레일러	-11.6759
▁impressed	-11.676
▁unfortunately	-11.676
▁챙	-11.6764
ni	-11.6764
▁decrease	-11.6766
▁옮	-11.6768
▁relieved	-11.6769
▁볼까	-11.6772
▁adapter	-11.6774
▁Originally	-11.6776
걸리	-11.6777
▁새해	-11.6777
▁3,000	-11.6777
▁tickets	-11.6778
▁권한	-11.6781
go	-11.6782
▁젤	-11.6783
찌	-11.6783
per	-11.6786
▁avail	-11.6787
▁kick	-11.6787
ba	-11.6788
▁letters	-11.6788
▁타일	-11.6788
▁calculate	-11.6791
이머	-11.6796
▁Research	-11.6796
▁여쭙	-11.6797
▁neatly	-11.6799
▁dough	-11.68
▁미쳤	-11.68
ff	-11.68
▁드세요	-11.68
▁pair	-11.6801
▁이분	-11.6801
▁음향	-11.6807
▁blind	-11.6809
▁theater	-11.681
▁modes	-11.681
▁건가	-11.6813
▁profile	-11.6816
▁upload	-11.6827
▁탕	-11.6828
합니다	-11.683
▁시야	-11.6832
mp	-11.6834
▁participation	-11.6834
▁revenue	-11.6834
갚	-11.6834
▁싱글	-11.6835
▁crying	-11.6843
▁talent	-11.6846
▁interface	-11.6848
▁specially	-11.6848
▁accepted	-11.6849
▁sub	-11.6856
▁controls	-11.6859
),	-11.6861
▁laws	-11.6867
ch	-11.687
▁Yoo	-11.687
▁야지	-11.6871
▁낭비	-11.6873
▁감싸	-11.6873
▁입찰	-11.6874
▁width	-11.6875
▁Includes	-11.6876
▁Air	-11.6878
▁MRI	-11.6879
티브	-11.6887
▁pharmaceutical	-11.6887
베이	-11.6888
▁banks	-11.689
▁55	-11.6895
▁야간	-11.69
▁reject	-11.6908
z	-11.6908
▁conclusion	-11.6911
▁획기	-11.6911
▁스펙	-11.6911
▁chairman	-11.6911
▁gotten	-11.6911
▁losses	-11.6912
▁노란	-11.6913
▁concerned	-11.6915
▁Haha	-11.6917
렌	-11.6919
▁actor	-11.6925
▁명함	-11.6926
Put	-11.6926
▁Uh	-11.6935
▁towel	-11.6935
▁resolve	-11.6943
▁J	-11.6945
▁프로필	-11.6946
▁trash	-11.6949
▁PDF	-11.6949
▁auto	-11.6949
▁판촉	-11.6949
드려요	-11.6951
▁니스	-11.6953
▁began	-11.6954
▁tire	-11.6958
▁포근	-11.696
▁establishment	-11.6963
▁나온다	-11.6964
세포	-11.6966
▁rose	-11.6968
000	-11.697
▁롱	-11.6972
동식	-11.6979
▁맞출	-11.6982
▁마트	-11.6982
▁baking	-11.6987
▁perspective	-11.6987
▁중지	-11.6989
▁혈액	-11.6989
▁wipe	-11.699
▁outstanding	-11.699
at	-11.699
▁officially	-11.6991
▁에이전	-11.6992
▁presented	-11.6996
▁colorful	-11.6997
힐	-11.6999
▁canned	-11.6999
ak	-11.7001
▁VIP	-11.7002
셀	-11.7002
▁에이	-11.7002
▁gear	-11.7002
▁spa	-11.7003
둥	-11.7003
▁boat	-11.7003
▁구경	-11.7014
라도	-11.7019
10	-11.7022
▁discounted	-11.7025
di	-11.7026
ized	-11.7028
▁World	-11.7028
▁Otherwise	-11.7028
이즈	-11.7029
Bro	-11.7031
▁무거운	-11.7033
▁배포	-11.7034
▁begins	-11.7035
ring	-11.704
롱	-11.704
▁object	-11.7041
▁professor	-11.7041
▁booth	-11.7041
▁distributor	-11.7058
▁메이	-11.7061
▁counselor	-11.7065
▁vegan	-11.7065
▁봅시다	-11.7065
▁규격	-11.7066
▁인삼	-11.7071
▁papers	-11.7072
▁멘	-11.7072
▁waves	-11.7074
▁원자	-11.7078
Of	-11.7078
▁winner	-11.708
▁끄	-11.7082
▁opens	-11.7087
▁나갔	-11.7095
ja	-11.7095
▁preventing	-11.7095
▁지적	-11.7101
▁loose	-11.7102
▁razor	-11.7104
▁fake	-11.7104
▁드라이버	-11.7104
▁wake	-11.7105
▁offline	-11.7105
▁향수	-11.7109
▁waist	-11.7113
▁mounted	-11.7132
▁jump	-11.7137
▁loud	-11.7141
▁exciting	-11.7143
▁shrimp	-11.7143
▁subway	-11.7143
▁Tae	-11.7143
갑니다	-11.7144
▁remodeling	-11.7146
▁무기	-11.7149
▁Shall	-11.7152
▁combine	-11.7153
▁꿀	-11.7153
▁증권	-11.7158
▁semiconductor	-11.7159
룰	-11.7159
X	-11.717
▁king	-11.7176
▁styles	-11.7177
▁Meet	-11.7178
▁수건	-11.7178
▁arrives	-11.7178
▁위원	-11.7179
▁고마워	-11.718
▁콜라	-11.7181
▁cumbersome	-11.7182
▁탐색	-11.7183
▁personality	-11.7183
▁salesperson	-11.7184
▁Jung	-11.7186
▁헬스	-11.7187
▁liver	-11.7189
▁단기	-11.7189
겨	-11.7194
▁교정	-11.7195
톱	-11.7195
욕	-11.7196
▁구두	-11.7197
▁guitar	-11.7198
▁chef	-11.7198
▁doubt	-11.7198
▁attachment	-11.7198
▁나와요	-11.72
▁승리	-11.7205
▁drain	-11.7219
▁banquet	-11.7221
▁등장	-11.7223
▁허브	-11.7223
▁dynamic	-11.7225
▁designated	-11.7225
▁proposed	-11.7228
▁realized	-11.7229
▁Real	-11.7231
▁퀴	-11.7231
▁measured	-11.7235
▁adult	-11.7238
▁soju	-11.7246
,"	-11.7247
▁stretch	-11.7251
렬	-11.7258
▁comprehensive	-11.726
▁dioxide	-11.7261
▁sterilization	-11.7261
▁끼쳐	-11.7261
▁방사선	-11.7261
▁suspended	-11.7262
▁쏘	-11.7262
김	-11.7262
▁검출	-11.7264
▁collar	-11.7264
▁인용	-11.7266
▁드셨	-11.7268
▁textile	-11.7278
▁watched	-11.7279
2'	-11.7288
▁timing	-11.7301
▁홍콩	-11.7301
▁Sunday	-11.7301
▁passion	-11.7301
▁광학	-11.7304
▁깎	-11.7305
▁려고요	-11.7309
▁로그인	-11.731
비전	-11.7312
lasting	-11.7313
▁winning	-11.7313
▁god	-11.7314
앗	-11.7317
학원	-11.7318
뵙	-11.7318
▁component	-11.7321
▁산소	-11.7322
▁해상	-11.7324
GB	-11.7326
▁헌	-11.7328
▁bother	-11.7328
▁비전	-11.7334
▁Africa	-11.734
▁킬로	-11.7341
▁bear	-11.7344
▁autonomous	-11.735
옥	-11.7351
▁진료	-11.7369
▁expecting	-11.7375
▁messages	-11.7375
▁l	-11.7377
▁silk	-11.7379
▁phenomenon	-11.738
▁television	-11.738
▁밟	-11.7381
▁클리	-11.7384
▁walls	-11.7388
▁동남아	-11.7388
▁holds	-11.739
▁convert	-11.7391
▁걸음	-11.7394
팬	-11.7399
갈비	-11.7403
da	-11.7404
▁individuals	-11.741
▁renting	-11.742
▁Department	-11.7421
▁polyester	-11.7421
▁뷔페	-11.7421
▁들어갑니다	-11.7421
▁2019	-11.7421
▁운행	-11.7421
▁closing	-11.7423
▁명령	-11.7424
▁handled	-11.7426
▁shares	-11.7427
▁temperatures	-11.743
ful	-11.743
▁출연	-11.7434
▁SUV	-11.7438
▁organizations	-11.7439
▁리터	-11.7442
▁coated	-11.7443
▁걸어	-11.7457
old	-11.7459
▁flexibility	-11.7461
▁versatile	-11.7461
▁을게요	-11.7461
▁touching	-11.7461
▁homepage	-11.7461
▁확률	-11.7461
▁추운	-11.7463
▁venture	-11.7466
Be	-11.7468
▁조달	-11.7469
▁finger	-11.7479
▁k	-11.7481
▁coat	-11.7481
다른	-11.7482
▁odor	-11.7484
고리	-11.7485
▁중량	-11.7487
▁간다	-11.7488
▁revise	-11.7496
▁유도	-11.7498
▁flour	-11.7501
▁해집니다	-11.7502
▁나눌	-11.7502
▁퇴근	-11.7504
▁배웠	-11.7506
▁certainly	-11.7506
▁담배	-11.7508
▁seemed	-11.7508
▁체중	-11.7512
▁standing	-11.7516
▁생존	-11.7519
▁hose	-11.752
펫	-11.7521
▁발전기	-11.7521
▁세기	-11.7526
▁커플	-11.7534
▁Something	-11.7536
덕	-11.754
▁congratulations	-11.7542
▁샐러	-11.7542
▁entry	-11.7542
▁stuck	-11.7542
▁injection	-11.7542
▁삭제	-11.7543
▁다수	-11.7543
▁행운	-11.7544
▁건전	-11.7546
▁알코올	-11.7546
▁Business	-11.7548
▁경보	-11.7549
▁국민	-11.755
Se	-11.755
▁particularly	-11.7551
굴	-11.7558
▁재개	-11.756
▁가로	-11.756
바닥	-11.7562
▁supported	-11.7568
tech	-11.757
폴리	-11.7574
ally	-11.7578
▁designing	-11.7581
▁marine	-11.7583
dimensional	-11.7585
▁specified	-11.7586
▁gained	-11.7587
▁Black	-11.759
▁moves	-11.7591
▁알고리	-11.7591
▁잡혀	-11.7595
▁그레이	-11.7597
like	-11.76
▁formula	-11.7601
▁마모	-11.7606
▁developer	-11.7608
▁연회	-11.7609
▁초음	-11.7613
▁slight	-11.7623
▁Italian	-11.7624
▁babies	-11.7624
▁sole	-11.7624
▁2016	-11.7625
▁Children	-11.7625
▁놨	-11.7629
▁난리	-11.7629
▁fairy	-11.7629
▁백화	-11.7634
▁혈관	-11.7635
no	-11.7638
▁figures	-11.764
▁copyright	-11.7641
@	-11.7641
ga	-11.7647
▁packing	-11.7657
렁	-11.7664
▁dining	-11.7665
▁barley	-11.7665
▁posture	-11.7665
▁스러웠	-11.7665
▁wider	-11.7669
▁셀러	-11.7671
▁도어	-11.7675
셨	-11.7678
▁즈	-11.7678
▁attractions	-11.7684
▁웨이	-11.7688
Mr	-11.769
▁진실	-11.7693
▁아실	-11.7698
▁스캐	-11.7703
▁trips	-11.7706
▁absorption	-11.7706
▁Safety	-11.7706
▁festival	-11.7706
▁이산화	-11.7707
▁protective	-11.7707
▁3-	-11.7707
▁relaxed	-11.7709
▁facing	-11.771
▁갑	-11.7712
▁분실	-11.7714
▁briefing	-11.7714
▁뒤집	-11.7716
▁양치	-11.7718
아주	-11.7719
▁controlled	-11.772
▁incident	-11.7725
▁brochure	-11.7727
▁stands	-11.7729
▁전한	-11.7737
▁부지	-11.7739
▁oral	-11.7739
머리	-11.774
▁123	-11.7742
▁values	-11.7742
▁influence	-11.7744
▁계기	-11.7747
▁템플	-11.7748
▁잎	-11.7748
▁과제	-11.775
▁notified	-11.7752
▁antibacterial	-11.7753
▁precautions	-11.7754
▁visitors	-11.7758
▁스틱	-11.776
▁errors	-11.7762
▁balls	-11.7767
inch	-11.7768
▁title	-11.7768
▁인천	-11.7773
▁저축	-11.7777
▁row	-11.7785
▁permission	-11.779
▁모험	-11.779
▁솜	-11.7791
▁농산	-11.7792
▁밀착	-11.7794
▁aged	-11.7796
▁analyzed	-11.7797
▁동화	-11.78
▁path	-11.78
▁handles	-11.7802
▁rays	-11.7803
▁preference	-11.7811
▁manner	-11.7811
Jong	-11.7811
".	-11.7814
▁author	-11.7814
book	-11.7818
바로	-11.7819
▁sources	-11.7822
▁미디	-11.7825
uk	-11.7826
▁admit	-11.7831
셉	-11.7831
▁nail	-11.7831
▁sustainable	-11.7831
▁홍합	-11.7832
▁찜	-11.7832
리드	-11.7832
▁뷰티	-11.7832
▁Greetings	-11.7834
▁acquaintances	-11.7836
쟁	-11.7845
튜	-11.7851
ph	-11.7852
▁collecting	-11.7853
▁개방	-11.7853
▁magnetic	-11.7856
▁콤	-11.7859
hee	-11.7859
▁폴리에스	-11.7864
▁holder	-11.7865
킬	-11.7866
▁minerals	-11.7867
▁법인	-11.7867
▁regions	-11.7871
▁electronics	-11.7871
지효	-11.7872
▁eventually	-11.7873
▁police	-11.7873
▁스팀	-11.7874
▁소장	-11.7874
▁lying	-11.7874
▁capable	-11.7874
▁removable	-11.7874
▁공구	-11.7875
▁흠	-11.7876
▁Light	-11.7879
▁announced	-11.7882
▁연애	-11.7883
▁턱	-11.7884
▁touched	-11.7887
▁regard	-11.7888
▁상환	-11.7889
아내	-11.7894
듯	-11.7894
▁scissors	-11.7895
Jae	-11.7896
▁샤	-11.7896
▁사물	-11.7903
▁shirt	-11.7904
▁boost	-11.7904
▁봐서	-11.791
▁behavior	-11.7915
▁questionnaire	-11.7915
▁sincerity	-11.7915
썹	-11.7915
▁buffet	-11.7915
▁radiation	-11.7915
▁Day	-11.7916
▁창립	-11.7917
▁youngest	-11.7917
▁productivity	-11.7919
Me	-11.7919
▁권리	-11.792
▁건데요	-11.7927
▁Incheon	-11.7929
▁crystal	-11.793
▁pyeong	-11.7933
▁프린트	-11.7934
협	-11.7935
▁비상	-11.7936
By	-11.7941
▁fourth	-11.7941
▁coins	-11.7956
▁grand	-11.7958
▁hygienic	-11.7958
▁mild	-11.7958
▁법률	-11.7958
▁falls	-11.7958
▁탄산	-11.796
▁보일	-11.796
▁fitness	-11.796
▁breath	-11.796
▁갈게요	-11.7964
▁균일	-11.7964
▁각질	-11.7965
큼	-11.7965
▁스키	-11.7966
▁마실	-11.7967
▁replying	-11.7969
▁lighter	-11.797
▁즐거	-11.7971
▁버섯	-11.7974
▁열려	-11.7974
▁farmers	-11.7974
▁부식	-11.798
▁jobs	-11.7983
▁코트	-11.7992
먼지	-11.7998
▁샌	-11.7999
▁policies	-11.8
▁pollack	-11.8
▁renewal	-11.8003
▁베이비	-11.8005
▁유니	-11.8007
▁Press	-11.8008
▁answers	-11.801
▁이리	-11.8013
▁shake	-11.8019
▁weighs	-11.8032
▁lift	-11.8041
▁예뻐	-11.8041
▁bankruptcy	-11.8043
▁functionality	-11.8043
▁inches	-11.8043
▁경향	-11.8046
▁잔디	-11.8049
▁드림	-11.805
▁spare	-11.8053
▁시연	-11.806
▁duck	-11.8066
밀	-11.8072
Have	-11.8075
▁independent	-11.8085
▁피곤	-11.8086
▁된장	-11.8088
qu	-11.8094
▁sneakers	-11.8095
▁엘리	-11.8095
▁패스	-11.8095
▁생생	-11.8104
Next	-11.811
▁자라	-11.8119
▁unfamiliar	-11.8129
▁led	-11.8131
▁immune	-11.8132
▁net	-11.8136
▁마쳤	-11.8137
▁30,000	-11.8138
▁동반	-11.8142
▁joy	-11.8143
▁퍼센	-11.8145
렵	-11.8146
hi	-11.8148
▁zipper	-11.8155
▁Number	-11.8162
▁cloth	-11.8165
코어	-11.8166
즙	-11.8172
▁translation	-11.8172
멧	-11.8172
▁blow	-11.8173
▁trendy	-11.8175
▁trees	-11.8181
▁시내	-11.8181
센트	-11.8183
▁다닐	-11.8188
▁해드려	-11.8192
▁announcement	-11.8197
▁headphones	-11.8201
▁immediate	-11.8215
▁rare	-11.8215
▁Regard	-11.8216
▁aroma	-11.8216
▁chest	-11.8216
▁handsome	-11.8216
▁displays	-11.8216
▁enclosed	-11.8217
▁취득	-11.8217
▁코코	-11.8219
▁God	-11.8223
▁공공	-11.8228
▁어렸	-11.8231
▁리액	-11.8231
▁designers	-11.8236
▁professionals	-11.8237
갔	-11.8239
국수	-11.824
▁sink	-11.8241
hour	-11.8242
▁mess	-11.8244
▁환기	-11.8244
▁cheer	-11.825
▁미끄러	-11.8251
▁표기	-11.8258
으로	-11.8258
▁집사	-11.8259
▁alright	-11.826
▁genetic	-11.826
▁annoying	-11.826
▁머그	-11.8261
▁breast	-11.8261
▁parties	-11.8261
▁올랐	-11.8261
▁알아봐	-11.8262
▁Smart	-11.8262
▁attendance	-11.8263
▁떨어진	-11.8263
▁인구	-11.8271
▁흡	-11.8271
▁quarantine	-11.8271
▁아셨	-11.8281
▁beverage	-11.8285
▁launching	-11.8289
▁아닐	-11.8291
▁zone	-11.8294
▁ended	-11.8297
▁quote	-11.8298
▁Cho	-11.8298
▁가졌	-11.8302
▁vivid	-11.8302
▁calcium	-11.8303
▁cuisine	-11.8303
▁strike	-11.8303
▁낚시	-11.8303
▁Earth	-11.8304
▁Ho	-11.8306
▁assembly	-11.8307
▁accessible	-11.8307
▁크리스	-11.8308
▁blades	-11.8318
▁rip	-11.8323
▁emissions	-11.8324
돈	-11.8328
▁brake	-11.8329
▁girl	-11.8329
▁turbine	-11.8329
▁힐	-11.833
▁산화	-11.8333
▁boots	-11.8335
▁심사	-11.834
▁브리	-11.8341
▁중소	-11.8344
▁France	-11.8347
▁돋보	-11.8349
board	-11.8349
▁통풍	-11.8349
▁브라우	-11.8349
▁무언	-11.8352
▁joined	-11.8354
▁restrictions	-11.8355
▁serves	-11.8356
▁33	-11.8361
▁미칠	-11.8364
▁포스	-11.837
▁shine	-11.8373
값	-11.8374
Like	-11.8374
Jin	-11.8377
▁rights	-11.8385
▁모레	-11.8388
▁differences	-11.8389
▁SSD	-11.8392
▁미뤄	-11.8392
▁5-	-11.8395
▁축적	-11.8395
▁towards	-11.8399
▁SD	-11.84
▁넌	-11.8402
▁outdoors	-11.8406
▁relationships	-11.8408
▁tube	-11.8418
글라	-11.8422
▁점유	-11.8422
▁배수	-11.8424
▁sour	-11.8424
▁ran	-11.8428
iary	-11.8432
▁valid	-11.8436
▁braised	-11.8436
▁느꼈	-11.8436
▁OEM	-11.8437
▁강남	-11.8439
▁올릴	-11.844
▁겁	-11.8447
▁아닌가	-11.846
▁trademark	-11.8462
si	-11.8463
Today	-11.8464
▁원리	-11.8465
ki	-11.8467
▁Je	-11.8467
▁사우	-11.847
▁자는	-11.8478
▁두꺼운	-11.8481
▁privacy	-11.8481
seong	-11.8482
▁수제	-11.849
▁Rather	-11.8491
▁뛰어	-11.8492
▁ok	-11.8492
▁과자	-11.8493
▁seasons	-11.8493
▁섬	-11.8499
▁송구	-11.8505
▁Mi	-11.8508
▁module	-11.8508
▁outer	-11.851
프트	-11.8513
vi	-11.8513
hwa	-11.8515
▁겹	-11.8515
▁recommendations	-11.8515
레임	-11.8515
레이시	-11.8515
주의	-11.8516
▁lots	-11.8523
▁5000	-11.8525
▁potato	-11.8525
▁unnecessary	-11.8526
▁셰프	-11.8526
▁tourism	-11.8526
▁viewing	-11.8526
▁흘	-11.8532
▁MC	-11.8535
▁선별	-11.8537
by	-11.8541
▁consume	-11.8546
▁명세	-11.8546
▁uniform	-11.8552
▁pressing	-11.8553
▁colleague	-11.8553
뜻	-11.8553
버섯	-11.8554
Give	-11.8556
▁3%	-11.8556
꾸미	-11.8559
▁최저	-11.8565
▁minimal	-11.8571
▁luggage	-11.8571
▁오렌지	-11.8571
▁어두운	-11.8571
▁despi	-11.8571
▁diesel	-11.8571
▁accessory	-11.8571
▁사죄	-11.8572
▁흡입	-11.8572
▁Cha	-11.8574
▁intensity	-11.8575
san	-11.8577
▁formal	-11.8578
▁나일	-11.8587
▁블라	-11.8588
tone	-11.8589
ver	-11.8593
▁제도	-11.8594
▁동업	-11.8614
▁extreme	-11.8615
▁London	-11.8616
▁fleece	-11.8616
▁oxygen	-11.8616
겟	-11.8616
▁와야	-11.8617
▁exposure	-11.8618
▁Technology	-11.8618
▁USA	-11.8618
▁능	-11.8619
▁15%	-11.862
▁absorbs	-11.8624
▁발달	-11.8629
▁orange	-11.8644
▁disadvantage	-11.8644
▁apple	-11.8647
▁medicines	-11.8647
Fro	-11.8648
ton	-11.865
▁outlet	-11.8651
▁bite	-11.8653
▁든든	-11.8656
▁category	-11.8661
▁inexpensive	-11.8661
▁Western	-11.8661
▁Plus	-11.8663
▁proof	-11.8666
▁용접	-11.8671
▁백종	-11.8671
▁holidays	-11.868
▁꾸	-11.8683
▁위반	-11.8688
▁rack	-11.8697
▁귀국	-11.8699
▁시그	-11.8701
▁대장	-11.8702
▁찰	-11.8705
▁엑스	-11.8707
▁뭔데	-11.8707
▁continuing	-11.8708
▁concluded	-11.8709
▁교과	-11.8709
▁취할	-11.871
어요	-11.8714
▁던데요	-11.8716
40	-11.872
▁온다	-11.8726
izing	-11.8727
▁formed	-11.8728
▁택시	-11.8729
▁정수	-11.8729
▁selecting	-11.8733
▁cabbage	-11.8736
▁desktop	-11.8736
▁executive	-11.8736
▁칼라	-11.8737
Really	-11.8737
▁tech	-11.8739
▁초등	-11.8741
▁예민	-11.8743
▁증거	-11.8745
▁settle	-11.8747
▁stains	-11.8748
▁combustion	-11.8753
▁기숙사	-11.8753
▁열쇠	-11.8754
▁wherever	-11.8755
▁knowing	-11.8757
▁IoT	-11.8758
▁suffering	-11.8759
▁마크	-11.876
▁beach	-11.8761
▁Q	-11.8769
▁Very	-11.8777
카레	-11.8782
▁매입	-11.8787
▁자석	-11.8789
▁approach	-11.8789
▁spin	-11.8794
▁dirt	-11.8798
▁호흡	-11.8798
▁nylon	-11.8799
▁chili	-11.8799
▁detachable	-11.8799
▁availability	-11.8802
▁했잖아	-11.8802
▁USD	-11.8803
tion	-11.8804
▁절연	-11.8805
▁2021.	-11.8805
▁alive	-11.8808
▁미술	-11.8809
▁ships	-11.8815
올	-11.8816
▁tablets	-11.8823
der	-11.8826
Actually	-11.883
▁negotiation	-11.883
▁separated	-11.8838
▁생물	-11.884
▁부엌	-11.8845
낳	-11.8845
▁낯	-11.8846
▁싱크	-11.8849
▁greasy	-11.8851
▁세워	-11.8853
▁수십	-11.8854
▁shoulders	-11.8857
▁emotional	-11.8859
▁배정	-11.8863
▁맡겨	-11.8864
▁odors	-11.8871
▁어쩌	-11.8875
▁faucet	-11.8876
driving	-11.8877
▁조성	-11.8878
▁assure	-11.8886
▁tenants	-11.889
▁nano	-11.8891
▁holes	-11.8891
▁bulgogi	-11.8892
▁perilla	-11.8892
▁서랍	-11.8892
▁철강	-11.8892
▁막대	-11.8893
▁wild	-11.8893
▁반사	-11.8896
▁직관	-11.8896
▁triple	-11.8896
▁cleansing	-11.8897
▁워터	-11.8903
▁IP	-11.8906
▁일관	-11.8907
▁에센	-11.8908
▁lamp	-11.8912
▁Their	-11.8914
▁스타일리	-11.8915
▁아프리카	-11.8919
▁scan	-11.8922
▁barrier	-11.8923
▁participated	-11.8923
쌀	-11.8924
▁treatments	-11.8925
ml	-11.8935
▁활	-11.8935
▁사기	-11.8937
▁attack	-11.8938
▁investigation	-11.8939
▁underwear	-11.8939
uitable	-11.8939
▁으라고	-11.8939
▁앰	-11.8939
▁카테	-11.8939
끄러운	-11.894
▁좌우	-11.8941
tra	-11.8941
▁Solar	-11.8941
▁바삭	-11.8948
인공	-11.895
light	-11.8964
꺼	-11.8966
▁portfolio	-11.8969
▁salad	-11.8969
▁novel	-11.8971
▁Product	-11.8972
나마	-11.8974
▁tofu	-11.8976
gaining	-11.8981
ory	-11.8981
▁DVD	-11.8986
▁laboratory	-11.8986
▁population	-11.8986
▁comply	-11.8986
▁mice	-11.8986
▁discovered	-11.8987
▁매뉴	-11.8987
▁assigned	-11.8987
▁chosen	-11.8988
▁새벽	-11.8989
▁곡선	-11.899
▁적립	-11.8993
fry	-11.8994
▁몰라요	-11.8995
▁정해진	-11.8995
▁레이어	-11.8996
▁followed	-11.8997
▁캐비	-11.8998
▁hosting	-11.9
자기	-11.9002
▁determined	-11.9003
▁therapy	-11.9005
▁개그	-11.9006
▁suite	-11.9008
50	-11.9012
▁스피	-11.9016
▁represent	-11.9017
▁GPU	-11.9017
엣	-11.9018
기업	-11.9021
▁프로세서	-11.9023
▁mutual	-11.9032
▁unlike	-11.9032
▁musical	-11.9032
▁lasts	-11.9033
▁central	-11.9033
▁curry	-11.9033
▁liquor	-11.9033
▁애니메이	-11.9033
▁species	-11.9033
▁개수	-11.9033
▁졸업	-11.9033
▁목욕	-11.9034
▁dirty	-11.9034
▁King	-11.9035
▁욕조	-11.9037
▁identified	-11.9038
▁voltage	-11.9039
▁desks	-11.904
▁teaching	-11.9045
▁farming	-11.9046
▁Products	-11.9048
▁3000	-11.9065
▁trailer	-11.9065
▁대사	-11.9066
▁Stop	-11.9068
▁cycle	-11.9074
▁rinse	-11.9074
▁warmer	-11.9076
▁split	-11.9079
▁주최	-11.908
화질	-11.9081
▁브라운	-11.9081
▁운용	-11.9083
▁폭발	-11.9084
▁윗	-11.9084
▁counter	-11.9085
▁단열	-11.9087
▁generally	-11.9088
▁comments	-11.9094
im	-11.91
▁보리	-11.9102
▁drivers	-11.9102
▁95	-11.9108
▁38	-11.9109
▁찌	-11.911
tro	-11.9112
▁weekends	-11.9113
Hello	-11.9114
Kim	-11.9114
Our	-11.9114
▁specification	-11.9115
▁콜	-11.9116
▁discharge	-11.9122
▁실무	-11.9125
▁부속	-11.9125
▁obvious	-11.9127
▁excessive	-11.9127
▁completion	-11.9128
▁reconsider	-11.9128
▁rising	-11.9128
▁tie	-11.9128
▁scratches	-11.9128
▁National	-11.913
▁투표	-11.9131
▁성형	-11.9133
ca	-11.9133
▁gun	-11.9134
▁safer	-11.9134
▁calculated	-11.9135
▁발열	-11.9137
▁상징	-11.9139
▁시안	-11.914
▁pro	-11.9142
▁postponed	-11.9142
▁schools	-11.9144
▁blocking	-11.9148
▁OS	-11.9151
▁소속	-11.9154
쳐	-11.9155
ok	-11.9157
▁mount	-11.9157
▁kid	-11.9161
풍력	-11.9166
▁edge	-11.9167
▁pour	-11.9167
▁수학	-11.917
▁스탠	-11.9173
▁delicate	-11.9174
▁부상	-11.9175
▁consistent	-11.9175
▁Nevertheless	-11.9176
늑	-11.9176
▁supporting	-11.9176
▁shortage	-11.9176
▁thankful	-11.9177
▁사이버	-11.9178
▁탄생	-11.918
▁Home	-11.9181
▁Director	-11.9187
▁servings	-11.9189
▁cushioning	-11.919
도록	-11.9194
▁packed	-11.92
▁윈	-11.9202
▁carrots	-11.9204
▁comment	-11.9209
▁이행	-11.9211
콜	-11.9212
▁coordinate	-11.9218
▁restore	-11.9221
▁unfortunate	-11.9223
▁agenda	-11.9224
▁automotive	-11.9224
▁diameter	-11.9224
▁essence	-11.9224
▁pricing	-11.9224
▁technological	-11.9224
▁taxes	-11.9225
▁City	-11.9225
▁85	-11.9229
▁layers	-11.9229
▁신생	-11.9231
▁농기	-11.9232
▁탭	-11.9236
▁Long	-11.9238
▁오리지	-11.9238
ated	-11.9241
▁returning	-11.9242
▁inconveniences	-11.9242
▁blend	-11.9244
▁articles	-11.9245
▁박테	-11.9246
▁공통	-11.925
▁speeds	-11.9252
▁differently	-11.9255
▁names	-11.9263
▁institutions	-11.9266
▁magazines	-11.9269
▁lithium	-11.9272
▁imagination	-11.9272
▁breathable	-11.9272
▁고마워요	-11.9275
▁200,000	-11.9276
▁premiums	-11.9277
▁Am	-11.928
▁들여	-11.9282
▁지하	-11.9283
▁할머	-11.9284
ish	-11.9291
▁auxil	-11.9291
▁진한	-11.9292
▁취해	-11.9293
▁눈치	-11.9305
뉴	-11.9305
쇠	-11.9306
▁gap	-11.9307
▁edit	-11.9311
▁세로	-11.9311
▁스파이	-11.9311
▁booking	-11.9315
ran	-11.9316
▁겁니	-11.9316
▁genuine	-11.9319
▁플래	-11.932
▁association	-11.932
▁숟가락	-11.932
▁범죄	-11.9321
▁coding	-11.9321
▁whitening	-11.9321
▁무한	-11.9321
▁쌈	-11.9322
▁우승	-11.9322
▁Delivery	-11.9325
▁ignition	-11.9327
▁귀여운	-11.9333
ti	-11.9337
▁complain	-11.9338
▁색소	-11.9348
▁indoors	-11.9355
▁cats	-11.9358
▁inspect	-11.9364
▁락	-11.9367
▁실외	-11.9368
▁Shin	-11.9369
hyun	-11.9369
▁knit	-11.9369
▁아닙니까	-11.9369
쁠	-11.9369
▁Thailand	-11.9369
▁wires	-11.937
▁채권	-11.9373
▁Power	-11.9376
▁solving	-11.9379
▁가벼워	-11.9381
▁monitors	-11.9382
▁칼로	-11.9386
▁Open	-11.9387
▁보인다	-11.9388
▁wrinkles	-11.9392
▁카트	-11.9395
▁일어난	-11.9401
%	-11.9406
▁여야	-11.9406
Su	-11.9408
▁Mrs	-11.9408
▁refuse	-11.9412
▁미역	-11.9415
▁SBS	-11.9418
▁tuna	-11.9418
▁Thus	-11.9418
▁미생물	-11.9418
▁항균	-11.9419
▁commemorate	-11.9419
▁의존	-11.9426
▁달라요	-11.943
▁Si	-11.9431
▁넥	-11.9432
거래	-11.9432
▁추워	-11.9439
▁밀도	-11.9442
sa	-11.9445
▁dumpling	-11.9454
▁directions	-11.9457
▁greet	-11.946
▁asset	-11.9463
▁Above	-11.9468
▁celebration	-11.9468
▁수평	-11.9468
▁sometime	-11.9469
▁settlement	-11.9469
▁career	-11.9472
▁decreased	-11.9475
▁scope	-11.9476
▁어울려	-11.9487
▁마운	-11.9494
▁signals	-11.9495
▁strings	-11.9501
▁나사	-11.9501
알	-11.9503
▁vaccine	-11.9504
known	-11.9505
▁캐리	-11.9515
▁finishing	-11.9517
▁replacing	-11.9517
▁밀봉	-11.9519
▁Bo	-11.9521
▁folding	-11.9522
▁Set	-11.9528
▁died	-11.9529
▁도서	-11.953
▁갈색	-11.9533
▁난다	-11.9534
▁고등학	-11.9536
▁기어	-11.9537
ia	-11.9541
▁responding	-11.9543
▁cam	-11.9544
▁세심	-11.9545
▁surprise	-11.9548
▁Service	-11.9554
▁appeal	-11.956
▁advertise	-11.956
▁살리	-11.9563
꾼	-11.9565
▁만료	-11.9565
▁intend	-11.9565
▁공인	-11.9566
placing	-11.9566
▁compatibility	-11.9567
▁presence	-11.9567
▁바뀐	-11.9567
▁steak	-11.9567
▁스트링	-11.9567
▁클립	-11.9569
▁반장	-11.9569
이트	-11.957
▁마스터	-11.9573
ac	-11.9578
▁calories	-11.9579
▁lovely	-11.9581
▁라니까	-11.9582
▁topics	-11.9582
His	-11.9582
▁mesh	-11.9582
▁여지	-11.9591
Get	-11.9597
-19,	-11.9601
▁근거	-11.9602
콩	-11.9605
▁위로	-11.9607
▁sand	-11.9611
▁reschedule	-11.9611
▁teachers	-11.9613
ir	-11.9614
▁abundant	-11.9616
▁elegant	-11.9617
▁modify	-11.9617
▁sunscreen	-11.9617
▁폐쇄	-11.9617
▁계십니까	-11.9618
▁귀여워	-11.9618
▁Apply	-11.9619
▁corrosion	-11.962
▁watches	-11.9621
▁reactions	-11.9629
▁정수기	-11.9631
▁달린	-11.9634
▁주입	-11.9646
▁혈	-11.9647
▁tires	-11.9648
▁전염	-11.9649
▁artists	-11.9654
뮬	-11.9655
Two	-11.9656
Lee	-11.9656
▁correction	-11.9656
month	-11.9657
▁숨겨	-11.9659
▁achievements	-11.9659
▁seed	-11.966
Aren	-11.9663
피아	-11.9666
▁pouch	-11.9667
▁percentage	-11.9667
▁야구	-11.967
모차	-11.9671
▁architectural	-11.9671
▁Whenever	-11.9677
▁decisions	-11.968
▁Z	-11.9686
▁manages	-11.9687
op	-11.9696
▁}	-11.9696
▁막내	-11.9696
▁버거	-11.9698
▁tooth	-11.9702
▁breaking	-11.9703
▁고구	-11.9703
▁techniques	-11.9712
▁customize	-11.9712
▁성실	-11.9714
▁California	-11.9718
▁똑똑	-11.9718
▁alley	-11.9718
▁70%	-11.9718
▁포도	-11.9718
▁Gangnam	-11.972
▁fastest	-11.972
▁returns	-11.9729
▁heads	-11.9731
▁오프라	-11.9739
▁연금	-11.9741
▁박수	-11.9746
▁생태	-11.9746
▁탱크	-11.9748
▁log	-11.9753
▁humidifier	-11.9756
▁explore	-11.9761
▁grains	-11.9763
▁wave	-11.9764
▁compete	-11.9766
▁상용	-11.9768
ut	-11.9768
▁amenities	-11.9768
▁cultivation	-11.9768
늄	-11.9768
▁cities	-11.9768
▁everywhere	-11.9768
▁crispy	-11.9769
▁덮개	-11.977
▁롤러	-11.977
▁Third	-11.9772
▁작물	-11.9773
▁male	-11.9773
▁riding	-11.9778
▁기다려야	-11.9784
▁노고	-11.9785
▁brushing	-11.9795
shirt	-11.9797
▁skirt	-11.9807
▁console	-11.9808
▁twist	-11.981
▁가르	-11.9811
▁beginners	-11.9811
티지	-11.9814
▁coupons	-11.9814
▁dating	-11.9819
▁Data	-11.982
▁기쁜	-11.982
▁somewhat	-11.982
▁여섯	-11.9821
▁Along	-11.9821
▁급격	-11.9824
▁애매	-11.9824
room	-11.9824
▁기운	-11.9824
▁town	-11.9827
▁고춧	-11.9828
▁스터	-11.9831
▁아티스	-11.9831
▁줌	-11.9833
▁게끔	-11.9839
▁종자	-11.9844
▁passing	-11.9846
▁movements	-11.9847
▁시중	-11.9849
▁waited	-11.9851
▁shorten	-11.9853
▁데려	-11.9853
▁charm	-11.9854
▁계단	-11.9856
▁crab	-11.9859
▁renew	-11.986
▁masks	-11.9865
▁straps	-11.9866
▁Singapore	-11.9871
▁dictionary	-11.9871
▁햄버	-11.9871
▁Ministry	-11.9871
▁disposable	-11.9871
▁Italy	-11.9871
▁transferred	-11.9871
▁Mountain	-11.9872
▁exhausted	-11.9872
▁departments	-11.9872
▁설득	-11.9874
▁taxi	-11.9876
▁웨어	-11.9878
멘	-11.9881
ors	-11.9881
▁besides	-11.9882
▁입원	-11.9882
▁변호	-11.9883
▁까다로운	-11.9885
▁지닌	-11.9887
▁들어온	-11.9898
▁Honestly	-11.9898
▁Mo	-11.9899
▁회로	-11.99
▁아트	-11.9907
▁조속	-11.9908
▁복용	-11.991
▁publisher	-11.9912
▁encourage	-11.9916
▁라니	-11.9917
스테이	-11.9918
우선	-11.9921
▁Malaysia	-11.9921
▁무시	-11.9921
▁lounge	-11.9922
▁nowadays	-11.9922
▁tripod	-11.9922
▁wallpaper	-11.9922
▁stroller	-11.9922
▁incorrectly	-11.9923
퍼런	-11.9924
▁유치	-11.9924
▁brings	-11.9925
▁examination	-11.9927
든지	-11.993
▁Water	-11.9936
▁외출	-11.9938
ray	-11.9938
ating	-11.9938
▁breaks	-11.9938
▁keys	-11.9941
▁도난	-11.9957
▁110	-11.9958
▁들려	-11.9961
▁담겨	-11.9962
▁신데	-11.9966
▁떠오	-11.9969
▁refrigerators	-11.9969
▁ultimate	-11.9973
▁entrust	-11.9974
▁Institute	-11.9974
▁barbecue	-11.9974
▁experiencing	-11.9974
▁organizing	-11.9974
▁waistband	-11.9974
▁realistic	-11.9974
▁이뤄	-11.9974
▁aspects	-11.9975
▁differentiated	-11.9976
▁탈모	-11.9977
▁gathered	-11.9977
▁게이	-11.9978
▁connections	-11.9978
▁Full	-11.9981
▁1.5	-11.9987
▁파괴	-11.9988
▁PCs	-11.9995
니스	-12.0007
▁war	-12.0007
▁slide	-12.0009
▁저걸	-12.0011
▁nozzle	-12.0016
Shall	-12.0016
▁들어올	-12.002
▁Ju	-12.002
▁seal	-12.0023
▁agencies	-12.0026
▁hybrid	-12.0026
▁library	-12.0026
▁venue	-12.0026
▁verification	-12.0026
▁캘리포니아	-12.0026
▁드럼	-12.0027
▁sum	-12.0028
▁closure	-12.0029
▁zero	-12.0031
▁renewable	-12.0031
▁girlfriend	-12.0032
럼	-12.0032
▁assured	-12.0032
▁싼	-12.0038
▁번거로	-12.004
▁냐면	-12.0047
▁다채	-12.0057
▁신분	-12.0058
▁메신	-12.0061
site	-12.0065
▁impression	-12.0068
작용	-12.0073
▁Soft	-12.0075
▁absorb	-12.0078
▁Meanwhile	-12.0078
▁recycling	-12.0078
▁뿌려	-12.0078
▁일회용	-12.0078
▁secretary	-12.0079
▁지출	-12.008
▁Free	-12.0083
▁finest	-12.0084
▁Na	-12.0084
ian	-12.0087
▁somehow	-12.0087
▁San	-12.0102
▁대역	-12.0105
▁130	-12.0108
▁아닌지	-12.0113
▁럭	-12.0118
▁affiliate	-12.0123
These	-12.0125
▁Store	-12.0131
▁court	-12.0131
▁shaking	-12.0131
▁padded	-12.0131
▁디바이	-12.0132
▁소득	-12.0137
▁페어	-12.0137
▁cleanser	-12.0137
▁correctly	-12.0137
▁Anyone	-12.0138
▁Accordingly	-12.0139
▁상위	-12.0149
▁Yun	-12.0156
▁기상	-12.0156
▁으니까요	-12.0156
con	-12.0157
▁dip	-12.0159
▁amounts	-12.0162
▁회색	-12.0173
▁Red	-12.0173
▁pipe	-12.0174
step	-12.0175
▁incredible	-12.0184
▁인도네시아	-12.0184
▁architecture	-12.0184
▁quit	-12.0184
▁brightness	-12.0185
▁gosh	-12.0187
▁tap	-12.0187
▁스웨	-12.0189
사소	-12.0192
du	-12.0201
▁배상	-12.0201
les	-12.0203
▁spending	-12.0209
▁분자	-12.021
▁톱	-12.0213
▁휘	-12.0214
▁apart	-12.0214
▁mop	-12.0217
▁해양	-12.0218
▁utilize	-12.0222
▁sauna	-12.0227
▁softener	-12.0228
▁newspapers	-12.0228
▁weekly	-12.0235
▁reception	-12.0237
▁researching	-12.0237
▁confusion	-12.0237
▁earliest	-12.0237
▁gasoline	-12.0237
▁releasing	-12.0237
▁storing	-12.0237
▁콩나물	-12.0237
▁bamboo	-12.0237
▁탑승	-12.0237
▁doors	-12.0238
▁삽입	-12.0238
▁remotely	-12.0241
▁Order	-12.0241
▁신혼	-12.0242
▁RGB	-12.0244
om	-12.0248
▁deliciously	-12.0251
라이트	-12.0252
▁relations	-12.0255
▁beds	-12.0258
▁짝	-12.0275
▁로드	-12.028
▁Choi	-12.0282
껍	-12.0282
생활	-12.0283
▁기장	-12.0285
Y	-12.0288
▁academy	-12.0291
▁sunglasses	-12.0291
▁opposite	-12.0291
▁어려웠	-12.0291
▁국어	-12.0292
▁도서관	-12.0292
ism	-12.0294
▁tension	-12.0295
▁코너	-12.0295
▁녹색	-12.0297
▁bringing	-12.0304
▁shapes	-12.0304
▁마주	-12.0311
냅니다	-12.0324
▁towels	-12.0325
▁24-	-12.0325
▁boards	-12.0325
▁테라	-12.0333
▁던지	-12.0337
▁evidence	-12.0344
▁immunity	-12.0344
▁silhouette	-12.0344
▁yoga	-12.0344
▁퀵	-12.0346
▁zoom	-12.0346
▁2015	-12.0346
▁양자	-12.0346
▁contrast	-12.0348
▁fermented	-12.0348
▁못합니다	-12.0348
so	-12.0348
▁섹	-12.0349
▁rust	-12.0351
▁painting	-12.0356
seon	-12.0358
▁shops	-12.0358
▁protected	-12.0359
▁통지	-12.036
ner	-12.0365
▁subscribers	-12.0365
▁웃겨	-12.0367
▁해변	-12.0369
▁tear	-12.0372
▁introduces	-12.0372
▁kill	-12.0373
▁balanced	-12.0374
▁벗어	-12.0381
▁printers	-12.0386
핀	-12.0389
▁reveal	-12.0389
▁suffer	-12.0389
▁동력	-12.0391
▁singer	-12.0392
▁gentle	-12.0398
▁patience	-12.0398
▁즐거웠	-12.0399
▁런던	-12.0399
▁freezer	-12.04
▁Clean	-12.0401
▁Young	-12.0402
▁talented	-12.0404
▁석유	-12.0404
▁구해	-12.0412
ap	-12.0412
▁근로	-12.0415
▁움직일	-12.0419
30	-12.0419
▁컷	-12.0423
▁은퇴	-12.0433
▁는가	-12.0433
▁안마	-12.0435
▁42	-12.0435
▁delays	-12.0439
▁장인	-12.0439
▁비치	-12.0439
▁Sae	-12.044
▁toward	-12.044
▁fulfill	-12.0443
꿈	-12.0445
Anyway	-12.0446
Dong	-12.0449
▁자르	-12.0449
▁딱딱	-12.0452
▁habits	-12.0452
▁celebrity	-12.0453
쁨	-12.0453
▁시뮬레이	-12.0453
▁absolutely	-12.0453
▁80%	-12.0453
▁golden	-12.0453
▁웰	-12.0455
▁눌	-12.0457
▁땡	-12.0458
▁mothers	-12.0458
걸	-12.0459
▁훼	-12.046
▁부자	-12.0466
▁websites	-12.0466
▁refill	-12.0473
▁modules	-12.0474
▁전세	-12.0475
피스	-12.0477
▁세관	-12.0485
▁aid	-12.0488
▁옮겨	-12.0493
▁cuts	-12.0496
food	-12.0498
▁rule	-12.0498
▁route	-12.0499
Try	-12.0501
▁Sa	-12.0503
▁origin	-12.0506
▁makgeolli	-12.0507
▁일어났	-12.0507
▁outsole	-12.0507
▁sticky	-12.0511
▁숙련	-12.0511
▁곰	-12.0512
▁Green	-12.0517
▁들러	-12.0518
▁seek	-12.0522
▁inspired	-12.0524
▁emails	-12.0527
▁임직	-12.0529
▁중성	-12.053
▁심해	-12.0534
▁펫	-12.0536
▁stocked	-12.0542
▁흥	-12.0545
▁먹이	-12.0547
▁당분	-12.0548
grade	-12.055
▁독서	-12.0552
솥	-12.0555
▁Compatible	-12.0562
▁dancing	-12.0562
▁messenger	-12.0562
▁microfiber	-12.0562
▁strawberry	-12.0562
▁indeed	-12.0562
▁suspension	-12.0562
▁guard	-12.0563
▁맞춘	-12.0564
▁detected	-12.0566
▁선풍	-12.0568
▁appeared	-12.0569
▁노인	-12.0569
▁만난	-12.0573
▁파이프	-12.0574
star	-12.0581
ren	-12.059
edge	-12.0592
▁분말	-12.0596
fine	-12.0596
▁광물	-12.0597
▁웃음	-12.0599
▁공감	-12.0599
▁choices	-12.0604
▁내비	-12.0608
푼	-12.0611
meter	-12.0613
▁과실	-12.0615
▁identity	-12.0618
▁irrev	-12.0618
▁ocean	-12.0618
▁서둘러	-12.0618
▁nationwide	-12.0618
▁일어날	-12.0618
▁grams	-12.0618
▁baseball	-12.0618
▁processor	-12.0618
▁Online	-12.0618
▁레몬	-12.0618
▁플러스	-12.0619
▁plus	-12.062
▁흥분	-12.062
▁PD	-12.0621
▁이루어질	-12.0624
▁했으	-12.0626
▁comic	-12.0626
▁똥	-12.0628
▁길래	-12.0628
ang	-12.0634
misunderstanding	-12.0635
▁유출	-12.0636
토리	-12.0638
▁사이클	-12.0638
▁Turn	-12.064
▁importing	-12.0648
▁crops	-12.0649
▁vote	-12.0649
▁ad	-12.0652
▁인물	-12.0656
ups	-12.0656
▁exceed	-12.0657
▁임신	-12.0657
잡	-12.0658
▁trials	-12.066
▁dramas	-12.066
▁acquaintance	-12.0666
▁rating	-12.0669
▁진입	-12.0671
▁mental	-12.0672
ng	-12.0673
▁happily	-12.0673
▁incurred	-12.0673
▁copper	-12.0673
▁departure	-12.0673
▁matte	-12.0673
▁밸런	-12.0674
▁김준	-12.0674
▁referring	-12.0674
▁관람	-12.0675
▁pity	-12.0676
▁freight	-12.0676
▁touches	-12.0676
▁2010	-12.0678
▁펌	-12.0679
▁체온	-12.068
ip	-12.068
따가	-12.0681
▁flying	-12.0685
▁Time	-12.0685
▁frames	-12.0685
▁none	-12.0687
▁신다	-12.0688
▁감기	-12.0688
▁승부	-12.0689
▁ski	-12.069
▁의상	-12.069
▁필수품	-12.0691
▁모른다	-12.0694
(	-12.0705
▁meant	-12.0715
▁households	-12.0718
▁rush	-12.072
▁보여요	-12.0721
▁roof	-12.0722
▁terminal	-12.0722
▁1234	-12.0723
▁evaluate	-12.0723
▁workplace	-12.0724
▁officials	-12.0725
▁analyzing	-12.0729
젯	-12.0729
▁Insurance	-12.0729
▁landlord	-12.0729
▁Vietnamese	-12.0729
▁herbal	-12.073
▁활발	-12.073
▁깜빡	-12.0732
▁thousands	-12.0733
▁gums	-12.0734
▁입고	-12.0735
▁해질	-12.0737
▁Kimchi	-12.0742
▁emotions	-12.075
▁무사	-12.0752
▁developers	-12.0761
proof	-12.0776
▁basket	-12.0779
▁tray	-12.0779
nam	-12.0781
▁Un	-12.0781
▁German	-12.0784
▁plain	-12.0785
▁induction	-12.0785
▁shortcomings	-12.0785
▁hassle	-12.0786
린다	-12.0786
▁바란다	-12.0786
Didn	-12.0786
▁malls	-12.0787
▁folded	-12.0787
▁갤	-12.0787
업자	-12.0787
▁Seo	-12.0789
▁서브	-12.0792
▁attracting	-12.0797
태그	-12.0799
▁Big	-12.08
▁합금	-12.0801
▁초록	-12.0806
▁motors	-12.0813
▁closet	-12.0814
▁develops	-12.0814
립니	-12.0828
▁adapt	-12.0831
▁Sun	-12.0831
▁내렸	-12.0831
▁연수	-12.0832
▁specialize	-12.0833
▁AR	-12.0834
▁dessert	-12.0836
▁wallet	-12.0836
▁마라	-12.0837
▁pregnant	-12.0842
▁steady	-12.0842
▁fear	-12.0842
▁rechargeable	-12.0842
▁escape	-12.0842
▁earnest	-12.0842
▁메탈	-12.0842
▁40%	-12.0843
▁Additional	-12.0843
▁defense	-12.0844
▁청소년	-12.0848
▁들어	-12.0849
▁낙	-12.0849
son	-12.085
▁readers	-12.0854
페	-12.0857
▁MP	-12.0859
nearly	-12.0859
카드	-12.0862
▁setup	-12.0864
▁Sung	-12.0866
▁con	-12.087
▁rumors	-12.087
응	-12.087
▁34	-12.0872
▁ah	-12.0872
ide	-12.0873
▁$2	-12.0873
▁Someone	-12.0875
pi	-12.0877
▁뽀	-12.0877
▁tiles	-12.088
▁states	-12.0883
▁publish	-12.0888
▁시민	-12.0889
▁수월	-12.0891
▁양면	-12.0893
▁clock	-12.0894
▁gum	-12.0895
▁소지	-12.0895
빨리	-12.0897
ence	-12.0897
▁bathtub	-12.0899
▁conversion	-12.0899
▁primary	-12.0899
▁classified	-12.0899
▁거듭	-12.0899
▁입체	-12.09
▁AC	-12.0901
▁risen	-12.0902
▁비주얼	-12.0903
▁observed	-12.0903
▁speech	-12.0904
▁했잖아요	-12.0904
▁repaired	-12.0908
▁bones	-12.091
▁pores	-12.0912
▁pressed	-12.0914
▁220	-12.0915
ure	-12.0915
▁expressed	-12.0916
▁널	-12.0921
▁해석	-12.0927
▁n	-12.0933
▁윤기	-12.0933
트라	-12.0936
ee	-12.0938
▁drill	-12.0943
▁root	-12.0944
▁bars	-12.0944
▁configuration	-12.095
넘	-12.0951
깨	-12.0954
▁tradition	-12.0955
▁concrete	-12.0956
▁hanok	-12.0956
▁lobby	-12.0956
▁Additionally	-12.0957
▁rarely	-12.0957
▁Available	-12.0958
▁10:00	-12.0958
▁인내	-12.096
▁cooler	-12.0969
▁여과	-12.0973
▁할당	-12.0981
▁chip	-12.0982
▁훈	-12.0984
▁nuts	-12.0984
▁캘	-12.0986
▁De	-12.0987
▁webfoo	-12.0997
▁복제	-12.1009
▁prior	-12.1013
▁deluxe	-12.1013
▁harsh	-12.1013
▁cooperating	-12.1013
▁resin	-12.1013
▁돌아올	-12.1013
▁viruses	-12.1014
▁crafted	-12.1014
▁favorable	-12.1014
▁adjusting	-12.1016
▁Choose	-12.1018
▁commonly	-12.1019
▁빔	-12.1027
▁빌라	-12.103
low	-12.1031
▁취약	-12.1031
ber	-12.1031
▁브라	-12.1032
▁파리	-12.1035
▁조선	-12.1039
▁공예	-12.104
▁regards	-12.1041
▁블로	-12.1044
▁Remove	-12.1045
▁지루	-12.1052
▁바빠	-12.1056
▁초고	-12.1056
▁Special	-12.1059
ping	-12.1062
▁내릴	-12.1063
yi	-12.1064
찜	-12.1067
young	-12.1067
래픽	-12.107
▁ceiling	-12.1071
▁bedding	-12.1071
▁바비	-12.1072
▁미러	-12.1072
▁산책	-12.1078
▁urge	-12.1079
▁peak	-12.1079
▁연관	-12.108
▁feelings	-12.108
▁Dae	-12.1083
▁timer	-12.1083
▁들으니	-12.1085
▁stops	-12.1085
▁으리라	-12.1086
▁Buy	-12.1087
▁240	-12.1087
▁marks	-12.1087
▁비스	-12.1088
▁apples	-12.1093
▁faces	-12.1093
▁Da	-12.1097
▁보이스	-12.1099
▁강점	-12.1103
▁arts	-12.1103
je	-12.1103
▁농도	-12.1103
▁stayed	-12.1104
▁divide	-12.1113
▁Hye	-12.1117
▁survive	-12.1123
▁emphasize	-12.1123
총	-12.1126
▁mats	-12.1126
▁물어봐	-12.1127
▁gimbap	-12.1129
▁사로잡	-12.1129
▁visible	-12.1129
▁증강	-12.113
▁XL	-12.113
▁sweetness	-12.1131
hoon	-12.1131
▁fry	-12.1132
▁당겨	-12.1134
▁기저	-12.1136
▁tailored	-12.1137
▁만찬	-12.1138
▁adhesive	-12.1139
▁밍	-12.114
늘	-12.1145
▁lowered	-12.1151
▁실버	-12.1152
▁출산	-12.1153
▁drum	-12.1155
▁residents	-12.1159
▁발사	-12.1167
▁tourists	-12.1167
▁카라	-12.1168
페달	-12.1168
▁전이	-12.1169
▁르	-12.1169
▁깁니다	-12.1169
규	-12.1174
▁gene	-12.1184
▁candidate	-12.1184
Hold	-12.1185
▁warning	-12.1185
▁dispatch	-12.1185
▁harm	-12.1187
▁taught	-12.1188
▁펼쳐	-12.1188
뵈	-12.1188
▁tennis	-12.1188
▁곱창	-12.1188
▁curved	-12.1191
▁찐	-12.1191
▁FDA	-12.1192
▁worker	-12.1194
너지	-12.1196
▁retailers	-12.1198
▁forest	-12.1198
▁우산	-12.1201
▁powered	-12.1202
▁fryer	-12.1202
▁인덕	-12.1205
led	-12.1205
▁크루	-12.1206
▁칼국	-12.1207
▁안부	-12.1217
틸	-12.1241
▁가속	-12.1241
▁폴	-12.1243
팔	-12.1244
▁warehousing	-12.1246
▁낮춰	-12.1246
▁grass	-12.1246
▁knitwear	-12.1246
▁sewing	-12.1247
▁acids	-12.1247
▁승용	-12.1251
▁steamed	-12.1252
▁intended	-12.1255
▁침구	-12.1262
▁도심	-12.1264
▁상부	-12.1268
▁colored	-12.1275
▁Show	-12.1276
시다	-12.1282
▁하얀	-12.1283
▁exist	-12.1283
▁보험금	-12.1286
▁정치	-12.1291
ah	-12.1292
back	-12.1299
▁cord	-12.1302
▁웬만	-12.1305
▁Celsius	-12.1306
▁Paris	-12.1306
▁fantastic	-12.1306
▁nutritious	-12.1306
oriented	-12.1306
▁quiz	-12.1306
▁soared	-12.1306
▁modified	-12.1306
▁dropped	-12.1306
▁제곱	-12.1307
▁슬라이드	-12.1308
you	-12.131
▁disappointing	-12.131
▁wins	-12.1311
▁extracted	-12.1311
▁드릴께요	-12.1313
▁Again	-12.1315
▁우울	-12.1316
wa	-12.1316
▁갓	-12.1319
▁laughing	-12.132
▁singing	-12.1321
▁봉사	-12.1324
▁mussels	-12.1324
▁마스	-12.1327
ck	-12.1338
▁react	-12.1338
▁gate	-12.1349
ning	-12.1353
▁authentic	-12.1359
▁spirit	-12.1365
▁interfere	-12.1365
▁ashamed	-12.1365
▁vintage	-12.1365
▁마그네	-12.1365
▁intake	-12.1365
▁가져올	-12.1366
▁awareness	-12.1366
▁언젠	-12.1369
▁잡힌	-12.1369
▁즉석	-12.137
▁줄였	-12.1371
▁구리	-12.1373
▁huh	-12.1374
▁스페인	-12.1376
▁럼	-12.1376
▁선보일	-12.1376
▁반환	-12.1376
▁Line	-12.1379
▁activated	-12.1379
▁아닐까	-12.1389
▁이따	-12.1389
▁불법	-12.139
▁빌려	-12.1399
▁도마	-12.14
▁인류	-12.14
▁detects	-12.141
▁필기	-12.1418
침대	-12.1419
▁pencil	-12.1422
point	-12.1423
▁arrangement	-12.1423
셀러	-12.1425
▁debris	-12.1425
▁Features	-12.1425
▁이루어집니다	-12.1426
▁economical	-12.1427
▁assemble	-12.1427
▁Information	-12.1427
▁roughly	-12.1428
▁펄	-12.1428
▁lawn	-12.1428
▁Under	-12.1432
▁roots	-12.1432
▁욕심	-12.1435
▁wise	-12.1436
▁EV	-12.1436
▁rented	-12.1443
▁Out	-12.1445
▁공법	-12.1448
▁needing	-12.1451
▁warehouses	-12.1454
▁사탕	-12.1458
▁무제	-12.1459
대체	-12.1466
▁lectures	-12.1466
옵니다	-12.1468
▁Po	-12.1469
▁aims	-12.1474
▁substance	-12.1483
▁resource	-12.1483
▁랙	-12.1483
▁installment	-12.1484
▁exercising	-12.1485
▁recipient	-12.1485
▁truth	-12.1485
▁imaging	-12.1485
▁stably	-12.1485
▁lipstick	-12.1485
▁QR	-12.1485
▁composed	-12.1486
▁utensils	-12.1487
▁pH	-12.1487
▁bid	-12.1488
▁캐스	-12.1489
▁skilled	-12.1489
▁phase	-12.1491
id	-12.1498
▁변속	-12.1498
▁remover	-12.1498
▁임차	-12.1501
▁Electronics	-12.1509
▁영구	-12.1514
▁세사	-12.1518
▁지워	-12.153
▁answered	-12.1531
▁rotation	-12.1532
▁insert	-12.1533
▁토양	-12.1535
▁involve	-12.154
▁때려	-12.1543
▁aspect	-12.1544
쪼	-12.1544
▁elevator	-12.1546
▁grew	-12.1546
▁컴퍼니	-12.1546
▁index	-12.1546
▁verified	-12.1546
▁foldable	-12.1546
▁shy	-12.1547
▁빠졌	-12.1547
▁floating	-12.1548
▁37	-12.1548
▁면허	-12.1549
▁변기	-12.1551
▁chips	-12.1551
서리	-12.1553
▁Basically	-12.1553
we	-12.1558
▁포크	-12.1559
▁후속	-12.1562
▁개척	-12.1562
▁Nam	-12.1564
▁connects	-12.1566
▁중형	-12.1566
▁비대	-12.1567
▁거쳤	-12.1569
▁soda	-12.1569
▁tasted	-12.158
▁기호	-12.1581
소리	-12.1581
▁신입	-12.1583
랜드	-12.1596
▁perfume	-12.1602
▁acquire	-12.1602
잎	-12.1605
▁indicator	-12.1605
▁frequent	-12.1606
▁vertical	-12.1606
▁헤이	-12.1607
▁although	-12.1607
▁cryptocurrency	-12.1607
▁securities	-12.1607
▁올림픽	-12.1607
▁layout	-12.1607
▁submitted	-12.1607
▁departed	-12.1608
▁프로토	-12.1608
▁파운드	-12.161
▁스크래	-12.161
▁categories	-12.161
▁압박	-12.1611
▁Electric	-12.1611
▁consumed	-12.1615
▁돌아왔	-12.1615
▁애견	-12.1618
▁실린	-12.1618
▁Such	-12.162
▁hanging	-12.1621
▁표지	-12.1626
▁congratulate	-12.1626
ator	-12.1632
▁10-	-12.1635
▁톡	-12.1636
60	-12.1644
▁scents	-12.1646
▁Back	-12.1647
▁보급	-12.1652
▁벗겨	-12.1656
▁advantageous	-12.1661
▁risks	-12.1663
▁Create	-12.1664
▁prototype	-12.1667
▁definite	-12.1667
쭈	-12.1667
▁cabinet	-12.1667
▁Port	-12.1668
▁Taiwan	-12.1668
▁securing	-12.1668
▁vinegar	-12.1668
▁가솔린	-12.1668
▁retirement	-12.1668
▁으십시오	-12.1668
▁booklet	-12.1669
▁leaf	-12.1673
▁식단	-12.1674
▁stressed	-12.1675
▁건너	-12.1679
▁seedlings	-12.168
▁혀	-12.169
▁drives	-12.169
듬	-12.1693
▁surfaces	-12.1707
hye	-12.1709
반기	-12.1709
▁Ro	-12.1714
▁bubbles	-12.1719
▁Russia	-12.1729
▁stem	-12.1729
▁System	-12.173
▁intelligent	-12.173
▁RAM	-12.173
Hurry	-12.173
▁Moreover	-12.173
▁90%	-12.173
▁ghost	-12.1731
▁철학	-12.1732
▁focuses	-12.1732
▁bedrooms	-12.1733
▁endless	-12.1734
▁shocked	-12.1735
▁혁명	-12.1736
▁Hyun	-12.1738
km	-12.1745
▁limitations	-12.1745
▁전구	-12.1746
▁Five	-12.175
▁cart	-12.1752
▁stations	-12.1754
▁Four	-12.1755
▁farms	-12.1758
▁권해	-12.1765
▁locations	-12.1768
▁뚫	-12.1769
▁Design	-12.1769
▁proportion	-12.1769
▁density	-12.178
▁인건	-12.1783
▁시술	-12.1786
▁yogurt	-12.1792
effective	-12.1792
▁마찰	-12.1795
▁잔여	-12.1799
▁Blue	-12.1799
▁탐지	-12.18
▁hired	-12.1804
▁backup	-12.1806
▁softer	-12.1806
▁TVs	-12.1808
염증	-12.1816
▁발전소	-12.1817
20	-12.1822
▁notifications	-12.1824
sided	-12.1825
▁정제	-12.1827
▁비지	-12.183
▁sticks	-12.1832
▁2%	-12.1836
▁harvest	-12.184
▁연체	-12.1844
piece	-12.185
▁metals	-12.1851
▁disc	-12.1851
▁대용	-12.1851
▁acquisition	-12.1854
▁criteria	-12.1854
▁비쌉니다	-12.1854
▁inflation	-12.1855
▁insulated	-12.1855
▁carpet	-12.1855
▁항암	-12.1856
▁Mobile	-12.1856
▁bitter	-12.1856
▁깨달	-12.1857
하나	-12.1858
▁분쇄	-12.1858
▁academic	-12.1861
▁duty	-12.1865
▁recipes	-12.1865
▁locally	-12.1866
▁순대	-12.187
▁Jihyo	-12.187
▁vaccines	-12.1871
▁knee	-12.1873
▁조미	-12.1876
▁servers	-12.1882
▁PM	-12.1888
▁열린	-12.189
▁Soo	-12.1894
▁Sea	-12.1896
▁discussions	-12.1898
▁shell	-12.19
▁island	-12.1904
죽	-12.1905
▁계셔	-12.1908
▁skill	-12.191
▁decline	-12.1912
▁hundreds	-12.1912
+	-12.1913
▁쉐	-12.1914
▁typical	-12.1916
▁retreat	-12.1917
▁applicable	-12.1917
▁comparison	-12.1917
▁queries	-12.1917
▁물어볼	-12.1917
▁싱가포르	-12.1917
룡	-12.1917
▁clip	-12.1918
▁habit	-12.1918
tor	-12.1918
▁흡연	-12.1918
▁긴밀	-12.1919
납니다	-12.1919
capacity	-12.1919
▁아름다움	-12.1919
▁붉	-12.1919
On	-12.1919
▁좋아할	-12.1919
▁셀프	-12.192
교통	-12.1921
▁약해	-12.1925
▁귀중	-12.1925
▁producer	-12.1926
▁메이커	-12.1926
▁주류	-12.1927
▁빨래	-12.1927
▁64	-12.1929
ear	-12.1933
hwan	-12.1937
▁유전	-12.1938
▁dolls	-12.1945
▁헷갈	-12.1948
▁intestines	-12.1951
▁projector	-12.1954
▁둥	-12.1955
▁증기	-12.1956
▁cushions	-12.1958
▁decreases	-12.1959
ability	-12.1959
▁모래	-12.1963
▁온수	-12.1963
cr	-12.1971
▁마중	-12.1972
▁라우	-12.1975
▁zip	-12.1978
▁leads	-12.1978
▁commission	-12.1978
▁푹	-12.1979
▁reporting	-12.1979
▁Hanok	-12.1981
▁crew	-12.1981
▁Kook	-12.1981
▁district	-12.1981
▁셨잖아요	-12.1982
▁2018	-12.1982
▁흙	-12.1983
▁머릿	-12.1984
▁heel	-12.1992
▁Gae	-12.1993
▁fortune	-12.1993
▁복원	-12.1996
▁weekdays	-12.1997
▁조종	-12.2003
jeong	-12.2005
▁damages	-12.2006
▁0000	-12.2009
▁44	-12.2014
▁posts	-12.2016
▁줄기	-12.202
찰	-12.2031
▁Hand	-12.2033
▁분할	-12.2037
▁writers	-12.204
ding	-12.2041
▁출하	-12.2042
▁strain	-12.2043
▁shut	-12.2044
▁strategic	-12.2044
▁Besides	-12.2044
▁syrup	-12.2044
▁utilization	-12.2044
▁젓가락	-12.2044
▁기다렸	-12.2044
▁palm	-12.2044
▁episode	-12.2046
▁helmet	-12.2046
▁갖춰져	-12.2046
▁리필	-12.2046
Was	-12.2047
▁renewed	-12.2047
방향	-12.2051
▁기뻤	-12.2052
▁honored	-12.2054
▁internationally	-12.2056
▁우연	-12.2056
테르	-12.2057
▁돼야	-12.2061
▁joints	-12.2062
▁심리	-12.2063
▁blankets	-12.2063
▁모를	-12.2067
▁성적	-12.2076
승기	-12.2077
▁*	-12.2079
▁신다니	-12.2084
▁peppers	-12.2085
▁peace	-12.2089
▁누워	-12.2093
▁약한	-12.2096
▁bowls	-12.2099
▁누리	-12.2101
▁Market	-12.2101
▁prove	-12.2107
▁자국	-12.2108
▁Men	-12.2108
▁bodies	-12.2108
이킹	-12.2109
▁integration	-12.2109
▁이스	-12.2109
▁wore	-12.211
▁scientific	-12.211
▁parcel	-12.211
▁specialty	-12.2111
▁suffered	-12.2111
▁judged	-12.2114
▁chief	-12.2115
▁picking	-12.2119
▁circuit	-12.2119
▁acts	-12.2125
▁이윤	-12.2134
▁심한	-12.2138
▁두부	-12.214
▁약국	-12.2143
°	-12.2144
yong	-12.2146
▁Non	-12.2149
▁전공	-12.2163
▁manufactures	-12.2163
송	-12.2166
▁렌트	-12.2168
▁Indonesia	-12.2172
▁exchanged	-12.2172
▁stamp	-12.2173
▁contamination	-12.2173
▁mafia	-12.2173
뉘	-12.2173
▁scanning	-12.2173
▁PVC	-12.2173
▁트레이닝	-12.2173
▁footage	-12.2173
▁respectively	-12.2174
▁underway	-12.2174
▁microscope	-12.2174
잡이	-12.2178
▁창조	-12.218
▁축제	-12.2182
▁mounting	-12.2183
▁lately	-12.2183
▁스트	-12.2191
▁기모	-12.2192
▁계열	-12.2196
▁roads	-12.2206
▁이웃	-12.2209
▁파트	-12.2211
▁만기	-12.2219
▁hyung	-12.2222
▁백만	-12.2224
▁빠진	-12.2226
려고	-12.223
▁disappear	-12.2231
▁principles	-12.2233
▁페스	-12.2237
렀	-12.2238
▁Tokyo	-12.2238
▁purple	-12.2238
▁바깥	-12.2238
cheol	-12.2238
▁welding	-12.2239
▁폴더	-12.2239
▁secondary	-12.224
▁맘	-12.224
▁stove	-12.224
깃	-12.2241
로지	-12.2244
▁coin	-12.2244
▁decorated	-12.2245
ular	-12.2246
▁canceling	-12.2246
▁레스	-12.2248
▁언론	-12.2249
che	-12.225
▁주민	-12.2258
▁Hyeon	-12.2259
cheon	-12.226
▁정화	-12.2261
붙	-12.2262
▁급속	-12.2263
▁겨	-12.2266
▁배추	-12.2267
▁expressions	-12.2268
▁explaining	-12.2275
▁벌레	-12.2275
▁보도	-12.2277
▁h	-12.228
롤	-12.2282
ud	-12.2297
▁silicon	-12.2302
▁jealous	-12.2303
▁temporary	-12.2303
▁twenty	-12.2303
▁visibility	-12.2303
넨	-12.2303
▁suspicious	-12.2303
▁쉴	-12.2305
▁tale	-12.2306
▁proceeding	-12.2307
▁tenant	-12.2307
▁banking	-12.2308
handed	-12.2308
▁올렸	-12.2309
▁움직여	-12.2309
▁responses	-12.2314
▁베어	-12.2317
▁끝날	-12.2318
00	-12.2318
▁Exactly	-12.2321
▁mug	-12.2327
▁kilograms	-12.2338
▁searching	-12.2339
▁quant	-12.2341
▁ex	-12.2349
▁ha	-12.2354
▁pumps	-12.2358
▁chew	-12.2359
▁늘려	-12.2363
▁flash	-12.2368
▁컬	-12.2369
▁lemon	-12.2369
▁Furthermore	-12.2369
▁celebrities	-12.2369
▁끼쳐드려	-12.2369
▁false	-12.2369
▁brokerage	-12.2369
▁웃긴	-12.237
▁바보	-12.2371
▁franchise	-12.2372
▁검은	-12.2373
밭	-12.2373
▁climbing	-12.2374
▁White	-12.2374
▁걸까요	-12.2374
▁Aside	-12.2375
▁manually	-12.2376
▁chewing	-12.2376
▁entirely	-12.2377
▁예비	-12.238
he	-12.2382
▁additives	-12.2383
▁theft	-12.2384
▁구상	-12.2384
▁cleanly	-12.2391
sales	-12.2394
▁과도	-12.2397
▁보석	-12.2399
▁로우	-12.2401
▁버클	-12.2404
▁ham	-12.2407
주파	-12.2416
80	-12.2425
▁curtains	-12.2425
▁finalize	-12.243
▁수천	-12.2432
▁tomato	-12.2435
▁shame	-12.2435
▁hypoallergenic	-12.2435
▁injury	-12.2435
▁boring	-12.2435
▁swing	-12.2435
▁House	-12.2435
jun	-12.2436
▁cabinets	-12.2436
▁어울릴	-12.2437
▁미칩니다	-12.2437
▁installments	-12.2438
▁소시	-12.2438
▁fragrance	-12.2439
▁characteristic	-12.2439
Hyo	-12.244
▁investor	-12.2441
▁고집	-12.2446
▁스페	-12.2447
12	-12.2453
▁tonight	-12.2454
▁arranged	-12.2454
▁enhanced	-12.2454
▁tent	-12.2456
묵	-12.2457
▁rely	-12.2458
▁후원	-12.246
▁쑥	-12.2462
▁하락	-12.2467
▁크레	-12.2467
▁ba	-12.2469
▁리프	-12.2469
▁방어	-12.247
서요	-12.2475
▁고압	-12.2475
▁갈치	-12.2476
▁시동	-12.2476
▁다용	-12.2479
▁awards	-12.2486
▁놈	-12.2486
▁텔	-12.2491
▁observe	-12.2496
▁infants	-12.2496
▁모이	-12.2498
레이	-12.2499
▁pursue	-12.25
▁convey	-12.2502
▁grandmother	-12.2502
▁mechanism	-12.2502
▁promising	-12.2502
▁슬립	-12.2504
▁외식	-12.2505
▁washable	-12.2505
▁pumpkin	-12.2506
냐	-12.2506
▁blocked	-12.2508
▁urban	-12.2509
▁500,000	-12.2509
▁아픈	-12.2509
▁utilized	-12.2509
▁approaching	-12.2512
▁Dream	-12.2512
▁fold	-12.2514
▁labels	-12.2515
▁begun	-12.2516
ke	-12.2516
▁Cool	-12.2519
▁로스	-12.2524
gg	-12.2529
Ma	-12.2533
▁beard	-12.2535
▁댓	-12.2538
▁패치	-12.254
▁도우	-12.2542
▁structures	-12.2553
▁고해	-12.2554
▁세일	-12.2555
욱	-12.2559
▁린	-12.2561
eng	-12.2561
fi	-12.2564
▁bond	-12.2567
▁unlimited	-12.2568
▁Android	-12.2569
▁cleanliness	-12.2569
▁shiny	-12.2569
▁Fair	-12.2569
▁dispatched	-12.2572
▁matches	-12.2572
▁fifth	-12.2572
▁탈락	-12.2572
▁firmly	-12.2573
▁alloy	-12.2573
▁Life	-12.2574
규모	-12.2575
▁evaluated	-12.2576
바위	-12.2578
▁spoons	-12.2581
▁Bio	-12.2583
▁삐	-12.2583
▁농구	-12.2585
▁Stay	-12.2589
▁Excuse	-12.2591
▁Fine	-12.2593
세지	-12.2594
▁충실	-12.2596
▁fixing	-12.2598
▁그려	-12.2603
▁크라	-12.2606
▁Chang	-12.2612
▁대가	-12.2616
만두	-12.2618
▁보행	-12.2622
▁cafes	-12.2627
긋	-12.2632
▁흘러	-12.2632
ative	-12.2633
▁boast	-12.2635
▁bold	-12.2636
▁challenges	-12.2636
▁floss	-12.2637
▁serum	-12.2637
▁컨셉	-12.2637
▁conditioning	-12.2637
▁활력	-12.264
▁router	-12.2642
▁크롬	-12.2642
selling	-12.2642
order	-12.2643
▁돋	-12.2643
▁일주	-12.2644
▁sticker	-12.2645
▁짚	-12.2646
▁열릴	-12.2647
making	-12.2648
▁gloss	-12.2649
yo	-12.265
▁쫄깃	-12.265
▁반짝	-12.2651
▁funding	-12.2653
ite	-12.2654
▁Hee	-12.2655
▁양산	-12.2659
▁undergo	-12.266
▁reminder	-12.2662
▁어학	-12.2668
▁강연	-12.2673
▁장미	-12.2674
화물	-12.2674
▁450	-12.269
닥	-12.2692
▁탐	-12.2692
▁grind	-12.2695
맥	-12.2697
▁pretend	-12.2698
인드	-12.27
▁#	-12.2705
▁attitude	-12.2705
▁charcoal	-12.2705
▁deciding	-12.2705
▁애프터	-12.2705
▁absence	-12.2705
▁커넥	-12.2705
타워	-12.2705
have	-12.2707
▁Support	-12.2708
▁connectivity	-12.2709
▁=	-12.2709
▁infant	-12.2711
effectiveness	-12.2711
▁associate	-12.2711
▁punk	-12.2713
▁82	-12.2716
▁bicycles	-12.2718
▁ports	-12.2719
200	-12.2726
▁춥	-12.2727
▁인조	-12.2727
▁basics	-12.2728
▁additionally	-12.2735
5,000	-12.2739
▁시켜야	-12.2746
시아	-12.2754
▁mart	-12.2756
▁breathe	-12.2757
▁beam	-12.2758
▁설레	-12.2761
▁sooner	-12.2767
▁adhere	-12.2767
바지	-12.2768
▁lever	-12.2771
▁judge	-12.2773
▁Simply	-12.2773
▁mobility	-12.2773
▁statistics	-12.2773
▁Despi	-12.2773
▁intermediate	-12.2773
▁cookware	-12.2773
▁accountant	-12.2774
▁판독	-12.2775
▁아야지	-12.2775
▁태양열	-12.2775
▁century	-12.2776
▁softness	-12.2777
▁성급	-12.2779
엘	-12.278
living	-12.278
▁stays	-12.2782
touch	-12.2786
▁건축물	-12.2786
▁rolls	-12.2794
▁항구	-12.2796
▁loves	-12.2799
cal	-12.2802
브릭	-12.2804
▁mL	-12.2806
▁extending	-12.2809
▁걸러	-12.2812
▁promotions	-12.2815
▁팸	-12.2815
▁점프	-12.2825
▁캐시	-12.2825
삼	-12.2838
sh	-12.2839
▁shift	-12.2839
▁다크	-12.2839
▁Sit	-12.2839
어서	-12.2841
▁Street	-12.2842
▁challenging	-12.2842
▁noisy	-12.2842
▁varieties	-12.2842
▁300,000	-12.2842
▁Excellent	-12.2842
▁Drug	-12.2842
▁fermentation	-12.2842
▁홍삼	-12.2842
▁주식회사	-12.2842
▁Hope	-12.2842
▁inter	-12.2842
▁tomatoes	-12.2843
▁sleek	-12.2843
▁걸릴까요	-12.2843
▁drops	-12.2843
▁스쿠	-12.2844
▁arrangements	-12.2845
▁받아들여	-12.2846
▁diabetes	-12.2846
▁pin	-12.2846
▁tightly	-12.2846
▁토너	-12.2846
▁hook	-12.2847
▁browser	-12.2849
▁adventure	-12.2849
▁cosmetic	-12.2849
샤	-12.2849
▁slippers	-12.2849
둔	-12.2849
흘	-12.285
▁enjoyable	-12.2854
▁Definitely	-12.2856
따	-12.2858
크리	-12.2859
▁grows	-12.2861
▁sandwich	-12.2862
▁fibers	-12.2863
▁bathrooms	-12.2864
row	-12.2868
▁월간	-12.287
▁eats	-12.2873
▁강사	-12.2874
▁joining	-12.2874
▁호박	-12.2882
▁listing	-12.2884
▁demands	-12.2888
▁카시	-12.2893
▁Honey	-12.2896
▁conditioners	-12.2897
▁desire	-12.2906
▁reward	-12.2909
▁horse	-12.2912
▁consecutive	-12.2912
▁sponge	-12.2912
▁횟수	-12.2912
▁lifespan	-12.2912
▁Exist	-12.2912
▁basketball	-12.2912
▁Middle	-12.2912
▁confidential	-12.2912
▁Previously	-12.2912
▁bulletin	-12.2912
▁backpack	-12.2913
▁analog	-12.2913
▁authority	-12.2914
▁rainy	-12.2914
gil	-12.2915
▁jeans	-12.2915
▁mint	-12.2915
▁원한다면	-12.2916
▁considerable	-12.2917
▁붓	-12.2918
▁reinforced	-12.2918
▁twin	-12.2918
▁algorithm	-12.2919
▁talks	-12.2919
▁bridge	-12.2919
profit	-12.292
▁Ta	-12.292
첨단	-12.2921
▁쏙	-12.2921
70	-12.2922
▁filmed	-12.2922
▁전쟁	-12.2925
▁무서운	-12.2927
▁smoking	-12.2928
▁contained	-12.2928
ex	-12.2932
▁코디	-12.2935
over	-12.2938
▁간절	-12.2939
▁tells	-12.2942
▁attended	-12.2944
▁형제	-12.2958
▁기입	-12.2961
▁Di	-12.2961
▁온실	-12.2963
▁neutral	-12.2965
▁전선	-12.2971
▁레인	-12.2975
사고	-12.2977
▁views	-12.2977
ot	-12.2977
▁Multi	-12.2979
▁Built	-12.2982
▁distributing	-12.2982
▁nuclear	-12.2982
젓	-12.2982
▁remitted	-12.2982
▁implementation	-12.2982
▁생깁니다	-12.2982
▁위탁	-12.2983
▁썩	-12.2983
▁trucks	-12.2983
▁옵니다	-12.2983
▁uh	-12.2984
▁revealed	-12.2984
▁합병	-12.2985
▁Digital	-12.2986
▁Connect	-12.2988
▁dryers	-12.2989
▁로즈	-12.2989
▁compartment	-12.2989
▁technique	-12.2989
temperature	-12.299
▁썬	-12.299
▁종목	-12.2998
▁바라보	-12.3
▁이루어진	-12.3004
▁배양	-12.3005
▁examples	-12.3014
▁liters	-12.3019
▁saves	-12.3022
ever	-12.3028
ard	-12.3033
▁쳤	-12.3038
▁믿음	-12.3042
▁떨어질	-12.3042
▁바구	-12.3043
▁극장	-12.3045
▁딜	-12.3046
▁깃	-12.3048
▁이랬	-12.305
500	-12.3051
▁Association	-12.3052
▁bibimbap	-12.3052
▁gonna	-12.3052
▁goodbye	-12.3052
씰	-12.3052
▁텀블	-12.3052
▁stationery	-12.3052
▁minor	-12.3052
▁leakage	-12.3052
▁portability	-12.3052
▁tableware	-12.3052
▁skincare	-12.3053
▁greenhouse	-12.3053
▁슬롯	-12.3053
▁systematic	-12.3053
▁soothing	-12.3055
▁warming	-12.3056
▁virtually	-12.3057
▁140	-12.3057
▁stain	-12.3058
▁cater	-12.3058
▁deeper	-12.3058
▁pedal	-12.306
▁cutter	-12.306
▁generator	-12.306
▁battle	-12.3069
▁넘겨	-12.3069
▁통역	-12.307
▁차려	-12.3077
리오	-12.3081
▁cookies	-12.3082
▁밀리	-12.3083
▁유동	-12.3084
▁명성	-12.3085
▁합쳐	-12.3086
▁sleeves	-12.3094
▁Firstly	-12.3094
ig	-12.3103
▁burn	-12.3104
▁움	-12.3107
▁임시	-12.3109
body	-12.3116
▁클로	-12.3116
ial	-12.3119
▁completing	-12.3123
▁denim	-12.3123
▁embarrassing	-12.3123
▁oriental	-12.3123
▁허벅	-12.3123
▁망설	-12.3123
▁IPO	-12.3123
▁vest	-12.3123
▁absorbed	-12.3126
▁pitch	-12.3127
▁patch	-12.3128
▁스커	-12.3128
▁봇	-12.3129
▁pollutants	-12.3132
멜	-12.3132
▁미친	-12.3133
45	-12.3135
▁타격	-12.3135
▁Users	-12.3138
▁Has	-12.3138
▁으셔야	-12.3139
▁레버	-12.3143
▁선진	-12.3143
▁citizens	-12.3147
▁날카로	-12.3148
▁신장	-12.3148
▁MB	-12.3152
▁드러	-12.316
테나	-12.3165
▁배운	-12.3172
os	-12.3172
지요	-12.3173
▁Act	-12.3173
99	-12.3177
▁비중	-12.3177
▁cleans	-12.3177
OO	-12.3179
▁지상	-12.318
bit	-12.3187
▁institution	-12.3187
▁La	-12.319
▁extensive	-12.3193
▁combining	-12.3194
▁crowdfunding	-12.3194
▁dormitory	-12.3194
▁survival	-12.3194
빴	-12.3194
▁freedom	-12.3194
▁native	-12.3194
▁healthier	-12.3195
▁똑	-12.3195
▁dreams	-12.3197
▁어라	-12.3197
▁Cloud	-12.3198
▁allergic	-12.3198
▁응급	-12.3199
▁지붕	-12.32
▁Wash	-12.3201
▁sausage	-12.3203
▁염소	-12.3204
▁마이너	-12.3206
▁43	-12.3207
다니	-12.3208
▁loading	-12.3211
▁oily	-12.3213
▁pajamas	-12.3213
▁라켓	-12.3222
ster	-12.3224
side	-12.3227
▁forced	-12.3227
▁이길	-12.3228
▁아르	-12.3234
▁튀겨	-12.3244
▁종양	-12.3249
▁Ye	-12.3253
▁가까워	-12.326
▁원할	-12.3264
▁공업	-12.3265
▁routine	-12.3266
▁verify	-12.3266
▁생물학	-12.3267
▁엉망	-12.3267
▁왁	-12.3267
▁personalized	-12.3268
▁불렀	-12.3269
▁converted	-12.327
▁합격	-12.3271
▁조그	-12.3272
▁외장	-12.3275
▁discharged	-12.3275
commerce	-12.3276
몽	-12.3276
▁연마	-12.3277
▁Sechan	-12.3279
▁툴	-12.3285
▁충성	-12.3287
▁Teacher	-12.3287
▁herbs	-12.329
▁아날	-12.3291
▁어릴	-12.3302
▁98	-12.3302
▁72	-12.3303
▁dollar	-12.331
▁리얼	-12.3317
▁Gu	-12.3318
▁Li	-12.3318
▁leaks	-12.3319
고루	-12.3324
▁explanations	-12.3325
▁떠올	-12.3327
▁stickers	-12.3334
▁preserve	-12.3335
▁나아	-12.3336
빵	-12.3338
testinal	-12.3339
▁diagnostic	-12.3339
▁frustrating	-12.3339
렙	-12.3339
▁jewelry	-12.3339
▁suction	-12.3339
▁복지	-12.334
▁감수	-12.3341
▁leaked	-12.3343
▁concentrated	-12.3344
▁곱	-12.3346
▁historical	-12.3347
▁경계	-12.3347
power	-12.3347
▁vegetarian	-12.3349
▁매너	-12.3349
▁excuse	-12.3349
▁corporation	-12.3349
Something	-12.335
쥐	-12.335
밤	-12.335
▁demanding	-12.3354
▁Talk	-12.3354
▁cooker	-12.3356
▁boy	-12.336
아리	-12.3364
books	-12.3366
▁물가	-12.3366
▁유학	-12.3367
▁Being	-12.3368
셨었	-12.3369
▁dimensions	-12.3371
▁쟁	-12.3373
▁protecting	-12.3389
▁r	-12.3391
▁공중	-12.3396
▁interact	-12.3404
▁아아	-12.3407
▁loyal	-12.3412
▁Several	-12.3412
▁volleyball	-12.3412
▁yield	-12.3412
▁structural	-12.3412
▁compressed	-12.3412
▁껴	-12.3413
▁돌아와	-12.3414
▁hitting	-12.3415
▁독창	-12.3416
▁1080	-12.3418
덤	-12.342
▁screw	-12.342
▁전후	-12.342
▁bundle	-12.3422
▁calculation	-12.3422
▁curtain	-12.3423
▁pace	-12.3428
▁stream	-12.3431
only	-12.3433
▁linen	-12.3435
야겠다	-12.3437
▁서식	-12.3444
▁나와야	-12.3445
▁manners	-12.3448
었잖	-12.3456
▁decorate	-12.3479
▁Nigeria	-12.3485
▁cradle	-12.3485
▁gauge	-12.3485
▁gender	-12.3485
▁LNG	-12.3485
▁basement	-12.3486
▁농축	-12.3486
▁일곱	-12.3487
▁열풍	-12.349
▁candidates	-12.349
▁합법	-12.3491
▁earned	-12.3491
▁글씨	-12.3492
▁망원	-12.3494
▁pushed	-12.3494
▁배합	-12.3496
▁concert	-12.3496
▁warmly	-12.3496
▁beginner	-12.3497
넓	-12.3497
▁whose	-12.35
▁새끼	-12.3502
▁정통	-12.3502
▁wound	-12.3505
▁테이	-12.3508
▁cleaners	-12.3509
▁mountains	-12.351
▁Hav	-12.3512
▁puts	-12.3512
▁workbook	-12.3512
▁수직	-12.3513
▁빙	-12.3524
▁provider	-12.3525
▁tail	-12.3527
▁청바	-12.3528
▁birds	-12.353
▁brothers	-12.3535
▁Woo	-12.3535
픽	-12.3539
▁마르	-12.354
▁프라	-12.354
▁sprouts	-12.3545
▁친한	-12.3546
보리	-12.3548
사항	-12.3549
rtificial	-12.355
Chan	-12.3551
▁allergies	-12.3559
▁computing	-12.3559
▁identification	-12.3559
▁journey	-12.3559
▁medicinal	-12.3559
▁summary	-12.3559
▁philosophy	-12.3559
▁simulation	-12.3559
▁surgical	-12.3559
▁찌꺼	-12.3559
▁padding	-12.3559
▁disrupted	-12.356
▁friction	-12.3563
▁뜨거워	-12.3563
▁Super	-12.3565
▁bin	-12.3567
▁Kang	-12.3567
▁Small	-12.3567
▁풍경	-12.3568
▁bomb	-12.357
▁animation	-12.3571
▁infection	-12.3571
▁achievement	-12.3572
▁예금	-12.3576
▁forth	-12.3579
ple	-12.3579
▁films	-12.3589
▁느려	-12.359
▁makers	-12.3593
▁그저	-12.3594
win	-12.3596
▁스테	-12.3597
▁어마	-12.36
▁refunded	-12.3603
▁전투	-12.3604
▁magnet	-12.3606
▁안락	-12.3607
▁급수	-12.3609
학생	-12.3613
▁알릴	-12.3613
her	-12.3617
▁찢어	-12.3618
▁지니	-12.3622
터치	-12.3625
▁kiss	-12.3627
ya	-12.3627
▁advise	-12.3628
▁encounter	-12.3632
▁Mom	-12.3632
▁meticulous	-12.3633
▁데이	-12.3633
▁arriving	-12.3634
▁consignment	-12.3634
▁semester	-12.3634
▁카운터	-12.3634
뷔	-12.3634
▁윤곽	-12.3634
▁starch	-12.3634
▁downtown	-12.3634
▁인플레	-12.3634
닌	-12.3635
▁mattresses	-12.3635
our	-12.3635
jae	-12.3635
▁hip	-12.3635
▁침투	-12.3636
▁precisely	-12.3636
▁General	-12.3637
▁baked	-12.3637
▁스톱	-12.3638
▁크로스	-12.3638
▁Jo	-12.3639
▁chopsticks	-12.3642
▁Always	-12.3643
▁trained	-12.3646
잉	-12.3647
▁플래시	-12.3647
stick	-12.3648
▁기뻐	-12.365
▁named	-12.365
▁꼬리	-12.365
land	-12.3653
▁broadcasts	-12.3655
▁정해져	-12.3655
▁여겨	-12.366
▁담보	-12.3662
▁strengths	-12.3664
▁turbines	-12.3665
▁claims	-12.3666
▁heated	-12.3667
▁에디	-12.367
▁fingers	-12.3675
▁wraps	-12.3681
▁중독	-12.3681
셔야	-12.3682
▁카트리	-12.3683
▁opt	-12.3689
▁borrow	-12.3692
▁experiments	-12.3692
▁extracts	-12.3695
▁bonds	-12.3704
▁대시	-12.3705
▁knees	-12.3709
▁struggling	-12.3709
▁styling	-12.3709
▁프랜차이	-12.3709
걔	-12.3709
▁cried	-12.3709
▁hiring	-12.3709
▁Beach	-12.3709
▁hangover	-12.3709
▁학술	-12.371
▁villa	-12.3711
▁올라갈	-12.3711
▁경매	-12.3712
▁얹	-12.3712
궁	-12.3712
▁rejected	-12.3713
9,000	-12.3715
▁presents	-12.3715
ger	-12.3716
▁Health	-12.3716
▁배워	-12.3718
▁Pet	-12.3721
▁1500	-12.3721
탱	-12.3722
▁capsule	-12.3722
▁tears	-12.3723
degree	-12.3723
People	-12.3723
아버지	-12.3723
▁bubble	-12.3723
▁Never	-12.3724
▁으니깐	-12.3724
▁Things	-12.3726
▁dis	-12.3729
▁형광	-12.373
베	-12.3734
▁spraying	-12.3736
▁제육	-12.3737
▁처방	-12.3741
▁wings	-12.3743
▁token	-12.3751
▁versions	-12.3751
▁56	-12.3754
▁vessels	-12.3755
▁certificates	-12.3756
Re	-12.3767
▁clarify	-12.3778
▁investigate	-12.3779
▁릿	-12.3781
▁ridiculous	-12.3784
▁Protect	-12.3784
▁agriculture	-12.3785
▁plaque	-12.3785
▁shuttle	-12.3785
▁specify	-12.3785
▁rotating	-12.3785
▁outsourcing	-12.3785
▁consent	-12.3785
▁oppa	-12.3785
▁당뇨병	-12.3785
▁꼽	-12.3786
▁engaged	-12.3788
▁snap	-12.3789
▁숲	-12.3791
▁몰래	-12.3792
▁애호	-12.3793
▁Yesterday	-12.3794
▁thread	-12.3796
▁Seon	-12.3796
▁concepts	-12.3797
▁te	-12.3797
컵	-12.3799
Whoa	-12.3801
▁면목	-12.3808
▁조이	-12.3813
▁insights	-12.3819
용성	-12.382
▁소매업	-12.3823
▁재발	-12.3823
▁유입	-12.3838
▁기자	-12.3843
ow	-12.3843
▁coast	-12.3848
로운	-12.3849
▁혜	-12.3855
벳	-12.3861
▁멕시코	-12.3861
▁팝	-12.3862
▁테니스	-12.3862
ities	-12.3863
▁황금	-12.3867
▁Group	-12.3868
▁해지	-12.3868
▁스테인	-12.3869
▁freeze	-12.3869
▁식량	-12.3871
▁hacking	-12.3871
▁누릴	-12.3872
▁breathing	-12.3874
▁covering	-12.3874
▁DC	-12.3874
AN	-12.3875
▁enterprise	-12.3875
금속	-12.3877
▁댁	-12.388
▁pulled	-12.3881
▁54	-12.3882
ny	-12.3888
▁줘야지	-12.3893
▁contractor	-12.3894
어마	-12.3912
▁부가	-12.3912
▁repairs	-12.3918
▁till	-12.3921
▁서양	-12.3925
▁Contain	-12.3927
▁일일	-12.3935
▁쳐다	-12.3937
▁intuitive	-12.3937
▁random	-12.3937
▁Excel	-12.3938
▁flag	-12.3938
▁collagen	-12.3938
▁facilitate	-12.3938
▁Butlers	-12.3938
▁intense	-12.3938
1?	-12.3938
▁wrapped	-12.3938
▁scenery	-12.3938
▁buckle	-12.3939
▁approximately	-12.3939
▁통찰	-12.3939
▁approve	-12.3939
▁플란	-12.3941
▁strictly	-12.3941
▁School	-12.3941
▁coal	-12.3942
▁ongoing	-12.3942
▁160	-12.3946
▁방귀	-12.3948
▁Trust	-12.3949
▁부를	-12.3952
▁fingerprint	-12.3953
▁yard	-12.3953
▁decade	-12.3953
▁element	-12.3953
density	-12.3954
▁kits	-12.3954
Only	-12.3955
▁져요	-12.3956
▁dyeing	-12.3957
▁licensed	-12.3958
▁bend	-12.3963
▁줄어	-12.3966
lin	-12.3966
▁빌리	-12.3972
▁Bro	-12.398
▁단자	-12.399
들이	-12.3991
▁어찌	-12.3993
lar	-12.3997
▁decades	-12.4001
▁변이	-12.4004
▁일지	-12.4006
▁올인	-12.4008
▁39	-12.401
▁Ideal	-12.4015
▁경사	-12.4015
▁bouquet	-12.4016
▁dementia	-12.4016
▁대통령	-12.4016
뽕	-12.4016
툰	-12.4016
▁Wireless	-12.4016
▁frustrated	-12.4016
▁dear	-12.4016
▁Hence	-12.4017
▁베타	-12.4017
▁Rest	-12.4017
▁instantly	-12.4018
▁vinyl	-12.4018
▁profitable	-12.4019
▁포토	-12.4019
▁소송	-12.4019
▁bow	-12.402
▁단말	-12.4025
▁bound	-12.4026
스프레	-12.4027
▁wirelessly	-12.4027
▁officetel	-12.4031
▁slot	-12.4031
▁sprout	-12.4031
cost	-12.4033
▁Happy	-12.4034
너무	-12.4034
체인	-12.4037
▁Play	-12.4043
▁proposals	-12.4049
▁Ne	-12.4058
▁actors	-12.4065
▁번식	-12.407
▁마른	-12.4074
▁전류	-12.4074
if	-12.4075
▁신랑	-12.4076
▁정전	-12.4081
▁바베	-12.4087
▁utility	-12.4094
▁lactobacillus	-12.4094
▁torque	-12.4094
▁Shipping	-12.4094
▁punishment	-12.4094
▁rooftop	-12.4094
▁encryption	-12.4094
▁bacon	-12.4094
▁livestock	-12.4094
▁틈새	-12.4094
▁빠짐	-12.4095
▁도쿄	-12.4095
▁Car	-12.4097
▁턴	-12.4099
▁thicker	-12.4099
▁농사	-12.41
▁뮤지	-12.41
려서	-12.4101
ile	-12.4105
▁ankle	-12.4109
▁motorcycle	-12.4109
▁envelope	-12.411
▁earphone	-12.411
큰	-12.411
▁requirement	-12.4111
rate	-12.4112
▁candy	-12.4115
▁gamers	-12.4117
▁맹	-12.4117
▁Wear	-12.4118
▁비비	-12.4119
▁수백	-12.4121
▁performing	-12.4121
▁호스트	-12.4125
▁Pre	-12.4133
elecommunication	-12.4133
▁hearts	-12.4135
▁체력	-12.4139
▁forever	-12.4141
▁부재	-12.4141
red	-12.4141
▁repeat	-12.4143
▁170	-12.4148
▁whom	-12.4154
▁계량	-12.4158
▁CE	-12.416
▁remodel	-12.4163
▁컴퓨	-12.417
쿠	-12.4171
▁cyber	-12.4172
쥴	-12.4172
▁위함입니다	-12.4173
▁설거지	-12.4173
▁힘듭니다	-12.4173
▁jam	-12.4173
▁견인	-12.4174
▁덥	-12.4174
▁Absolutely	-12.4174
▁관계없이	-12.4175
▁2011	-12.4176
▁Seokjin	-12.4177
▁screening	-12.4179
▁confidently	-12.418
▁Yong	-12.418
▁Ga	-12.418
▁궤	-12.4184
ware	-12.4184
▁Rock	-12.4187
ron	-12.4187
▁disaster	-12.4189
넷	-12.419
Honey	-12.419
Would	-12.419
ten	-12.419
▁괴	-12.4191
▁터보	-12.4192
▁플리	-12.4194
gen	-12.4198
▁spreading	-12.4199
▁pigments	-12.4201
ui	-12.4203
▁traded	-12.4211
▁shipments	-12.4212
▁mixer	-12.4216
▁추수	-12.4217
▁강원	-12.4219
▁띠	-12.4219
down	-12.4228
▁measurements	-12.4229
▁레이트	-12.4229
▁메리	-12.423
▁밀려	-12.4236
버스	-12.4246
▁reverse	-12.4246
25	-12.4248
▁chart	-12.4249
▁duration	-12.4252
▁germs	-12.4252
▁nickname	-12.4252
▁telephone	-12.4252
▁스케이트	-12.4252
쉬운	-12.4252
▁harmless	-12.4252
▁지저분	-12.4252
▁restricted	-12.4252
▁스크랩	-12.4253
▁너그러	-12.4253
▁consistently	-12.4254
▁lyrics	-12.4256
oo	-12.4256
2?	-12.4257
▁recovered	-12.4257
▁dig	-12.4259
▁kindness	-12.426
▁stairs	-12.4262
▁감칠	-12.4264
▁shots	-12.4265
▁transform	-12.4265
▁도둑	-12.4265
▁toppings	-12.4267
▁관세	-12.4268
▁Think	-12.4273
작업	-12.4274
rise	-12.4274
김치	-12.4274
▁소자	-12.4282
stage	-12.4282
▁pushing	-12.4283
▁tower	-12.4289
▁과감	-12.4289
▁상무	-12.4291
▁preferences	-12.4291
▁shade	-12.4294
▁lamps	-12.4296
▁전파	-12.4301
▁상장	-12.4303
메	-12.4314
로에	-12.4321
▁pots	-12.4324
▁가산	-12.4324
▁transmit	-12.433
▁signs	-12.4331
▁judgment	-12.4332
▁pilot	-12.4332
▁rescue	-12.4332
▁shaving	-12.4332
잼	-12.4332
▁River	-12.4332
▁ecosystem	-12.4332
▁captain	-12.4332
▁electromagnetic	-12.4332
▁꾸며	-12.4332
▁안드로	-12.4332
▁cordless	-12.4332
▁ownership	-12.4332
▁incorporate	-12.4333
▁팝업	-12.4333
▁Y	-12.4334
▁올립니다	-12.4334
▁편합니다	-12.4335
work	-12.4335
▁sealed	-12.4336
▁division	-12.4336
▁Alley	-12.4337
▁클린	-12.434
ranging	-12.434
▁desserts	-12.434
▁clearer	-12.4342
▁distributes	-12.4344
1"	-12.4346
▁critical	-12.4347
▁떨어뜨	-12.4347
stop	-12.4349
▁umbrella	-12.4349
▁compressor	-12.435
▁pancake	-12.435
▁molding	-12.4351
메인	-12.4357
cy	-12.436
▁actions	-12.4364
▁spots	-12.4365
▁엘	-12.4365
size	-12.4368
for	-12.4371
▁bugs	-12.4373
▁keyboards	-12.4376
▁바른	-12.4379
▁recommending	-12.438
▁구이	-12.438
▁크로	-12.4381
▁dates	-12.4383
▁당했	-12.4384
▁66	-12.4385
▁Brother	-12.4386
ped	-12.4386
ship	-12.4395
han	-12.4402
▁월드	-12.4402
▁해야죠	-12.4406
▁demonstrate	-12.4407
▁delete	-12.441
eputy	-12.4412
▁Premium	-12.4412
▁creativity	-12.4412
▁fossil	-12.4412
▁hobby	-12.4412
▁톡톡	-12.4413
▁Room	-12.4413
▁bidding	-12.4413
▁bakery	-12.4413
▁mining	-12.4413
산지	-12.4414
▁[	-12.4414
▁automated	-12.4414
▁버릴	-12.4415
▁연필	-12.4416
▁탈출	-12.4417
▁주먹	-12.4418
▁tasting	-12.4418
▁genes	-12.4418
▁파인	-12.4419
▁콧	-12.4419
▁loving	-12.4419
▁시어	-12.4421
▁착화	-12.4422
▁강해	-12.4424
▁accumulate	-12.4425
▁틴	-12.4425
▁사모	-12.4425
▁rod	-12.4427
▁residue	-12.443
▁쓰여	-12.4431
놈	-12.4432
Number	-12.4432
베리	-12.4438
ake	-12.4439
▁128	-12.4445
▁편해	-12.445
▁까다	-12.4455
▁기밀	-12.4463
▁faithful	-12.4467
아시아	-12.4469
ving	-12.4488
cut	-12.4492
▁seasonal	-12.4492
night	-12.4493
▁assurance	-12.4494
퉁	-12.4494
▁telecom	-12.4494
▁스윙	-12.4494
▁kidding	-12.4494
▁recruitment	-12.4494
▁interactive	-12.4494
▁Series	-12.4494
▁torn	-12.4494
▁horizontal	-12.4495
▁으셨다면	-12.4496
▁겨우	-12.4496
▁adopted	-12.4496
▁딴	-12.4497
▁버티	-12.4497
▁flip	-12.4498
▁Though	-12.4498
▁올라와	-12.4499
▁strengthened	-12.4499
▁Entertainment	-12.45
▁earth	-12.45
▁tempered	-12.45
▁52	-12.45
▁securely	-12.4502
▁Except	-12.4503
▁탄성	-12.4504
▁exceeds	-12.4504
▁melt	-12.4504
▁보건	-12.4508
▁comb	-12.451
fit	-12.4513
흥	-12.4514
▁rolling	-12.4515
▁될까	-12.4516
▁팟	-12.4519
▁bra	-12.4519
▁edges	-12.4519
▁boiler	-12.4523
See	-12.4526
▁lacking	-12.4527
▁상해	-12.4531
▁이래서	-12.4537
▁성취	-12.4539
▁fertilizers	-12.4541
▁서부터	-12.4545
▁마디	-12.4546
pil	-12.4548
▁Indian	-12.4556
▁시골	-12.4557
high	-12.4563
11	-12.4563
▁generators	-12.4566
▁wax	-12.4569
▁memorize	-12.457
▁optimize	-12.4572
▁걸린	-12.4572
▁여태	-12.4573
▁Office	-12.4573
▁clarity	-12.4576
▁fifty	-12.4576
▁flustered	-12.4576
칫	-12.4576
▁domain	-12.4576
▁residence	-12.4576
▁Payment	-12.4576
▁비벼	-12.4576
▁9:00	-12.4577
▁늘어날	-12.4578
▁천만에	-12.4578
▁잭	-12.4579
▁당첨	-12.4579
▁Video	-12.458
▁accessibility	-12.458
▁DB	-12.4581
▁highlight	-12.4581
▁올리브	-12.4581
▁항산	-12.4583
▁grinding	-12.4584
▁육아	-12.4584
▁불쾌	-12.4585
▁셔틀	-12.4585
▁Follow	-12.4587
▁푹신	-12.4589
▁Watch	-12.459
▁편할	-12.459
▁striv	-12.4592
▁longest	-12.4597
hyung	-12.4597
▁drawer	-12.4598
▁Pick	-12.4599
▁glove	-12.46
▁scenes	-12.4602
▁treating	-12.4607
▁수산	-12.4608
▁$5	-12.4618
▁enabl	-12.4619
▁semiconductors	-12.4625
▁wipes	-12.4627
▁찌개	-12.4632
▁demo	-12.4636
▁기차	-12.4637
▁microphones	-12.4639
니어	-12.464
▁codes	-12.4649
▁experimental	-12.4652
▁stimulate	-12.4653
▁bonus	-12.4658
▁crypto	-12.4658
▁Canadian	-12.4658
▁chronic	-12.4658
▁구석구석	-12.4658
▁출퇴근	-12.4658
▁vast	-12.4658
▁Hopefully	-12.4658
▁boyfriend	-12.4658
▁contrary	-12.4658
▁틀렸	-12.466
▁pickled	-12.466
▁passes	-12.4661
▁authentication	-12.4661
▁Kwangsoo	-12.4661
▁ovens	-12.4662
▁insist	-12.4662
▁뱃	-12.4662
▁진주	-12.4663
▁경과	-12.4663
▁sodium	-12.4664
▁형수	-12.4664
▁excluded	-12.4664
▁hi	-12.4665
▁retain	-12.4666
▁스카이	-12.4666
▁정체	-12.4667
▁downloaded	-12.4668
▁받침	-12.4669
▁터미	-12.4669
▁salted	-12.4669
▁리드	-12.467
▁subscribed	-12.4672
▁CT	-12.4673
▁math	-12.4675
▁fuels	-12.4678
▁salon	-12.4678
▁variable	-12.4679
▁phrase	-12.4679
▁고가	-12.4679
Stop	-12.468
▁입소	-12.4683
Yu	-12.4684
▁positions	-12.4689
▁배기	-12.469
▁infrared	-12.4693
마디	-12.4694
▁비워	-12.4696
▁scraps	-12.4699
▁아이디	-12.4708
두리	-12.4715
▁van	-12.4719
▁j	-12.4724
▁할수록	-12.4726
▁weigh	-12.4729
▁거두	-12.473
▁discover	-12.4731
nt	-12.4732
▁corners	-12.4734
▁올린	-12.4734
▁무인	-12.4734
▁concentrate	-12.4736
ong	-12.4739
▁surprising	-12.4741
▁XYZ	-12.4742
▁칸막이	-12.4742
▁welcoming	-12.4742
▁탐험	-12.4742
▁compression	-12.4742
▁바꿨	-12.4742
▁주도	-12.4742
▁EVA	-12.4743
▁steering	-12.4743
▁African	-12.4744
▁탔	-12.4745
▁2008	-12.4745
reaches	-12.4746
▁땐	-12.4746
▁portal	-12.4746
▁웬	-12.4746
▁Miss	-12.4747
▁대구	-12.4749
▁그러니	-12.4749
▁fishy	-12.4753
▁피할	-12.4753
▁이어질	-12.4757
▁할게	-12.4757
let	-12.476
Won	-12.4765
▁collision	-12.4766
▁oils	-12.4768
▁공제	-12.4769
▁ranking	-12.4777
▁aside	-12.4778
▁representatives	-12.4778
▁리소	-12.4779
▁remembered	-12.4779
life	-12.4779
▁파종	-12.4781
▁generations	-12.4783
▁presentations	-12.4784
▁여드	-12.4785
▁거칠	-12.4787
▁passengers	-12.4795
▁지우	-12.4796
▁테크	-12.4798
▁떨려	-12.4802
▁학기	-12.4805
▁잉	-12.4809
cho	-12.4811
▁imports	-12.4813
▁glow	-12.4819
▁activate	-12.482
▁hood	-12.4821
▁rude	-12.4825
▁anxious	-12.4826
▁condominium	-12.4826
▁piston	-12.4826
▁flagship	-12.4826
▁hygienically	-12.4826
▁나타납니다	-12.4826
▁photography	-12.4826
▁prohibited	-12.4826
▁60%	-12.4827
▁glossy	-12.4827
▁열람	-12.483
▁ample	-12.483
▁recruiting	-12.4832
▁uploaded	-12.4832
▁fusion	-12.4833
▁richer	-12.4834
▁highway	-12.4834
▁256	-12.4834
▁fairly	-12.4836
▁바꿔야	-12.4836
▁열매	-12.484
▁심박	-12.484
▁distributors	-12.484
act	-12.4841
▁casting	-12.4844
▁appliance	-12.4848
섬유	-12.4849
▁명의	-12.485
▁버드	-12.4851
▁minimized	-12.4852
▁wig	-12.4855
▁적정	-12.4862
▁accommodations	-12.4865
eun	-12.4867
▁proteins	-12.4871
▁레일	-12.4872
▁lasting	-12.4879
specific	-12.4882
ub	-12.4883
▁베리	-12.4888
▁timely	-12.4889
▁lay	-12.489
▁대전	-12.4891
▁beta	-12.4892
▁문장	-12.4897
▁Gi	-12.4897
▁부러	-12.49
▁toast	-12.4904
▁peel	-12.4904
90	-12.4904
▁Her	-12.4905
▁calculating	-12.4911
▁circle	-12.4911
▁injured	-12.4911
▁principal	-12.4911
▁스낵	-12.4911
▁oxide	-12.4911
▁literally	-12.4911
▁Chuseok	-12.4911
▁LPG	-12.4911
▁simultaneously	-12.4911
▁2017	-12.4912
▁스냅	-12.4912
▁constructed	-12.4912
▁John	-12.4914
▁기울여	-12.4914
▁generously	-12.4914
▁2012	-12.4914
J	-12.4914
▁complained	-12.4914
▁Double	-12.4915
▁육개	-12.4917
둘	-12.492
리로	-12.4921
▁script	-12.4921
▁roller	-12.4924
▁유망	-12.4924
▁technicians	-12.493
▁civil	-12.493
▁rope	-12.4933
▁detector	-12.4933
▁중대	-12.4934
100	-12.4934
▁익스	-12.4935
▁cooperated	-12.4947
▁targeting	-12.4948
▁Hz	-12.4949
▁bye	-12.495
pack	-12.4954
틀리	-12.4961
▁보라	-12.4963
텍스	-12.4966
▁사과드	-12.4968
▁statements	-12.4973
▁본다	-12.4977
▁pressured	-12.4979
▁noted	-12.4982
▁오이	-12.4983
▁endure	-12.4992
▁exhaust	-12.4994
▁exceptional	-12.4996
▁practicing	-12.4996
▁멈춰	-12.4996
▁flame	-12.4996
hyeok	-12.4996
▁healthcare	-12.4996
15	-12.4997
▁disappeared	-12.4999
▁competent	-12.4999
▁pens	-12.4999
▁Natural	-12.4999
▁bass	-12.5005
▁신상	-12.5005
▁국산	-12.5006
▁소변	-12.5007
▁sight	-12.5007
▁갑시다	-12.5009
▁afterwards	-12.501
ification	-12.5011
▁overtime	-12.5015
sung	-12.5015
▁distinguish	-12.5018
▁홀로	-12.5019
묘	-12.502
▁cow	-12.502
뇌	-12.502
Nice	-12.502
▁airline	-12.5022
▁auction	-12.5026
▁친해	-12.5029
▁달달	-12.5036
▁Hang	-12.5042
▁screens	-12.5043
스테	-12.5043
▁중식	-12.5046
▁confirming	-12.5048
▁뚝	-12.505
▁이요	-12.5052
Ho	-12.5056
▁버린	-12.5059
니아	-12.506
▁연하	-12.5061
▁tags	-12.5066
▁안개	-12.5072
▁karaoke	-12.5082
▁replied	-12.5082
▁terrace	-12.5082
▁ultrasonic	-12.5082
▁아크릴	-12.5082
▁ramyeon	-12.5082
▁Management	-12.5082
▁VPN	-12.5082
▁Thanksgiving	-12.5082
▁freezing	-12.5083
▁detached	-12.5083
▁6:00	-12.5084
▁dare	-12.5085
▁Gangwon	-12.5086
▁Apple	-12.5086
▁expired	-12.5086
▁scores	-12.5087
▁Find	-12.5088
▁할께요	-12.5088
▁bulky	-12.5092
▁군대	-12.5095
▁shorter	-12.5095
cing	-12.5098
▁strengthening	-12.5101
▁지친	-12.5105
▁40,000	-12.5107
Gwang	-12.5107
▁Ten	-12.5107
▁mis	-12.5108
▁휴지	-12.5109
▁식용	-12.511
▁optional	-12.5112
▁영원	-12.5115
▁interests	-12.5118
▁tissues	-12.5121
▁$100	-12.5126
uc	-12.5126
▁derived	-12.5128
▁tones	-12.5129
▁Hui	-12.5143
▁boom	-12.5151
PS	-12.5154
▁끼워	-12.5154
ical	-12.5155
▁strengthens	-12.5161
▁im	-12.5164
yang	-12.5166
aging	-12.5167
▁links	-12.5168
▁흉	-12.5168
르트	-12.5168
responsibilities	-12.5169
▁British	-12.5169
▁collaborating	-12.5169
▁트러블	-12.5169
▁molecular	-12.5169
▁vitality	-12.5169
▁passport	-12.5169
▁무거워	-12.5169
▁일으킬	-12.5169
보내	-12.517
▁2014	-12.5171
▁멸치	-12.5171
▁바늘	-12.5172
▁harvested	-12.5172
▁Bu	-12.5174
tan	-12.5174
▁러블	-12.5174
▁teenagers	-12.5175
▁madam	-12.5175
▁차분	-12.5178
▁출항	-12.5179
▁Kids	-12.518
▁스프	-12.5182
▁searched	-12.5184
▁침입	-12.5185
짝	-12.5185
▁tab	-12.5186
▁배신	-12.5187
▁command	-12.519
▁mushroom	-12.5194
purpose	-12.5194
▁비하	-12.5197
▁throwing	-12.5199
▁침체	-12.5199
버터	-12.52
▁alcoholic	-12.5203
▁식료	-12.5205
▁그런가	-12.5208
▁아연	-12.5214
▁lineup	-12.5217
▁무지	-12.5222
▁갈라	-12.5222
▁lovers	-12.5225
▁의외	-12.5228
wan	-12.5231
▁채식	-12.5236
▁슬라이	-12.525
▁남아	-12.5253
러리	-12.5254
▁adopt	-12.5254
▁fool	-12.5255
bs	-12.5256
▁Companies	-12.5257
▁DIY	-12.5257
▁emerging	-12.5257
▁프론트	-12.5257
톰	-12.5257
▁아미노	-12.5257
▁하여튼	-12.5257
▁bland	-12.5257
▁Below	-12.5257
▁추첨	-12.5257
▁늘어났	-12.5257
▁surprisingly	-12.5258
▁Durable	-12.5259
▁2013	-12.5259
22	-12.526
▁익혀	-12.526
▁Type	-12.526
35	-12.5261
▁3:00	-12.5263
▁successor	-12.5264
▁earrings	-12.5269
▁crack	-12.5273
▁이란	-12.5275
홍	-12.5277
▁lively	-12.5278
▁안성	-12.5278
▁지진	-12.5279
▁lawyer	-12.5282
▁고쳐	-12.5282
▁alert	-12.5283
뽀	-12.5283
잠	-12.5283
▁portion	-12.5284
▁자선	-12.5286
▁disadvantages	-12.529
▁shabu	-12.529
▁subjects	-12.5292
▁철도	-12.5295
▁CO	-12.5295
라고	-12.5296
▁patents	-12.5297
▁2-3	-12.5299
AR	-12.5301
▁Eat	-12.5308
▁decorations	-12.5309
sam	-12.531
▁전골	-12.531
hy	-12.5311
▁researcher	-12.5315
▁방전	-12.5318
centered	-12.532
▁59	-12.5321
▁총판	-12.5324
▁networking	-12.533
▁조력	-12.5331
▁shave	-12.5336
▁disappoint	-12.5336
▁Ultra	-12.534
▁ranges	-12.534
▁Dry	-12.5345
▁Hospital	-12.5345
▁Travel	-12.5345
▁babycam	-12.5345
▁depression	-12.5345
▁welfare	-12.5345
▁메커니	-12.5345
▁comparing	-12.5345
koung	-12.5345
▁hospitality	-12.5347
▁repeated	-12.5347
▁mAh	-12.5348
▁발굴	-12.5349
▁중계	-12.5351
▁저감	-12.5359
▁augmented	-12.5359
▁acquired	-12.5359
▁젤리	-12.536
▁onto	-12.5363
cc	-12.5364
ier	-12.5364
▁mo	-12.5366
▁rotate	-12.5366
▁former	-12.5369
▁boot	-12.537
▁objective	-12.537
▁margin	-12.5371
Hui	-12.5373
융합	-12.5376
▁4,000	-12.5378
커피	-12.538
▁useless	-12.5381
▁hats	-12.5385
너스	-12.5386
▁emit	-12.5401
저기	-12.5402
▁불어	-12.5403
▁서두	-12.5404
▁죽이	-12.5405
▁founded	-12.5405
아갈	-12.5412
▁ho	-12.5413
▁Sounds	-12.5413
95	-12.5414
윤	-12.5418
og	-12.542
▁inhibit	-12.5426
bong	-12.5427
램	-12.5427
▁OOOO	-12.5429
▁88	-12.543
▁fridge	-12.5435
▁shelves	-12.5435
▁안타까운	-12.5435
▁issuance	-12.5435
▁dramatically	-12.5435
▁fever	-12.5435
▁붐	-12.5435
▁Regardless	-12.5435
▁완충	-12.5436
▁들이	-12.5436
▁폭탄	-12.5436
▁RV	-12.5437
▁Industrial	-12.5437
▁teamwork	-12.5438
▁저건	-12.5438
▁내열	-12.5441
▁$3	-12.5441
▁분홍	-12.5441
▁upside	-12.5442
▁미스터	-12.5443
▁burning	-12.5444
▁LAN	-12.5445
▁객관	-12.5445
▁tied	-12.5445
어졌	-12.5448
모로	-12.5449
▁Help	-12.5451
dol	-12.5453
▁sensitivity	-12.5453
▁President	-12.5454
▁Olympics	-12.546
▁더워	-12.5463
▁플로	-12.5463
▁chin	-12.5463
▁심심	-12.5465
주머	-12.5466
랙스	-12.5467
▁practiced	-12.5469
▁주어진	-12.5469
▁마일	-12.547
▁마법	-12.5472
800	-12.5474
▁loop	-12.5475
▁Reduce	-12.5477
▁nor	-12.5479
▁preparations	-12.5488
mounted	-12.5493
ka	-12.5496
pt	-12.5498
ball	-12.5498
▁지냈	-12.5502
▁그리스	-12.5505
▁천재	-12.5507
▁nation	-12.5508
▁screws	-12.5511
▁더운	-12.5514
▁effectiveness	-12.5518
quipped	-12.5522
꿔	-12.5523
▁jelly	-12.5525
▁CIF	-12.5525
▁crucial	-12.5525
▁heaven	-12.5525
▁scoop	-12.5525
▁substitute	-12.5525
▁universal	-12.5525
▁호랑이	-12.5525
▁sundae	-12.5525
▁Shopping	-12.5525
▁Ltd	-12.5525
▁Craft	-12.5525
▁annoyed	-12.5525
▁showcase	-12.5525
▁extraction	-12.5526
▁restocked	-12.5527
▁leisure	-12.5527
▁ATM	-12.5527
▁엠	-12.5527
▁Jaeseok	-12.5529
▁inspected	-12.5529
▁동행	-12.5529
▁ads	-12.5529
▁Professor	-12.5531
▁API	-12.5531
▁힘써	-12.5533
▁퇴직	-12.5534
▁지표	-12.5535
▁formulated	-12.5535
▁preservatives	-12.5536
▁보편	-12.5538
▁CCTVs	-12.5539
▁스카	-12.5541
▁Nothing	-12.5542
▁Rice	-12.5546
▁환급	-12.5548
끈	-12.555
▁directors	-12.5551
▁exam	-12.5552
깁니다	-12.5552
▁folder	-12.5554
헌	-12.5554
▁Bon	-12.5556
▁Sam	-12.5563
▁방울	-12.5566
라이어	-12.5569
▁춘	-12.557
▁척추	-12.5573
▁도금	-12.5575
▁plastics	-12.5579
▁보강	-12.5581
rin	-12.5584
▁2002	-12.5589
▁NFTs	-12.5596
▁전신	-12.5603
▁promo	-12.5604
져야	-12.561
계약	-12.5612
▁ending	-12.5613
▁smartwatch	-12.5615
▁FOB	-12.5616
▁Trade	-12.5616
▁adhesion	-12.5616
▁hammer	-12.5616
▁lonely	-12.5616
▁opponent	-12.5616
▁sebum	-12.5616
▁촘촘	-12.5616
▁chemistry	-12.5616
▁statistical	-12.5616
▁backrest	-12.5616
▁deformation	-12.5616
▁assessment	-12.5616
▁Advanced	-12.5616
▁disabled	-12.5616
▁unknown	-12.5617
▁매끈	-12.5617
떡	-12.5618
▁circular	-12.5618
▁deliveries	-12.5618
느	-12.5618
▁댄스	-12.5619
▁Remember	-12.5621
▁shadow	-12.5622
▁Overall	-12.5622
▁XXX	-12.5622
▁연례	-12.5623
▁magic	-12.5628
▁lifting	-12.5631
▁나비	-12.5631
▁받쳐	-12.5632
▁compliment	-12.5635
▁scientists	-12.5635
낭	-12.5635
룩	-12.5645
Brother	-12.5645
▁tile	-12.5645
resolution	-12.5645
맞춤	-12.5646
▁pose	-12.5646
▁플렉	-12.5647
▁유방	-12.5649
▁pulling	-12.5649
ect	-12.5653
▁배관	-12.5654
▁pointed	-12.5656
▁은근	-12.5658
▁TB	-12.5659
▁적재	-12.5659
▁스판	-12.566
▁베이지	-12.5662
▁8,000	-12.5666
ue	-12.5668
버그	-12.5669
▁fare	-12.5674
rich	-12.5675
ranked	-12.5677
▁misunderstand	-12.5679
▁matching	-12.568
▁appreciated	-12.5689
▁750	-12.5693
▁분무	-12.5695
렉	-12.5699
▁통일	-12.5705
▁south	-12.5705
▁seniors	-12.5707
▁burst	-12.5707
▁humid	-12.5707
▁faith	-12.5707
▁appetite	-12.5707
▁cutlassfish	-12.5707
▁default	-12.5707
▁drunk	-12.5707
▁fluorescent	-12.5707
▁possibilities	-12.5707
▁probability	-12.5707
▁samgyetang	-12.5707
▁sensibility	-12.5707
▁99.9%	-12.5707
▁sushi	-12.5707
▁wrapping	-12.5708
▁마땅	-12.5708
▁appointed	-12.5708
▁referred	-12.5708
▁베이커	-12.5709
▁찾아볼	-12.5709
▁낱	-12.571
▁eligible	-12.571
▁brushes	-12.571
yl	-12.5711
▁brighter	-12.5712
▁quarterly	-12.5712
▁청년	-12.5713
▁acceptable	-12.5716
▁environmentally	-12.5716
▁dressed	-12.5717
▁trim	-12.5718
▁불순	-12.572
레오	-12.5722
▁pipes	-12.5724
▁$10	-12.5729
▁등등	-12.573
▁loaded	-12.5731
▁지리	-12.5732
▁조류	-12.5733
▁Control	-12.5736
▁diaper	-12.5737
▁wondered	-12.5738
io	-12.5742
▁부드러워	-12.5744
포트	-12.5747
스코	-12.5747
회사	-12.5747
▁greeting	-12.575
테일	-12.5752
▁conversations	-12.5753
gwon	-12.5754
▁travelers	-12.5761
▁티타	-12.5764
▁피지	-12.5765
▁호기	-12.5767
▁workout	-12.5768
▁맞혀	-12.5776
top	-12.578
겨야	-12.5782
▁Ba	-12.5782
come	-12.5789
▁accord	-12.5793
▁steal	-12.5794
텍	-12.5794
300	-12.5794
▁갖춰	-12.5797
▁aggressive	-12.5799
▁robust	-12.58
▁acoustic	-12.58
▁nitrogen	-12.58
▁conferencing	-12.58
▁discomfort	-12.58
▁goosebumps	-12.58
▁maturity	-12.58
▁pharmacy	-12.58
▁purification	-12.58
▁synergy	-12.58
▁tongue	-12.58
▁unpleasant	-12.58
▁왼손	-12.58
▁dying	-12.58
▁vibe	-12.58
▁1:1	-12.58
▁optimization	-12.58
▁unpaid	-12.58
▁accidentally	-12.5801
▁곤충	-12.5801
▁reader	-12.5801
▁99%	-12.5801
▁toothbrushes	-12.5801
▁producers	-12.5802
▁realizing	-12.5802
▁찼	-12.5803
▁후반	-12.5804
▁Price	-12.5806
▁Hair	-12.5811
▁globally	-12.5813
men	-12.5814
소음	-12.5814
▁경주	-12.5815
▁Tech	-12.5815
▁인턴	-12.5816
mun	-12.5818
밀도	-12.5819
▁cartons	-12.5819
▁donate	-12.5819
▁implementing	-12.582
▁hips	-12.582
▁protector	-12.5821
king	-12.5824
칼	-12.5824
려야	-12.5828
펜	-12.5829
50,000	-12.5829
▁hamburger	-12.583
▁junior	-12.583
뚱	-12.5831
▁정중	-12.5831
▁cope	-12.5831
▁instruction	-12.5831
▁sang	-12.5831
▁headphone	-12.5831
▁attacks	-12.5831
pressure	-12.5832
▁guides	-12.5835
ign	-12.5841
미세	-12.5846
▁자존	-12.5849
▁moments	-12.5857
▁주선	-12.5861
eo	-12.5863
▁무방	-12.5868
▁서면	-12.5874
데이	-12.5876
혼	-12.5877
▁1,500	-12.5878
Mom	-12.5879
▁assume	-12.5888
우스	-12.5889
ned	-12.5889
▁unusual	-12.5892
숫	-12.5893
▁Stainless	-12.5893
▁Village	-12.5893
▁acrylic	-12.5893
▁beige	-12.5893
▁flesh	-12.5893
▁museum	-12.5893
▁kidney	-12.5893
▁slipping	-12.5894
▁ABS	-12.5894
▁brass	-12.5894
▁groupware	-12.5894
▁쪄	-12.5894
▁equally	-12.5894
▁다이아	-12.5894
▁amino	-12.5895
▁cardboard	-12.5895
▁switches	-12.5896
▁불꽃	-12.5896
▁secretly	-12.5898
▁physically	-12.59
▁영문	-12.5902
long	-12.5903
▁재택	-12.5903
▁catering	-12.5903
▁가져온	-12.5904
▁burdened	-12.5906
▁someday	-12.5907
▁동향	-12.5908
▁permanent	-12.5912
▁97	-12.5916
geun	-12.5919
▁아쉬운	-12.592
▁Bring	-12.5924
▁burger	-12.5925
▁190	-12.5925
잇	-12.5926
Back	-12.5926
▁nutrient	-12.5929
▁bands	-12.5935
벤더	-12.5936
낸	-12.5939
미어	-12.5941
▁>3	-12.5941
▁내외	-12.5944
계절	-12.5948
▁UI	-12.5948
라집니다	-12.5949
▁잊어버	-12.5954
ler	-12.5956
▁pm	-12.596
▁융	-12.5962
▁satellites	-12.5968
▁sellers	-12.5968
ise	-12.5969
▁rises	-12.5979
▁grasp	-12.5981
▁acknowledge	-12.5982
ara	-12.5985
▁withdraw	-12.5986
▁destroy	-12.5986
▁owned	-12.5986
▁졸	-12.5986
▁blank	-12.5988
▁drank	-12.5988
▁mower	-12.5988
▁pulse	-12.5988
▁threw	-12.5988
▁버텨	-12.5988
▁ginger	-12.5988
▁intellectual	-12.5988
▁ripped	-12.5988
▁underground	-12.5988
▁hostel	-12.5988
▁DJ	-12.5989
▁시세	-12.5989
▁떠날	-12.599
▁Large	-12.5991
▁arise	-12.5992
▁생강	-12.5993
▁hitch	-12.5993
▁25%	-12.5993
▁described	-12.5993
▁subsidiary	-12.5994
▁beautifully	-12.5997
▁sectors	-12.5998
▁글라	-12.5999
▁아메리카	-12.5999
▁금주	-12.6
den	-12.6001
▁colder	-12.6003
▁니켈	-12.6014
리얼	-12.6017
wi	-12.6018
▁clinic	-12.6019
률	-12.6019
믹스	-12.6021
Which	-12.6021
▁접지	-12.6023
바르	-12.6024
fa	-12.6028
▁면밀	-12.6032
▁나을	-12.6036
▁멸	-12.6039
코드	-12.6041
▁동그	-12.6042
▁provisions	-12.6044
▁sp	-12.6045
,900	-12.6048
ek	-12.6051
▁receiver	-12.6051
▁뭉	-12.606
▁고전	-12.6069
▁성수	-12.6075
킨	-12.6076
▁coach	-12.6078
▁blockchain	-12.6083
▁curriculum	-12.6083
▁inflammation	-12.6083
▁strawberries	-12.6083
▁Security	-12.6083
▁wiring	-12.6083
▁hub	-12.6083
▁outerwear	-12.6083
▁landscape	-12.6083
▁apologies	-12.6083
▁GHz	-12.6083
▁윈도우	-12.6083
▁idol	-12.6083
▁transformation	-12.6083
▁barely	-12.6084
▁개업	-12.6084
layer	-12.6085
▁planner	-12.6085
▁messy	-12.6085
▁어쩐	-12.6085
▁interviews	-12.6086
▁청취	-12.6087
프리카	-12.6088
set	-12.6089
▁수험	-12.6089
▁mist	-12.609
▁우체	-12.609
▁Yoon	-12.6092
▁초코	-12.6093
▁Con	-12.6094
▁sessions	-12.6095
▁tours	-12.6099
ari	-12.61
▁Work	-12.6105
▁공포	-12.6106
▁spices	-12.6108
Eat	-12.611
▁soak	-12.6112
싸	-12.6113
▁locking	-12.6113
▁classroom	-12.6116
▁extinguisher	-12.6116
▁삭	-12.6117
▁di	-12.6118
지르	-12.6121
▁lessons	-12.6132
▁fi	-12.6139
▁장어	-12.6143
배추	-12.6143
fin	-12.6144
▁방부	-12.6149
▁유가	-12.6151
2"	-12.6151
sil	-12.6153
▁84	-12.6161
cell	-12.6164
ye	-12.6166
▁pillows	-12.6167
▁translate	-12.6173
▁AM	-12.6175
탁	-12.6175
▁disappears	-12.6175
▁2.5	-12.6177
▁stars	-12.6177
▁vital	-12.6179
▁residual	-12.6179
▁sashimi	-12.6179
▁committed	-12.6179
▁Face	-12.618
▁meticulously	-12.6181
▁툭	-12.6181
▁rub	-12.6181
▁증폭	-12.6181
▁exceeded	-12.6183
▁microorganisms	-12.6183
▁spoke	-12.6184
▁polymer	-12.6184
▁열립니다	-12.6184
▁수표	-12.6184
▁세밀	-12.6186
▁팬티	-12.6187
▁Different	-12.6188
▁assembled	-12.6188
▁신나	-12.619
▁sprayed	-12.619
▁advertised	-12.619
▁Taking	-12.6192
▁살렸	-12.6192
aged	-12.6194
▁Cheong	-12.6195
▁Suddenly	-12.6196
▁게이지	-12.6198
▁relaxing	-12.62
▁condo	-12.62
▁Best	-12.6202
▁문학	-12.6203
▁IOT	-12.6205
▁준다는	-12.6205
려요	-12.6206
▁안티	-12.621
angle	-12.6211
▁시나	-12.6213
wear	-12.6213
▁volunteer	-12.6213
▁operator	-12.6213
▁expense	-12.6214
▁pig	-12.6214
depth	-12.6214
Last	-12.6215
▁fart	-12.6215
ction	-12.6216
▁Award	-12.6216
▁장려	-12.6219
▁creators	-12.622
23	-12.6225
▁prints	-12.6228
▁couples	-12.6229
▁officer	-12.6236
▁surroundings	-12.6249
퇴	-12.625
▁minimiz	-12.6257
▁사각	-12.6258
▁coloring	-12.6266
que	-12.6268
▁punch	-12.6269
▁spy	-12.6273
ify	-12.6274
▁stiff	-12.6276
▁ambien	-12.6276
▁Corporation	-12.6276
▁OMR	-12.6276
▁coconut	-12.6276
▁companion	-12.6276
▁enormous	-12.6276
▁forecast	-12.6276
▁mayonnaise	-12.6276
▁ultrasound	-12.6276
▁unfair	-12.6276
▁farewell	-12.6276
▁minus	-12.6276
▁wheat	-12.6276
▁lump	-12.6276
▁iconic	-12.6277
▁HR	-12.6277
▁창작	-12.6278
▁Russian	-12.6278
▁강렬	-12.6279
▁나타날	-12.628
▁틈	-12.6282
▁quietly	-12.6282
▁주관	-12.6283
gung	-12.6284
▁흔한	-12.6284
▁eel	-12.6284
▁transported	-12.6286
▁촉매	-12.6286
4.	-12.6287
▁restored	-12.6289
ric	-12.6292
▁행정	-12.6292
▁seeking	-12.6293
▁Gold	-12.6293
▁채울	-12.6293
▁크리에이	-12.63
▁youth	-12.6301
ab	-12.6306
꽃	-12.6308
▁scenario	-12.6311
▁selfie	-12.6311
paper	-12.6312
뚝	-12.6312
band	-12.6317
▁아귀	-12.6317
▁선착	-12.6336
▁congratulat	-12.6336
▁welcomed	-12.6336
▁guided	-12.6343
▁과다	-12.6343
▁향해	-12.6348
▁시상	-12.6355
▁lined	-12.6357
chul	-12.6358
▁덤	-12.6358
▁uncle	-12.636
▁targets	-12.6362
▁닥	-12.6363
▁climb	-12.6367
▁dense	-12.6373
▁forgive	-12.6374
▁Imagine	-12.6374
▁competing	-12.6374
▁etiquette	-12.6374
▁harmony	-12.6374
▁impurities	-12.6374
▁purified	-12.6374
▁vacant	-12.6374
빕	-12.6374
▁cattle	-12.6374
▁diary	-12.6375
▁coke	-12.6375
▁playback	-12.6376
▁Gary	-12.6376
▁Social	-12.6376
▁gases	-12.6379
▁smoother	-12.6384
▁Mac	-12.6386
▁해수	-12.6391
▁Whatever	-12.6391
▁월등	-12.6393
▁풋	-12.6394
Or	-12.6394
▁유수	-12.6394
▁Oppa	-12.6397
aimed	-12.6397
▁PET	-12.6398
짓	-12.6398
▁건성	-12.6403
▁novels	-12.6407
▁su	-12.6408
▁straw	-12.641
▁kilo	-12.641
▁passenger	-12.6411
Master	-12.6411
▁살펴봐	-12.6412
▁sticking	-12.6415
트리트	-12.642
▁잔치	-12.6423
▁v	-12.6431
▁Web	-12.6432
▁chefs	-12.6433
pro	-12.6435
▁릴리	-12.6436
▁드신	-12.644
대요	-12.6441
▁automobiles	-12.6443
배기	-12.6443
▁향신	-12.6447
▁locks	-12.6451
▁그치	-12.6451
mon	-12.6452
▁스태	-12.6454
pan	-12.6454
▁accompany	-12.6466
▁describe	-12.6468
▁쏴	-12.6472
▁tremendous	-12.6472
안경	-12.6472
▁Allow	-12.6473
▁Computer	-12.6473
▁Shanghai	-12.6473
▁lantern	-12.6473
▁malfunction	-12.6473
▁ultraviolet	-12.6473
▁biotechnology	-12.6473
▁invisible	-12.6473
▁commitment	-12.6473
▁interruption	-12.6473
▁elsewhere	-12.6473
▁deck	-12.6474
▁Daegu	-12.6474
▁PO	-12.6474
▁올라갔	-12.6474
▁regeneration	-12.6474
▁Apart	-12.6475
▁sterilizer	-12.6475
▁passionate	-12.6475
▁놔두	-12.6475
▁encountered	-12.6476
▁혈당	-12.6477
▁팔레	-12.6479
▁indicated	-12.6479
ko	-12.6479
▁slacks	-12.6481
▁컴포	-12.6481
▁Safe	-12.6482
▁intensive	-12.6483
▁루즈	-12.6483
▁면제	-12.6483
▁Baby	-12.6484
▁표적	-12.6488
▁picky	-12.6491
▁Boss	-12.6492
▁49	-12.6492
▁보일러	-12.6493
▁aiming	-12.6494
standing	-12.6494
▁오락	-12.6502
▁parent	-12.6504
▁KC	-12.6504
▁Chan	-12.651
▁tumbler	-12.651
▁lung	-12.651
▁weapon	-12.6511
large	-12.6511
▁해물	-12.6511
▁Al	-12.6511
▁hanger	-12.6513
호텔	-12.6513
▁평면	-12.6523
▁줄까	-12.6529
▁관제	-12.6531
▁productive	-12.6533
▁원만	-12.6537
겨져	-12.6543
ick	-12.6544
▁도저	-12.6547
ium	-12.6548
임자	-12.6552
▁참으	-12.6553
▁releases	-12.656
▁우물	-12.6561
▁mailbox	-12.6562
나리	-12.6565
▁지낼	-12.6567
▁pray	-12.6568
tric	-12.6569
▁bent	-12.657
▁assign	-12.6571
fer	-12.6572
▁approximate	-12.6572
▁Machine	-12.6573
▁Science	-12.6573
▁cardigan	-12.6573
▁cashmere	-12.6573
▁equivalent	-12.6573
▁lottery	-12.6573
▁universities	-12.6573
▁utilizing	-12.6573
▁듬뿍	-12.6573
텝	-12.6573
▁Jeolla	-12.6573
▁bandwidth	-12.6573
▁rural	-12.6573
▁clause	-12.6573
▁carelessness	-12.6573
▁스펀	-12.6573
▁가벼우	-12.6574
▁HDR	-12.6574
▁배낭	-12.6576
▁짭	-12.6577
▁2009	-12.6577
▁Australian	-12.6577
▁브라질	-12.6578
▁praised	-12.6578
▁abilities	-12.6579
▁–	-12.6581
▁환전	-12.6582
▁오메	-12.6583
▁무스	-12.6585
▁Too	-12.6586
▁settled	-12.6586
▁탄수	-12.659
▁2004	-12.6592
▁63	-12.6592
▁sweating	-12.6595
▁애플	-12.6596
▁치명	-12.6608
▁trap	-12.6611
깊	-12.6612
팸	-12.6612
된	-12.6612
▁Huh	-12.6613
car	-12.6613
tang	-12.6614
인계	-12.6615
영향	-12.6618
▁Pack	-12.662
▁exporter	-12.6621
:00	-12.6623
▁Micro	-12.6623
▁미주	-12.6632
▁전개	-12.6635
▁망가	-12.6642
▁inspections	-12.6642
ice	-12.6643
atic	-12.6645
픈	-12.6646
ib	-12.6656
까봐	-12.666
seo	-12.6661
추측	-12.6662
▁bo	-12.6666
▁뮤	-12.6668
▁조수	-12.6671
▁recall	-12.6672
▁개요	-12.6672
▁jack	-12.6674
▁chrome	-12.6674
▁courage	-12.6674
▁espresso	-12.6674
▁sightseeing	-12.6674
눴	-12.6674
쉘	-12.6674
킴	-12.6674
▁dries	-12.6674
▁lint	-12.6675
▁disk	-12.6675
▁시티	-12.6675
▁partial	-12.6676
▁translated	-12.668
▁쏠	-12.6682
▁acne	-12.6682
▁$50	-12.6683
▁잔류	-12.6684
▁jet	-12.6686
피소	-12.6687
ai	-12.6687
▁취업	-12.6691
▁OLED	-12.6694
▁짱	-12.6697
▁hem	-12.67
iness	-12.671
웨이	-12.6712
▁cooks	-12.6713
▁에선	-12.6713
깅	-12.6714
▁pills	-12.6714
▁notebook	-12.6714
definition	-12.6714
electric	-12.6714
▁어떤지	-12.6715
▁belts	-12.6717
▁분비	-12.6722
▁모셔	-12.6727
port	-12.673
▁holders	-12.6731
▁수송	-12.6734
하여	-12.6734
▁이만	-12.6735
Jun	-12.6736
▁아드	-12.6739
▁데모	-12.6741
32	-12.676
▁동양	-12.676
▁analyzes	-12.6763
▁제철	-12.6764
▁spark	-12.6768
▁Hyo	-12.6768
▁나이트	-12.677
▁Smith	-12.6776
▁ambiguous	-12.6776
▁contaminated	-12.6776
▁puppy	-12.6776
▁throat	-12.6776
▁whistle	-12.6776
▁잃어버	-12.6776
됬	-12.6776
▁biological	-12.6776
▁unconditionally	-12.6777
▁Certainly	-12.6777
▁폴라	-12.6778
▁chatting	-12.6778
완	-12.6778
▁Test	-12.6781
▁365	-12.6782
▁필라	-12.6784
▁언더	-12.6785
▁rolled	-12.6785
▁2005	-12.6787
▁Jongkook	-12.6787
▁terminals	-12.6788
▁47	-12.6789
▁던져	-12.6789
▁올림	-12.679
▁Head	-12.6791
▁hormones	-12.6794
▁집행	-12.6795
▁Bar	-12.68
▁착한	-12.68
이퍼	-12.68
▁진열	-12.6802
▁liner	-12.6803
▁접대	-12.6805
▁이른	-12.6808
▁웅	-12.6809
닫	-12.681
춘	-12.681
▁curve	-12.6811
▁bi	-12.6811
▁Art	-12.6815
ible	-12.6815
▁thermometer	-12.6816
"?	-12.6817
▁bird	-12.6817
서비스	-12.6818
▁flowing	-12.6818
▁sat	-12.6824
▁leaders	-12.6826
▁좋아해	-12.6829
▁안주	-12.6841
▁operators	-12.6843
▁talents	-12.6843
▁Send	-12.6852
워드	-12.6858
▁Bed	-12.6865
▁recruit	-12.687
▁이야	-12.6873
▁broad	-12.6873
▁어우러	-12.6878
▁valves	-12.6878
▁Google	-12.6879
▁cherish	-12.6879
▁column	-12.6879
▁fragrant	-12.6879
▁paprika	-12.6879
▁perhaps	-12.6879
▁에탄올	-12.6879
▁aviation	-12.6879
▁monkfish	-12.6879
▁leasing	-12.6879
▁barcode	-12.688
▁transition	-12.688
▁RPM	-12.688
▁massive	-12.688
fe	-12.688
AS	-12.6882
▁Building	-12.6882
▁넘버	-12.6883
▁corresponding	-12.6884
▁킥	-12.6884
▁연설	-12.6886
▁랄	-12.6886
▁enthusiasts	-12.6886
▁송별	-12.6887
▁EMS	-12.6889
▁stroke	-12.6889
▁유압	-12.689
▁hydro	-12.689
▁Self	-12.689
▁였을	-12.6891
▁지형	-12.6891
▁15,000	-12.6896
jang	-12.6897
▁왔었	-12.6899
바를	-12.69
ology	-12.6905
▁피크	-12.6908
▁captures	-12.6909
▁230	-12.6909
yu	-12.691
▁Argh	-12.6913
▁교차	-12.6914
▁nicely	-12.6915
냉	-12.6917
▁tractor	-12.692
▁instructor	-12.6921
▁vessel	-12.6921
▁invention	-12.6921
Three	-12.6922
▁Cut	-12.6922
탱크	-12.6923
▁soothe	-12.6923
▁뱅	-12.6926
▁>"	-12.6926
이센	-12.6927
head	-12.6936
▁인출	-12.6937
▁gathering	-12.6941
▁grades	-12.6943
▁retro	-12.6949
▁도망	-12.6952
▁Star	-12.6959
▁melts	-12.6959
▁한가	-12.6959
▁pancakes	-12.696
▁겠다	-12.6961
▁shades	-12.6961
▁배선	-12.6962
▁눈부	-12.6973
▁algorithms	-12.6973
▁surge	-12.6975
▁reproduce	-12.6978
▁employ	-12.698
▁shirts	-12.698
▁featur	-12.698
▁trigger	-12.6981
▁illegal	-12.6983
▁해냈	-12.6983
▁bored	-12.6984
▁Details	-12.6984
▁Government	-12.6984
▁HACCP	-12.6984
▁Overseas	-12.6984
▁confusing	-12.6984
▁garbage	-12.6984
▁mixture	-12.6984
▁motel	-12.6984
▁prescription	-12.6984
▁wardrobe	-12.6984
▁덩어리	-12.6984
돔	-12.6984
▁coronavirus	-12.6984
▁dashboard	-12.6984
▁lime	-12.6984
▁olive	-12.6984
▁breathability	-12.6984
▁aloe	-12.6984
▁classification	-12.6984
▁breakdown	-12.6984
▁콜레	-12.6984
▁voucher	-12.6985
▁제로	-12.6985
▁오른손	-12.6985
▁쪼	-12.6985
▁돌아갈	-12.6986
▁inserted	-12.6987
▁alike	-12.6987
▁배워야	-12.6988
플러	-12.6988
▁graduated	-12.6988
▁올게요	-12.6989
▁dB	-12.6992
가락	-12.6992
▁다큐	-12.6993
▁가져와	-12.6994
▁험	-12.6995
▁소매상	-12.6998
▁professionally	-12.6999
▁doctors	-12.6999
▁마셔	-12.7002
▁재능	-12.7003
6%	-12.7006
▁열기	-12.7006
ual	-12.7006
▁마커	-12.7009
▁팍	-12.7011
밀리	-12.7016
▁faced	-12.7018
빨	-12.702
▁CM	-12.7022
▁memo	-12.7024
▁contribution	-12.7025
▁bracelet	-12.7025
▁balloon	-12.7026
▁provision	-12.7026
▁carrot	-12.7026
▁decoration	-12.7026
띠	-12.7027
Abou	-12.7027
되	-12.7027
▁9001	-12.7028
colored	-12.7029
▁였으	-12.7034
▁클러	-12.7038
ged	-12.7039
▁플레	-12.704
▁purifiers	-12.7041
▁Dad	-12.7043
▁lover	-12.7043
▁만져	-12.7044
▁일러스트	-12.7046
sun	-12.7053
감사	-12.7055
zz	-12.7056
▁따지	-12.7061
▁drawers	-12.7064
▁XX	-12.7067
▁레지	-12.7067
왕	-12.7072
▁수강	-12.7073
▁위약	-12.7079
▁restock	-12.708
▁toner	-12.708
▁drawings	-12.7085
▁선불	-12.7085
▁tartar	-12.7088
▁carpets	-12.7089
▁팽이	-12.7089
▁administration	-12.7089
▁grandfather	-12.7089
▁legitimate	-12.7089
▁pronunciation	-12.7089
▁radar	-12.7089
▁vulnerable	-12.7089
▁깻잎	-12.7089
▁buckwheat	-12.7089
▁urine	-12.7089
▁multifunctional	-12.7089
▁Gyeonggi	-12.7089
▁validity	-12.7089
▁airflow	-12.709
▁repayment	-12.709
▁cheapest	-12.709
▁roasting	-12.7092
▁setback	-12.7092
▁스핀	-12.7093
▁작곡	-12.7093
▁발령	-12.7095
▁oldest	-12.7095
▁www	-12.7095
▁inspiration	-12.7099
▁pearl	-12.7099
▁Daniel	-12.71
▁gladly	-12.7102
▁착색	-12.7102
▁백과	-12.7103
bacterial	-12.7104
rim	-12.7104
▁eliminated	-12.7107
▁다녔	-12.7107
▁산출	-12.7108
▁못한다	-12.7111
쇄	-12.7112
▁sleeve	-12.7114
",	-12.7114
▁가드	-12.7115
▁Seriously	-12.7116
▁clicking	-12.7122
▁spill	-12.7122
▁controll	-12.7124
놀	-12.7127
▁나갑니다	-12.7132
▁scooter	-12.7132
▁bulb	-12.7132
▁illustration	-12.7132
▁girls	-12.7133
neck	-12.7134
▁Save	-12.7136
▁moisturizes	-12.7138
▁w	-12.7138
▁평상	-12.714
shi	-12.7144
▁firms	-12.7144
▁척하	-12.7148
▁startup	-12.7149
▁2022.	-12.7153
▁weapons	-12.7155
▁볼게	-12.7161
▁사자	-12.7162
데이트	-12.7169
▁soles	-12.7173
noki	-12.7173
▁현저	-12.7174
▁ceramics	-12.7177
▁PR	-12.7179
▁hell	-12.7181
해져	-12.7185
▁shout	-12.7186
▁요식	-12.7186
▁span	-12.7187
▁compromise	-12.7189
보카	-12.7191
▁사오	-12.7192
▁prime	-12.7193
▁danger	-12.7195
▁tiger	-12.7195
▁chapter	-12.7195
▁fascinating	-12.7195
▁font	-12.7195
▁lavender	-12.7195
▁overdue	-12.7195
▁ugly	-12.7195
▁서스펜	-12.7195
▁카카오	-12.7195
탓	-12.7195
▁excitement	-12.7195
▁salmon	-12.7195
▁execution	-12.7195
▁balm	-12.7195
▁greedy	-12.7196
▁1960	-12.7196
도미니	-12.7197
▁majority	-12.7197
▁꽝	-12.7198
▁뮤직	-12.7198
▁깊숙	-12.7198
▁withdrawal	-12.7199
▁댄	-12.7199
▁안다	-12.7199
▁자수	-12.72
시계	-12.72
▁경제학	-12.72
▁최상급	-12.72
▁sliced	-12.72
▁스며	-12.7201
▁풍선	-12.7203
▁investigated	-12.7203
▁enters	-12.7206
▁smallest	-12.7207
▁찻	-12.7208
▁War	-12.7208
▁risky	-12.7208
▁온난	-12.7208
▁승차	-12.7211
▁글러	-12.7213
▁동급	-12.7214
▁filed	-12.7215
▁갯	-12.7217
▁77	-12.7219
▁Ti	-12.7221
▁착수	-12.7224
▁viewed	-12.7229
▁obstacles	-12.723
▁에너지원	-12.7234
loved	-12.7236
▁쇠	-12.7238
▁지장	-12.7239
▁insole	-12.7239
▁genre	-12.724
▁bookstore	-12.724
▁fertilizer	-12.724
▁ON	-12.724
read	-12.724
낮	-12.7241
}	-12.7241
▁다듬	-12.725
game	-12.7251
▁전복	-12.7255
▁CC	-12.7258
jong	-12.7262
▁Awards	-12.7265
▁탱	-12.7265
▁의식	-12.7266
▁정면	-12.7266
▁멍	-12.7268
▁debts	-12.7274
▁등기	-12.7275
▁institutes	-12.7277
▁lend	-12.7282
▁여의	-12.7286
▁생수	-12.7287
▁한라	-12.7288
▁prioritize	-12.7298
▁silent	-12.7302
▁dairy	-12.7303
▁encyclopedia	-12.7303
▁fragile	-12.7303
▁injuries	-12.7303
▁romantic	-12.7303
▁treasure	-12.7303
▁trunk	-12.7303
▁Carbon	-12.7303
▁hydraulic	-12.7303
▁IPTV	-12.7303
▁fries	-12.7303
▁traction	-12.7303
▁suede	-12.7303
▁Spain	-12.7303
▁reform	-12.7304
▁WiFi	-12.7304
▁repeatedly	-12.7304
▁결승	-12.7306
▁Energy	-12.7307
▁철판	-12.7309
▁Anti	-12.7311
▁걸레	-12.7315
▁ratings	-12.7316
▁말려	-12.7317
▁TP	-12.7318
▁Almost	-12.7319
▁글루	-12.7319
▁paintings	-12.732
▁축소	-12.7321
▁hackers	-12.7322
▁performances	-12.7322
▁지부	-12.7322
▁발병	-12.7323
▁빠질	-12.7323
Sit	-12.7328
▁활기	-12.7332
▁끓인	-12.7334
어집니다	-12.7338
yun	-12.7344
▁앙	-12.7347
▁vendor	-12.7349
▁엔드	-12.7352
▁Ca	-12.7353
gated	-12.7354
▁58	-12.7363
▁1.2	-12.7363
▁깐	-12.7365
▁게이트	-12.7373
▁치우	-12.7383
▁소아	-12.7387
▁1%	-12.7388
▁1200	-12.739
▁toilets	-12.7393
드기	-12.7407
▁abnormal	-12.741
▁infinite	-12.741
▁harness	-12.7411
▁Demand	-12.7411
▁HDMI	-12.7411
▁communicating	-12.7411
▁crude	-12.7411
▁drew	-12.7411
▁groundbreaking	-12.7411
▁incredibly	-12.7411
▁섞여	-12.7411
▁스니커	-12.7411
▁Breakfast	-12.7412
▁forklift	-12.7412
▁채식주의	-12.7412
▁disinfection	-12.7412
▁formulation	-12.7412
▁콘서트	-12.7412
▁떠났	-12.7412
▁customization	-12.7412
▁11:00	-12.7413
▁randomly	-12.7413
▁pans	-12.7413
▁빨개	-12.7414
▁Professional	-12.7417
▁hosted	-12.7419
▁칵	-12.7426
▁audit	-12.7427
▁pouring	-12.7428
▁singers	-12.743
▁aids	-12.743
▁recognizes	-12.7432
rain	-12.7433
▁Hmm	-12.7436
ugh	-12.7438
▁angles	-12.7439
dae	-12.7441
Z	-12.7441
400	-12.7441
▁gadgets	-12.7442
▁MT	-12.7442
▁거주자	-12.7442
▁다림	-12.7446
▁아바	-12.7447
▁grapes	-12.745
▁나날	-12.745
▁explode	-12.7452
▁equal	-12.7456
▁registering	-12.7458
▁nerve	-12.7458
Tell	-12.7459
컴	-12.7459
Someone	-12.7459
찾	-12.7459
Yang	-12.746
>	-12.746
Guk	-12.746
▁limits	-12.746
Sang	-12.7461
▁publication	-12.7462
ward	-12.7463
▁failures	-12.7474
▁Say	-12.7474
▁inventions	-12.7478
▁분포	-12.7478
▁millions	-12.7478
▁모방	-12.7478
▁월급	-12.7483
시로	-12.7487
전자	-12.7491
▁wigs	-12.7493
▁branding	-12.7493
cha	-12.7496
▁stones	-12.7501
▁무전	-12.7503
▁상반	-12.7503
1%	-12.7506
▁져야	-12.7511
▁트래	-12.7513
▁bleach	-12.7514
▁밭	-12.7515
▁suppose	-12.7516
▁donation	-12.7519
▁abrasion	-12.7521
▁ambitious	-12.7521
▁ancient	-12.7521
▁nickel	-12.7521
▁query	-12.7521
▁therefore	-12.7521
▁titanium	-12.7521
▁tunnel	-12.7521
▁upgrading	-12.7521
▁omitted	-12.7521
▁abnormalities	-12.7521
▁farmland	-12.7522
▁App	-12.7522
▁클램	-12.7522
▁stopping	-12.7522
▁푸짐	-12.7522
▁contest	-12.7522
▁affection	-12.7523
24	-12.7524
▁chlorine	-12.7525
▁completeness	-12.7525
다지	-12.7525
▁Low	-12.7527
▁겹치	-12.7527
▁initially	-12.7528
▁laughed	-12.753
▁slope	-12.753
▁깍	-12.7534
▁망치	-12.7536
▁리스크	-12.7537
[...]
