{
  "version": "1.0",
  "truncation": null,
  "padding": null,
  "added_tokens": [
    {
      "id": 0,
      "content": "[PAD]",
      "single_word": false,
      "lstrip": false,
      "rstrip": false,
      "normalized": false,
      "special": true
    },
    {
      "id": 1,
      "content": "[UNK]",
      "single_word": false,
      "lstrip": false,
      "rstrip": false,
      "normalized": false,
      "special": true
    },
    {
      "id": 2,
      "content": "[CLS]",
      "single_word": false,
      "lstrip": false,
      "rstrip": false,
      "normalized": false,
      "special": true
    },
    {
      "id": 3,
      "content": "[SEP]",
      "single_word": false,
      "lstrip": false,
      "rstrip": false,
      "normalized": false,
      "special": true
    },
    {
      "id": 4,
      "content": "[MASK]",
      "single_word": false,
      "lstrip": false,
      "rstrip": false,
      "normalized": false,
      "special": true
    }
  ],
  "normalizer": {
    "type": "NFKC"
  },
  "pre_tokenizer": {
    "type": "Whitespace"
  },
  "post_processor": null,
  "decoder": null,
  "model": {
    "type": "BPE",
    "dropout": null,
    "unk_token": "[UNK]",
    "continuing_subword_prefix": null,
    "end_of_word_suffix": null,
    "fuse_unk": false,
    "byte_fallback": false,
    "ignore_merges": false,
    "vocab": {
      "[PAD]": 0,
      "[UNK]": 1,
      "[CLS]": 2,
      "[SEP]": 3,
      "[MASK]": 4,
      "!": 5,
      "\"": 6,
      "#": 7,
      "$": 8,
      "%": 9,
      "&": 10,
      "'": 11,
      "(": 12,
      ")": 13,
      "*": 14,
      "+": 15,
      ",": 16,
      "-": 17,
      ".": 18,
      "/": 19,
      "0": 20,
      "1": 21,
      "2": 22,
      "3": 23,
      "4": 24,
      "5": 25,
      "6": 26,
      "7": 27,
      "8": 28,
      "9": 29,
      ":": 30,
      ";": 31,
      "<": 32,
      "=": 33,
      ">": 34,
      "?": 35,
      "@": 36,
      "A": 37,
      "B": 38,
      "C": 39,
      "D": 40,
      "E": 41,
      "F": 42,
      "G": 43,
      "H": 44,
      "I": 45,
      "J": 46,
      "K": 47,
      "L": 48,
      "M": 49,
      "N": 50,
      "O": 51,
      "P": 52,
      "Q": 53,
      "R": 54,
      "S": 55,
      "T": 56,
      "U": 57,
      "V": 58,
      "W": 59,
      "X": 60,
      "Y": 61,
      "Z": 62,
      "[": 63,
      "\\": 64,
      "]": 65,
      "^": 66,
      "_": 67,
      "`": 68,
      "a": 69,
      "b": 70,
      "c": 71,
      "d": 72,
      "e": 73,
      "f": 74,
      "g": 75,
      "h": 76,
      "i": 77,
      "j": 78,
      "k": 79,
      "l": 80,
      "m": 81,
      "n": 82,
      "o": 83,
      "p": 84,
      "q": 85,
      "r": 86,
      "s": 87,
      "t": 88,
      "u": 89,
      "v": 90,
      "w": 91,
      "x": 92,
      "y": 93,
      "z": 94,
      "{": 95,
      "|": 96,
      "}": 97,
      "~": 98,
      "£": 99,
      "¤": 100,
      "§": 101,
      "¬": 102,
      "­": 103,
      "®": 104,
      "°": 105,
      "±": 106,
      "·": 107,
      "Ð": 108,
      "×": 109,
      "Ø": 110,
      "ß": 111,
      "æ": 112,
      "÷": 113,
      "́": 114,
      "̇": 115,
      "̈": 116,
      "̊": 117,
      "̋": 118,
      "Δ": 119,
      "Ι": 120,
      "Λ": 121,
      "Ω": 122,
      "α": 123,
      "β": 124,
      "γ": 125,
      "μ": 126,
      "ν": 127,
      "π": 128,
      "φ": 129,
      "χ": 130,
      "Б": 131,
      "Д": 132,
      "И": 133,
      "К": 134,
      "М": 135,
      "Н": 136,
      "О": 137,
      "Р": 138,
      "Ф": 139,
      "Ц": 140,
      "а": 141,
      "б": 142,
      "в": 143,
      "г": 144,
      "д": 145,
      "е": 146,
      "ж": 147,
      "з": 148,
      "и": 149,
      "й": 150,
      "к": 151,
      "л": 152,
      "м": 153,
      "н": 154,
      "о": 155,
      "р": 156,
      "с": 157,
      "т": 158,
      "у": 159,
      "ц": 160,
      "ч": 161,
      "ь": 162,
      "э": 163,
      "ю": 164,
      "я": 165,
      "ᄀ": 166,
      "ᄁ": 167,
      "ᄂ": 168,
      "ᄃ": 169,
      "ᄄ": 170,
      "ᄅ": 171,
      "ᄆ": 172,
      "ᄇ": 173,
      "ᄉ": 174,
      "ᄊ": 175,
      "ᄋ": 176,
      "ᄌ": 177,
      "ᄍ": 178,
      "ᄎ": 179,
      "ᄏ": 180,
      "ᄐ": 181,
      "ᄑ": 182,
      "ᄒ": 183,
      "ᄚ": 184,
      "ᅀ": 185,
      "ᅙ": 186,
      "ᅠ": 187,
      "ᅡ": 188,
      "ᅢ": 189,
      "ᅣ": 190,
      "ᅤ": 191,
      "ᅥ": 192,
      "ᅦ": 193,
      "ᅧ": 194,
      "ᅩ": 195,
      "ᅪ": 196,
      "ᅫ": 197,
      "ᅬ": 198,
      "ᅭ": 199,
      "ᅮ": 200,
      "ᅱ": 201,
      "ᅲ": 202,
      "ᅳ": 203,
      "ᅵ": 204,
      "ᆞ": 205,
      "ᆡ": 206,
      "―": 207,
      "‘": 208,
      "’": 209,
      "“": 210,
      "”": 211,
      "†": 212,
      "‰": 213,
      "′": 214,
      "※": 215,
      "⁄": 216,
      "←": 217,
      "↑": 218,
      "→": 219,
      "↓": 220,
      "↔": 221,
      "⇒": 222,
      "⇔": 223,
      "∂": 224,
      "∇": 225,
      "∕": 226,
      "√": 227,
      "∞": 228,
      "∫": 229,
      "∼": 230,
      "∽": 231,
      "≒": 232,
      "≠": 233,
      "≥": 234,
      "≪": 235,
      "≫": 236,
      "⊙": 237,
      "⊥": 238,
      "━": 239,
      "│": 240,
      "■": 241,
      "□": 242,
      "▣": 243,
      "▦": 244,
      "▨": 245,
      "▲": 246,
      "△": 247,
      "▶": 248,
      "▷": 249,
      "▼": 250,
      "▽": 251,
      "◀": 252,
      "◆": 253,
      "◇": 254,
      "◈": 255,
      "○": 256,
      "◎": 257,
      "●": 258,
      "★": 259,
      "☆": 260,
      "☎": 261,
      "☏": 262,
      "☜": 263,
      "☞": 264,
      "♀": 265,
      "♂": 266,
      "♠": 267,
      "♡": 268,
      "♣": 269,
      "♤": 270,
      "♥": 271,
      "♧": 272,
      "♩": 273,
      "♪": 274,
      "♬": 275,
      "♭": 276,
      "、": 277,
      "。": 278,
      "〃": 279,
      "〈": 280,
      "〉": 281,
      "《": 282,
      "》": 283,
      "「": 284,
      "」": 285,
      "『": 286,
      "』": 287,
      "【": 288,
      "】": 289,
      "〓": 290,
      "〔": 291,
      "〕": 292,
      "あ": 293,
      "い": 294,
      "う": 295,
      "え": 296,
      "お": 297,
      "か": 298,
      "が": 299,
      "き": 300,
      "く": 301,
      "け": 302,
      "こ": 303,
      "ご": 304,
      "さ": 305,
      "ざ": 306,
      "し": 307,
      "じ": 308,
      "す": 309,
      "ず": 310,
      "せ": 311,
      "ぜ": 312,
      "そ": 313,
      "た": 314,
      "だ": 315,
      "ち": 316,
      "っ": 317,
      "つ": 318,
      "づ": 319,
      "て": 320,
      "で": 321,
      "と": 322,
      "ど": 323,
      "な": 324,
      "に": 325,
      "の": 326,
      "は": 327,
      "ば": 328,
      "び": 329,
      "へ": 330,
      "ま": 331,
      "み": 332,
      "め": 333,
      "も": 334,
      "ゃ": 335,
      "よ": 336,
      "ら": 337,
      "り": 338,
      "る": 339,
      "れ": 340,
      "ろ": 341,
      "わ": 342,
      "を": 343,
      "ん": 344,
      "ア": 345,
      "ィ": 346,
      "イ": 347,
      "ウ": 348,
      "エ": 349,
      "オ": 350,
      "カ": 351,
      "ガ": 352,
      "キ": 353,
      "ギ": 354,
      "ク": 355,
      "グ": 356,
      "ケ": 357,
      "ゲ": 358,
      "コ": 359,
      "サ": 360,
      "シ": 361,
      "ジ": 362,
      "ス": 363,
      "ズ": 364,
      "ソ": 365,
      "タ": 366,
      "ダ": 367,
      "チ": 368,
      "ッ": 369,
      "ツ": 370,
      "テ": 371,
      "ト": 372,
      "ド": 373,
      "ナ": 374,
      "ニ": 375,
      "ネ": 376,
      "ノ": 377,
      "ハ": 378,
      "バ": 379,
      "パ": 380,
      "ヒ": 381,
      "ビ": 382,
      "フ": 383,
      "ブ": 384,
      "プ": 385,
      "ヘ": 386,
      "ベ": 387,
      "ペ": 388,
      "マ": 389,
      "ミ": 390,
      "ム": 391,
      "メ": 392,
      "モ": 393,
      "ャ": 394,
      "ヤ": 395,
      "ュ": 396,
      "ユ": 397,
      "ョ": 398,
      "ヨ": 399,
      "ラ": 400,
      "リ": 401,
      "ル": 402,
      "ロ": 403,
      "ワ": 404,
      "ヲ": 405,
      "ン": 406,
      "一": 407,
      "丁": 408,
      "七": 409,
      "万": 410,
      "丈": 411,
      "三": 412,
      "上": 413,
      "下": 414,
      "不": 415,
      "丑": 416,
      "且": 417,
      "世": 418,
      "丘": 419,
      "丙": 420,
      "丞": 421,
      "中": 422,
      "串": 423,
      "丸": 424,
      "丹": 425,
      "主": 426,
      "乃": 427,
      "久": 428,
      "之": 429,
      "乎": 430,
      "乘": 431,
      "乙": 432,
      "九": 433,
      "乞": 434,
      "也": 435,
      "乭": 436,
      "乳": 437,
      "乾": 438,
      "亂": 439,
      "了": 440,
      "予": 441,
      "事": 442,
      "二": 443,
      "于": 444,
      "云": 445,
      "互": 446,
      "五": 447,
      "井": 448,
      "亘": 449,
      "亞": 450,
      "亡": 451,
      "交": 452,
      "亥": 453,
      "亦": 454,
      "亨": 455,
      "享": 456,
      "京": 457,
      "亭": 458,
      "亮": 459,
      "人": 460,
      "仁": 461,
      "今": 462,
      "介": 463,
      "仍": 464,
      "仕": 465,
      "他": 466,
      "仗": 467,
      "付": 468,
      "仙": 469,
      "代": 470,
      "令": 471,
      "以": 472,
      "仰": 473,
      "仲": 474,
      "件": 475,
      "任": 476,
      "企": 477,
      "伊": 478,
      "伍": 479,
      "伎": 480,
      "伏": 481,
      "伐": 482,
      "休": 483,
      "伯": 484,
      "伴": 485,
      "伸": 486,
      "似": 487,
      "伽": 488,
      "但": 489,
      "位": 490,
      "低": 491,
      "住": 492,
      "佐": 493,
      "佑": 494,
      "何": 495,
      "余": 496,
      "佛": 497,
      "作": 498,
      "佰": 499,
      "佳": 500,
      "使": 501,
      "來": 502,
      "侈": 503,
      "例": 504,
      "侍": 505,
      "侖": 506,
      "供": 507,
      "依": 508,
      "侮": 509,
      "侯": 510,
      "侵": 511,
      "侶": 512,
      "便": 513,
      "係": 514,
      "促": 515,
      "俄": 516,
      "俊": 517,
      "俎": 518,
      "俑": 519,
      "俔": 520,
      "俗": 521,
      "保": 522,
      "俠": 523,
      "信": 524,
      "修": 525,
      "俱": 526,
      "俳": 527,
      "倂": 528,
      "倉": 529,
      "個": 530,
      "倍": 531,
      "倒": 532,
      "候": 533,
      "借": 534,
      "倡": 535,
      "値": 536,
      "倦": 537,
      "倧": 538,
      "倪": 539,
      "倫": 540,
      "倭": 541,
      "倻": 542,
      "假": 543,
      "偈": 544,
      "偉": 545,
      "偏": 546,
      "偕": 547,
      "停": 548,
      "健": 549,
      "側": 550,
      "偵": 551,
      "偶": 552,
      "偸": 553,
      "傅": 554,
      "傍": 555,
      "傑": 556,
      "傘": 557,
      "備": 558,
      "催": 559,
      "傭": 560,
      "傲": 561,
      "傳": 562,
      "債": 563,
      "傷": 564,
      "傾": 565,
      "僉": 566,
      "像": 567,
      "僑": 568,
      "僕": 569,
      "僞": 570,
      "僧": 571,
      "僭": 572,
      "價": 573,
      "僻": 574,
      "僿": 575,
      "儀": 576,
      "億": 577,
      "儆": 578,
      "儉": 579,
      "儒": 580,
      "償": 581,
      "優": 582,
      "儺": 583,
      "允": 584,
      "元": 585,
      "兄": 586,
      "充": 587,
      "兆": 588,
      "先": 589,
      "光": 590,
      "克": 591,
      "兌": 592,
      "免": 593,
      "兎": 594,
      "兒": 595,
      "兢": 596,
      "入": 597,
      "內": 598,
      "全": 599,
      "兩": 600,
      "兪": 601,
      "八": 602,
      "公": 603,
      "六": 604,
      "兮": 605,
      "共": 606,
      "兵": 607,
      "其": 608,
      "具": 609,
      "典": 610,
      "兼": 611,
      "冀": 612,
      "円": 613,
      "冊": 614,
      "再": 615,
      "冒": 616,
      "冕": 617,
      "冠": 618,
      "冥": 619,
      "冬": 620,
      "冶": 621,
      "冷": 622,
      "准": 623,
      "凉": 624,
      "凌": 625,
      "凍": 626,
      "凝": 627,
      "凡": 628,
      "凰": 629,
      "凱": 630,
      "凶": 631,
      "凸": 632,
      "凹": 633,
      "出": 634,
      "函": 635,
      "刀": 636,
      "分": 637,
      "切": 638,
      "刊": 639,
      "刑": 640,
      "列": 641,
      "初": 642,
      "判": 643,
      "別": 644,
      "利": 645,
      "到": 646,
      "制": 647,
      "刷": 648,
      "券": 649,
      "刹": 650,
      "刺": 651,
      "刻": 652,
      "則": 653,
      "削": 654,
      "剋": 655,
      "剌": 656,
      "前": 657,
      "剔": 658,
      "剖": 659,
      "剛": 660,
      "剝": 661,
      "剪": 662,
      "副": 663,
      "割": 664,
      "創": 665,
      "剽": 666,
      "劃": 667,
      "劇": 668,
      "劈": 669,
      "劉": 670,
      "劍": 671,
      "劑": 672,
      "力": 673,
      "功": 674,
      "加": 675,
      "劣": 676,
      "助": 677,
      "劫": 678,
      "勁": 679,
      "勅": 680,
      "勇": 681,
      "勉": 682,
      "勒": 683,
      "動": 684,
      "務": 685,
      "勝": 686,
      "勞": 687,
      "募": 688,
      "勢": 689,
      "勤": 690,
      "勳": 691,
      "勵": 692,
      "勸": 693,
      "勾": 694,
      "勿": 695,
      "包": 696,
      "匕": 697,
      "化": 698,
      "北": 699,
      "匙": 700,
      "匠": 701,
      "匣": 702,
      "匪": 703,
      "匹": 704,
      "匿": 705,
      "區": 706,
      "十": 707,
      "千": 708,
      "卄": 709,
      "升": 710,
      "午": 711,
      "半": 712,
      "卍": 713,
      "卑": 714,
      "卒": 715,
      "卓": 716,
      "協": 717,
      "南": 718,
      "博": 719,
      "卜": 720,
      "占": 721,
      "卦": 722,
      "卨": 723,
      "卯": 724,
      "印": 725,
      "危": 726,
      "却": 727,
      "卵": 728,
      "卷": 729,
      "卽": 730,
      "卿": 731,
      "厄": 732,
      "厓": 733,
      "厚": 734,
      "原": 735,
      "厠": 736,
      "厥": 737,
      "厭": 738,
      "去": 739,
      "參": 740,
      "又": 741,
      "及": 742,
      "友": 743,
      "反": 744,
      "叔": 745,
      "取": 746,
      "受": 747,
      "叡": 748,
      "口": 749,
      "古": 750,
      "句": 751,
      "只": 752,
      "叫": 753,
      "召": 754,
      "可": 755,
      "台": 756,
      "叱": 757,
      "史": 758,
      "右": 759,
      "司": 760,
      "各": 761,
      "合": 762,
      "吉": 763,
      "同": 764,
      "名": 765,
      "后": 766,
      "吏": 767,
      "吐": 768,
      "向": 769,
      "君": 770,
      "吟": 771,
      "吠": 772,
      "否": 773,
      "含": 774,
      "吳": 775,
      "吸": 776,
      "吹": 777,
      "吻": 778,
      "吼": 779,
      "吾": 780,
      "呂": 781,
      "呈": 782,
      "告": 783,
      "呑": 784,
      "周": 785,
      "呪": 786,
      "呱": 787,
      "味": 788,
      "呼": 789,
      "命": 790,
      "和": 791,
      "咬": 792,
      "咸": 793,
      "哀": 794,
      "品": 795,
      "哈": 796,
      "哉": 797,
      "員": 798,
      "哥": 799,
      "哭": 800,
      "哲": 801,
      "哺": 802,
      "唐": 803,
      "唯": 804,
      "唱": 805,
      "啄": 806,
      "商": 807,
      "問": 808,
      "啓": 809,
      "善": 810,
      "喆": 811,
      "喉": 812,
      "喘": 813,
      "喜": 814,
      "喝": 815,
      "喪": 816,
      "喫": 817,
      "喬": 818,
      "單": 819,
      "嗚": 820,
      "嗟": 821,
      "嗣": 822,
      "嘆": 823,
      "嘉": 824,
      "嘗": 825,
      "嘲": 826,
      "器": 827,
      "噴": 828,
      "嚮": 829,
      "嚴": 830,
      "囊": 831,
      "囍": 832,
      "囑": 833,
      "囚": 834,
      "四": 835,
      "回": 836,
      "因": 837,
      "囹": 838,
      "固": 839,
      "圃": 840,
      "圄": 841,
      "圈": 842,
      "國": 843,
      "圍": 844,
      "園": 845,
      "圓": 846,
      "圖": 847,
      "團": 848,
      "土": 849,
      "在": 850,
      "圭": 851,
      "地": 852,
      "址": 853,
      "坂": 854,
      "均": 855,
      "坊": 856,
      "坎": 857,
      "坐": 858,
      "坑": 859,
      "坡": 860,
      "坤": 861,
      "坪": 862,
      "坵": 863,
      "坼": 864,
      "垂": 865,
      "垈": 866,
      "型": 867,
      "垓": 868,
      "垠": 869,
      "垣": 870,
      "城": 871,
      "域": 872,
      "埴": 873,
      "執": 874,
      "培": 875,
      "基": 876,
      "埼": 877,
      "堀": 878,
      "堂": 879,
      "堅": 880,
      "堆": 881,
      "堉": 882,
      "堡": 883,
      "堤": 884,
      "堧": 885,
      "堪": 886,
      "堰": 887,
      "報": 888,
      "場": 889,
      "塊": 890,
      "塋": 891,
      "塑": 892,
      "塔": 893,
      "塗": 894,
      "塘": 895,
      "塚": 896,
      "塞": 897,
      "塡": 898,
      "塵": 899,
      "塾": 900,
      "境": 901,
      "墅": 902,
      "墓": 903,
      "墜": 904,
      "增": 905,
      "墟": 906,
      "墨": 907,
      "墩": 908,
      "墳": 909,
      "壁": 910,
      "壇": 911,
      "壎": 912,
      "壑": 913,
      "壓": 914,
      "壘": 915,
      "壙": 916,
      "壞": 917,
      "壟": 918,
      "壤": 919,
      "士": 920,
      "壬": 921,
      "壯": 922,
      "壹": 923,
      "壺": 924,
      "壻": 925,
      "壽": 926,
      "夏": 927,
      "夔": 928,
      "夕": 929,
      "外": 930,
      "多": 931,
      "夜": 932,
      "夢": 933,
      "大": 934,
      "天": 935,
      "太": 936,
      "夫": 937,
      "央": 938,
      "失": 939,
      "夷": 940,
      "夾": 941,
      "奄": 942,
      "奇": 943,
      "奈": 944,
      "奉": 945,
      "奎": 946,
      "奏": 947,
      "契": 948,
      "奔": 949,
      "套": 950,
      "奚": 951,
      "奠": 952,
      "奧": 953,
      "奪": 954,
      "奮": 955,
      "女": 956,
      "奴": 957,
      "奸": 958,
      "好": 959,
      "如": 960,
      "妃": 961,
      "妄": 962,
      "妓": 963,
      "妖": 964,
      "妙": 965,
      "妹": 966,
      "妻": 967,
      "妾": 968,
      "姉": 969,
      "始": 970,
      "姐": 971,
      "姑": 972,
      "姓": 973,
      "委": 974,
      "姙": 975,
      "姚": 976,
      "姜": 977,
      "姦": 978,
      "姪": 979,
      "姬": 980,
      "姿": 981,
      "威": 982,
      "娃": 983,
      "娑": 984,
      "娘": 985,
      "娛": 986,
      "娜": 987,
      "娥": 988,
      "婁": 989,
      "婆": 990,
      "婚": 991,
      "婢": 992,
      "婦": 993,
      "媒": 994,
      "媛": 995,
      "媤": 996,
      "嫁": 997,
      "嫂": 998,
      "嫌": 999,
      "嫡": 1000,
      "嫦": 1001,
      "嬉": 1002,
      "嬌": 1003,
      "嬪": 1004,
      "孀": 1005,
      "子": 1006,
      "孔": 1007,
      "字": 1008,
      "存": 1009,
      "孜": 1010,
      "孝": 1011,
      "孟": 1012,
      "季": 1013,
      "孤": 1014,
      "孫": 1015,
      "學": 1016,
      "孼": 1017,
      "宅": 1018,
      "宇": 1019,
      "守": 1020,
      "安": 1021,
      "宋": 1022,
      "完": 1023,
      "宏": 1024,
      "宓": 1025,
      "宗": 1026,
      "官": 1027,
      "宙": 1028,
      "定": 1029,
      "宜": 1030,
      "客": 1031,
      "宣": 1032,
      "室": 1033,
      "宥": 1034,
      "宮": 1035,
      "害": 1036,
      "宴": 1037,
      "家": 1038,
      "宸": 1039,
      "容": 1040,
      "宿": 1041,
      "寂": 1042,
      "寃": 1043,
      "寄": 1044,
      "寅": 1045,
      "密": 1046,
      "富": 1047,
      "寒": 1048,
      "寓": 1049,
      "察": 1050,
      "寡": 1051,
      "實": 1052,
      "寧": 1053,
      "審": 1054,
      "寫": 1055,
      "寬": 1056,
      "寮": 1057,
      "寵": 1058,
      "寶": 1059,
      "寸": 1060,
      "寺": 1061,
      "封": 1062,
      "射": 1063,
      "將": 1064,
      "專": 1065,
      "尉": 1066,
      "尊": 1067,
      "尋": 1068,
      "對": 1069,
      "導": 1070,
      "小": 1071,
      "少": 1072,
      "尖": 1073,
      "尙": 1074,
      "尤": 1075,
      "就": 1076,
      "尸": 1077,
      "尹": 1078,
      "尺": 1079,
      "尻": 1080,
      "尼": 1081,
      "尾": 1082,
      "尿": 1083,
      "局": 1084,
      "居": 1085,
      "屈": 1086,
      "屋": 1087,
      "屍": 1088,
      "展": 1089,
      "屛": 1090,
      "屠": 1091,
      "層": 1092,
      "履": 1093,
      "屬": 1094,
      "山": 1095,
      "岐": 1096,
      "岑": 1097,
      "岡": 1098,
      "岩": 1099,
      "岱": 1100,
      "岳": 1101,
      "岷": 1102,
      "岸": 1103,
      "岺": 1104,
      "岾": 1105,
      "峙": 1106,
      "峨": 1107,
      "峯": 1108,
      "峰": 1109,
      "峴": 1110,
      "島": 1111,
      "峽": 1112,
      "崇": 1113,
      "崎": 1114,
      "崑": 1115,
      "崔": 1116,
      "崖": 1117,
      "崗": 1118,
      "崩": 1119,
      "嵋": 1120,
      "嵌": 1121,
      "嵐": 1122,
      "嵩": 1123,
      "嶋": 1124,
      "嶝": 1125,
      "嶺": 1126,
      "嶼": 1127,
      "嶽": 1128,
      "巍": 1129,
      "巖": 1130,
      "川": 1131,
      "州": 1132,
      "巡": 1133,
      "巢": 1134,
      "工": 1135,
      "左": 1136,
      "巨": 1137,
      "巫": 1138,
      "差": 1139,
      "己": 1140,
      "已": 1141,
      "巳": 1142,
      "巴": 1143,
      "巷": 1144,
      "巾": 1145,
      "市": 1146,
      "布": 1147,
      "帆": 1148,
      "希": 1149,
      "帖": 1150,
      "帙": 1151,
      "帝": 1152,
      "帥": 1153,
      "師": 1154,
      "席": 1155,
      "帳": 1156,
      "帶": 1157,
      "常": 1158,
      "帽": 1159,
      "幀": 1160,
      "幅": 1161,
      "幌": 1162,
      "幕": 1163,
      "幟": 1164,
      "幡": 1165,
      "幢": 1166,
      "幣": 1167,
      "干": 1168,
      "平": 1169,
      "年": 1170,
      "幷": 1171,
      "幸": 1172,
      "幹": 1173,
      "幻": 1174,
      "幼": 1175,
      "幽": 1176,
      "幾": 1177,
      "庄": 1178,
      "庇": 1179,
      "床": 1180,
      "序": 1181,
      "底": 1182,
      "店": 1183,
      "庚": 1184,
      "府": 1185,
      "庠": 1186,
      "度": 1187,
      "座": 1188,
      "庫": 1189,
      "庭": 1190,
      "庵": 1191,
      "庶": 1192,
      "康": 1193,
      "庸": 1194,
      "廈": 1195,
      "廉": 1196,
      "廊": 1197,
      "廓": 1198,
      "廖": 1199,
      "廚": 1200,
      "廛": 1201,
      "廟": 1202,
      "廠": 1203,
      "廢": 1204,
      "廣": 1205,
      "廬": 1206,
      "廳": 1207,
      "延": 1208,
      "廷": 1209,
      "建": 1210,
      "廻": 1211,
      "弄": 1212,
      "弊": 1213,
      "式": 1214,
      "弓": 1215,
      "弔": 1216,
      "引": 1217,
      "弗": 1218,
      "弘": 1219,
      "弟": 1220,
      "弦": 1221,
      "弧": 1222,
      "弱": 1223,
      "張": 1224,
      "强": 1225,
      "弼": 1226,
      "彈": 1227,
      "彌": 1228,
      "彛": 1229,
      "形": 1230,
      "彦": 1231,
      "彩": 1232,
      "彪": 1233,
      "彫": 1234,
      "彬": 1235,
      "彭": 1236,
      "彰": 1237,
      "影": 1238,
      "役": 1239,
      "彼": 1240,
      "彿": 1241,
      "往": 1242,
      "征": 1243,
      "待": 1244,
      "徇": 1245,
      "律": 1246,
      "後": 1247,
      "徐": 1248,
      "徑": 1249,
      "徒": 1250,
      "得": 1251,
      "從": 1252,
      "御": 1253,
      "復": 1254,
      "循": 1255,
      "微": 1256,
      "徵": 1257,
      "德": 1258,
      "徹": 1259,
      "徽": 1260,
      "心": 1261,
      "必": 1262,
      "忌": 1263,
      "忍": 1264,
      "忖": 1265,
      "志": 1266,
      "忘": 1267,
      "忙": 1268,
      "忠": 1269,
      "快": 1270,
      "念": 1271,
      "忽": 1272,
      "忿": 1273,
      "怒": 1274,
      "思": 1275,
      "怠": 1276,
      "怡": 1277,
      "急": 1278,
      "性": 1279,
      "怨": 1280,
      "怪": 1281,
      "怯": 1282,
      "恁": 1283,
      "恐": 1284,
      "恒": 1285,
      "恕": 1286,
      "恣": 1287,
      "恤": 1288,
      "恥": 1289,
      "恨": 1290,
      "恩": 1291,
      "恭": 1292,
      "息": 1293,
      "悅": 1294,
      "悌": 1295,
      "悔": 1296,
      "悖": 1297,
      "悛": 1298,
      "悟": 1299,
      "悠": 1300,
      "患": 1301,
      "悲": 1302,
      "悶": 1303,
      "悼": 1304,
      "情": 1305,
      "惑": 1306,
      "惜": 1307,
      "惟": 1308,
      "惠": 1309,
      "惡": 1310,
      "惰": 1311,
      "想": 1312,
      "惺": 1313,
      "惻": 1314,
      "愁": 1315,
      "愈": 1316,
      "愍": 1317,
      "意": 1318,
      "愚": 1319,
      "愛": 1320,
      "感": 1321,
      "愧": 1322,
      "愷": 1323,
      "愼": 1324,
      "慂": 1325,
      "慄": 1326,
      "慈": 1327,
      "慊": 1328,
      "態": 1329,
      "慌": 1330,
      "慕": 1331,
      "慘": 1332,
      "慙": 1333,
      "慢": 1334,
      "慤": 1335,
      "慧": 1336,
      "慮": 1337,
      "慰": 1338,
      "慶": 1339,
      "慷": 1340,
      "慾": 1341,
      "憂": 1342,
      "憎": 1343,
      "憐": 1344,
      "憑": 1345,
      "憙": 1346,
      "憤": 1347,
      "憧": 1348,
      "憬": 1349,
      "憲": 1350,
      "憶": 1351,
      "憺": 1352,
      "懈": 1353,
      "應": 1354,
      "懲": 1355,
      "懶": 1356,
      "懷": 1357,
      "懸": 1358,
      "懺": 1359,
      "懼": 1360,
      "戀": 1361,
      "戈": 1362,
      "戊": 1363,
      "戌": 1364,
      "戎": 1365,
      "成": 1366,
      "我": 1367,
      "戒": 1368,
      "或": 1369,
      "戚": 1370,
      "戟": 1371,
      "戮": 1372,
      "戰": 1373,
      "戱": 1374,
      "戴": 1375,
      "戶": 1376,
      "房": 1377,
      "所": 1378,
      "扁": 1379,
      "扇": 1380,
      "扈": 1381,
      "扉": 1382,
      "手": 1383,
      "才": 1384,
      "打": 1385,
      "托": 1386,
      "扶": 1387,
      "承": 1388,
      "技": 1389,
      "抄": 1390,
      "把": 1391,
      "抑": 1392,
      "投": 1393,
      "抗": 1394,
      "折": 1395,
      "抛": 1396,
      "抹": 1397,
      "押": 1398,
      "抽": 1399,
      "拂": 1400,
      "拇": 1401,
      "拈": 1402,
      "拉": 1403,
      "拌": 1404,
      "拍": 1405,
      "拏": 1406,
      "拓": 1407,
      "拔": 1408,
      "拖": 1409,
      "拙": 1410,
      "招": 1411,
      "拜": 1412,
      "括": 1413,
      "拭": 1414,
      "拱": 1415,
      "拳": 1416,
      "拷": 1417,
      "拿": 1418,
      "持": 1419,
      "指": 1420,
      "按": 1421,
      "挑": 1422,
      "振": 1423,
      "挺": 1424,
      "挽": 1425,
      "挾": 1426,
      "捉": 1427,
      "捌": 1428,
      "捐": 1429,
      "捕": 1430,
      "捨": 1431,
      "捲": 1432,
      "捷": 1433,
      "掃": 1434,
      "授": 1435,
      "掌": 1436,
      "排": 1437,
      "掘": 1438,
      "掛": 1439,
      "掠": 1440,
      "採": 1441,
      "探": 1442,
      "接": 1443,
      "推": 1444,
      "提": 1445,
      "揖": 1446,
      "揚": 1447,
      "換": 1448,
      "握": 1449,
      "揭": 1450,
      "揮": 1451,
      "援": 1452,
      "損": 1453,
      "搏": 1454,
      "搔": 1455,
      "搜": 1456,
      "携": 1457,
      "摘": 1458,
      "摠": 1459,
      "摩": 1460,
      "摸": 1461,
      "摺": 1462,
      "撞": 1463,
      "撤": 1464,
      "撫": 1465,
      "播": 1466,
      "撰": 1467,
      "撲": 1468,
      "撻": 1469,
      "擁": 1470,
      "擇": 1471,
      "擊": 1472,
      "操": 1473,
      "擎": 1474,
      "擔": 1475,
      "據": 1476,
      "擧": 1477,
      "擬": 1478,
      "擲": 1479,
      "擴": 1480,
      "擾": 1481,
      "攄": 1482,
      "攘": 1483,
      "攝": 1484,
      "攣": 1485,
      "支": 1486,
      "收": 1487,
      "攷": 1488,
      "攸": 1489,
      "改": 1490,
      "攻": 1491,
      "放": 1492,
      "政": 1493,
      "故": 1494,
      "效": 1495,
      "敍": 1496,
      "敎": 1497,
      "敏": 1498,
      "救": 1499,
      "敗": 1500,
      "敞": 1501,
      "敢": 1502,
      "散": 1503,
      "敦": 1504,
      "敬": 1505,
      "敲": 1506,
      "整": 1507,
      "敵": 1508,
      "敷": 1509,
      "數": 1510,
      "斂": 1511,
      "文": 1512,
      "斌": 1513,
      "斗": 1514,
      "料": 1515,
      "斜": 1516,
      "斟": 1517,
      "斤": 1518,
      "斥": 1519,
      "斧": 1520,
      "斫": 1521,
      "斬": 1522,
      "斯": 1523,
      "新": 1524,
      "斷": 1525,
      "方": 1526,
      "於": 1527,
      "施": 1528,
      "旅": 1529,
      "旋": 1530,
      "旌": 1531,
      "族": 1532,
      "旗": 1533,
      "无": 1534,
      "旣": 1535,
      "日": 1536,
      "旦": 1537,
      "旨": 1538,
      "早": 1539,
      "旬": 1540,
      "旭": 1541,
      "旱": 1542,
      "旺": 1543,
      "昆": 1544,
      "昇": 1545,
      "昊": 1546,
      "昌": 1547,
      "明": 1548,
      "昏": 1549,
      "易": 1550,
      "昔": 1551,
      "昕": 1552,
      "星": 1553,
      "映": 1554,
      "春": 1555,
      "昧": 1556,
      "昭": 1557,
      "是": 1558,
      "昰": 1559,
      "昱": 1560,
      "昻": 1561,
      "時": 1562,
      "晃": 1563,
      "晉": 1564,
      "晋": 1565,
      "晝": 1566,
      "晦": 1567,
      "晨": 1568,
      "晩": 1569,
      "普": 1570,
      "景": 1571,
      "晴": 1572,
      "晶": 1573,
      "智": 1574,
      "暇": 1575,
      "暉": 1576,
      "暑": 1577,
      "暖": 1578,
      "暗": 1579,
      "暢": 1580,
      "暫": 1581,
      "暮": 1582,
      "暴": 1583,
      "暹": 1584,
      "曆": 1585,
      "曉": 1586,
      "曙": 1587,
      "曜": 1588,
      "曠": 1589,
      "曰": 1590,
      "曲": 1591,
      "曳": 1592,
      "更": 1593,
      "書": 1594,
      "曹": 1595,
      "曺": 1596,
      "曼": 1597,
      "曾": 1598,
      "替": 1599,
      "最": 1600,
      "會": 1601,
      "月": 1602,
      "有": 1603,
      "朋": 1604,
      "服": 1605,
      "朔": 1606,
      "朕": 1607,
      "朗": 1608,
      "望": 1609,
      "朝": 1610,
      "期": 1611,
      "木": 1612,
      "未": 1613,
      "末": 1614,
      "本": 1615,
      "札": 1616,
      "朮": 1617,
      "朱": 1618,
      "朴": 1619,
      "杆": 1620,
      "杉": 1621,
      "李": 1622,
      "杏": 1623,
      "材": 1624,
      "村": 1625,
      "杓": 1626,
      "杖": 1627,
      "杜": 1628,
      "杞": 1629,
      "束": 1630,
      "杭": 1631,
      "杯": 1632,
      "杰": 1633,
      "東": 1634,
      "松": 1635,
      "板": 1636,
      "枋": 1637,
      "析": 1638,
      "枕": 1639,
      "林": 1640,
      "枚": 1641,
      "果": 1642,
      "枝": 1643,
      "枯": 1644,
      "枳": 1645,
      "架": 1646,
      "枾": 1647,
      "柄": 1648,
      "柏": 1649,
      "某": 1650,
      "柑": 1651,
      "染": 1652,
      "柔": 1653,
      "柚": 1654,
      "柝": 1655,
      "柯": 1656,
      "柱": 1657,
      "柳": 1658,
      "柴": 1659,
      "柵": 1660,
      "査": 1661,
      "栖": 1662,
      "栗": 1663,
      "校": 1664,
      "栢": 1665,
      "株": 1666,
      "核": 1667,
      "根": 1668,
      "格": 1669,
      "栽": 1670,
      "桂": 1671,
      "桃": 1672,
      "案": 1673,
      "桐": 1674,
      "桑": 1675,
      "桓": 1676,
      "桔": 1677,
      "梁": 1678,
      "梅": 1679,
      "梓": 1680,
      "梔": 1681,
      "梗": 1682,
      "條": 1683,
      "梟": 1684,
      "梧": 1685,
      "梨": 1686,
      "械": 1687,
      "梵": 1688,
      "梶": 1689,
      "棄": 1690,
      "棋": 1691,
      "棍": 1692,
      "棒": 1693,
      "棗": 1694,
      "棟": 1695,
      "棠": 1696,
      "棧": 1697,
      "森": 1698,
      "棲": 1699,
      "棺": 1700,
      "椅": 1701,
      "植": 1702,
      "椎": 1703,
      "椒": 1704,
      "椿": 1705,
      "楊": 1706,
      "楓": 1707,
      "楙": 1708,
      "楚": 1709,
      "楠": 1710,
      "業": 1711,
      "楯": 1712,
      "極": 1713,
      "楷": 1714,
      "榕": 1715,
      "榜": 1716,
      "榮": 1717,
      "槃": 1718,
      "構": 1719,
      "槐": 1720,
      "槨": 1721,
      "槪": 1722,
      "槽": 1723,
      "槿": 1724,
      "樂": 1725,
      "樊": 1726,
      "樑": 1727,
      "樓": 1728,
      "標": 1729,
      "樞": 1730,
      "模": 1731,
      "樣": 1732,
      "樵": 1733,
      "樹": 1734,
      "樺": 1735,
      "橋": 1736,
      "橘": 1737,
      "橙": 1738,
      "機": 1739,
      "橡": 1740,
      "橫": 1741,
      "檀": 1742,
      "檄": 1743,
      "檎": 1744,
      "檜": 1745,
      "檢": 1746,
      "櫛": 1747,
      "櫻": 1748,
      "欄": 1749,
      "權": 1750,
      "次": 1751,
      "欣": 1752,
      "欲": 1753,
      "欺": 1754,
      "欽": 1755,
      "款": 1756,
      "歌": 1757,
      "歎": 1758,
      "歐": 1759,
      "歡": 1760,
      "止": 1761,
      "正": 1762,
      "此": 1763,
      "步": 1764,
      "武": 1765,
      "歲": 1766,
      "歷": 1767,
      "歸": 1768,
      "死": 1769,
      "殃": 1770,
      "殆": 1771,
      "殉": 1772,
      "殊": 1773,
      "殖": 1774,
      "殘": 1775,
      "殯": 1776,
      "殲": 1777,
      "段": 1778,
      "殷": 1779,
      "殺": 1780,
      "殼": 1781,
      "殿": 1782,
      "毅": 1783,
      "毋": 1784,
      "母": 1785,
      "每": 1786,
      "毒": 1787,
      "比": 1788,
      "毖": 1789,
      "毛": 1790,
      "毫": 1791,
      "毬": 1792,
      "氏": 1793,
      "民": 1794,
      "氣": 1795,
      "水": 1796,
      "氷": 1797,
      "永": 1798,
      "汀": 1799,
      "汁": 1800,
      "求": 1801,
      "汎": 1802,
      "汐": 1803,
      "汗": 1804,
      "汚": 1805,
      "汝": 1806,
      "江": 1807,
      "池": 1808,
      "汪": 1809,
      "汰": 1810,
      "決": 1811,
      "汽": 1812,
      "沂": 1813,
      "沃": 1814,
      "沈": 1815,
      "沒": 1816,
      "沖": 1817,
      "沙": 1818,
      "沛": 1819,
      "沫": 1820,
      "河": 1821,
      "油": 1822,
      "治": 1823,
      "沼": 1824,
      "沿": 1825,
      "況": 1826,
      "泉": 1827,
      "泊": 1828,
      "泓": 1829,
      "法": 1830,
      "泗": 1831,
      "泛": 1832,
      "波": 1833,
      "泣": 1834,
      "泥": 1835,
      "注": 1836,
      "泰": 1837,
      "泳": 1838,
      "洋": 1839,
      "洑": 1840,
      "洗": 1841,
      "洙": 1842,
      "洛": 1843,
      "洞": 1844,
      "津": 1845,
      "洩": 1846,
      "洪": 1847,
      "洲": 1848,
      "洸": 1849,
      "活": 1850,
      "洽": 1851,
      "派": 1852,
      "流": 1853,
      "浙": 1854,
      "浚": 1855,
      "浜": 1856,
      "浦": 1857,
      "浩": 1858,
      "浪": 1859,
      "浮": 1860,
      "浴": 1861,
      "海": 1862,
      "浸": 1863,
      "涅": 1864,
      "消": 1865,
      "涉": 1866,
      "涌": 1867,
      "涎": 1868,
      "涑": 1869,
      "涯": 1870,
      "液": 1871,
      "涵": 1872,
      "淀": 1873,
      "淄": 1874,
      "淑": 1875,
      "淘": 1876,
      "淚": 1877,
      "淡": 1878,
      "淨": 1879,
      "淫": 1880,
      "淮": 1881,
      "深": 1882,
      "淳": 1883,
      "淵": 1884,
      "混": 1885,
      "淸": 1886,
      "淹": 1887,
      "淺": 1888,
      "添": 1889,
      "減": 1890,
      "渠": 1891,
      "渡": 1892,
      "渤": 1893,
      "渦": 1894,
      "渫": 1895,
      "測": 1896,
      "渭": 1897,
      "港": 1898,
      "渴": 1899,
      "游": 1900,
      "渾": 1901,
      "湃": 1902,
      "湖": 1903,
      "湘": 1904,
      "湛": 1905,
      "湜": 1906,
      "湧": 1907,
      "湯": 1908,
      "湺": 1909,
      "源": 1910,
      "準": 1911,
      "溜": 1912,
      "溝": 1913,
      "溟": 1914,
      "溢": 1915,
      "溥": 1916,
      "溪": 1917,
      "溫": 1918,
      "溶": 1919,
      "溺": 1920,
      "滄": 1921,
      "滅": 1922,
      "滋": 1923,
      "滑": 1924,
      "滯": 1925,
      "滴": 1926,
      "滿": 1927,
      "漁": 1928,
      "漂": 1929,
      "漆": 1930,
      "漏": 1931,
      "演": 1932,
      "漕": 1933,
      "漠": 1934,
      "漢": 1935,
      "漫": 1936,
      "漬": 1937,
      "漲": 1938,
      "漸": 1939,
      "漿": 1940,
      "潑": 1941,
      "潔": 1942,
      "潘": 1943,
      "潛": 1944,
      "潢": 1945,
      "潤": 1946,
      "潭": 1947,
      "潮": 1948,
      "潰": 1949,
      "澄": 1950,
      "澈": 1951,
      "澎": 1952,
      "澔": 1953,
      "澗": 1954,
      "澤": 1955,
      "澳": 1956,
      "激": 1957,
      "濁": 1958,
      "濃": 1959,
      "濕": 1960,
      "濟": 1961,
      "濠": 1962,
      "濡": 1963,
      "濤": 1964,
      "濫": 1965,
      "濱": 1966,
      "瀆": 1967,
      "瀉": 1968,
      "瀋": 1969,
      "瀑": 1970,
      "瀛": 1971,
      "瀝": 1972,
      "瀟": 1973,
      "瀧": 1974,
      "瀷": 1975,
      "瀾": 1976,
      "灌": 1977,
      "灑": 1978,
      "灘": 1979,
      "灝": 1980,
      "灣": 1981,
      "火": 1982,
      "灰": 1983,
      "灸": 1984,
      "灼": 1985,
      "災": 1986,
      "炎": 1987,
      "炙": 1988,
      "炭": 1989,
      "炳": 1990,
      "炸": 1991,
      "点": 1992,
      "烈": 1993,
      "烏": 1994,
      "烙": 1995,
      "烝": 1996,
      "烟": 1997,
      "烹": 1998,
      "烽": 1999,
      "焉": 2000,
      "焚": 2001,
      "無": 2002,
      "焦": 2003,
      "焰": 2004,
      "然": 2005,
      "煇": 2006,
      "煉": 2007,
      "煌": 2008,
      "煎": 2009,
      "煙": 2010,
      "煞": 2011,
      "煥": 2012,
      "照": 2013,
      "煩": 2014,
      "煬": 2015,
      "煮": 2016,
      "熊": 2017,
      "熙": 2018,
      "熟": 2019,
      "熱": 2020,
      "熹": 2021,
      "燃": 2022,
      "燈": 2023,
      "燐": 2024,
      "燒": 2025,
      "燔": 2026,
      "燕": 2027,
      "營": 2028,
      "燥": 2029,
      "燦": 2030,
      "燧": 2031,
      "燭": 2032,
      "燮": 2033,
      "燻": 2034,
      "爆": 2035,
      "爐": 2036,
      "爛": 2037,
      "爭": 2038,
      "爲": 2039,
      "爵": 2040,
      "父": 2041,
      "爽": 2042,
      "爾": 2043,
      "片": 2044,
      "版": 2045,
      "牌": 2046,
      "牙": 2047,
      "牛": 2048,
      "牝": 2049,
      "牟": 2050,
      "牢": 2051,
      "牧": 2052,
      "物": 2053,
      "牲": 2054,
      "特": 2055,
      "牽": 2056,
      "犁": 2057,
      "犧": 2058,
      "犬": 2059,
      "犯": 2060,
      "狀": 2061,
      "狂": 2062,
      "狄": 2063,
      "狎": 2064,
      "狐": 2065,
      "狗": 2066,
      "狩": 2067,
      "狹": 2068,
      "狼": 2069,
      "猛": 2070,
      "猪": 2071,
      "猫": 2072,
      "猶": 2073,
      "猿": 2074,
      "獄": 2075,
      "獅": 2076,
      "獐": 2077,
      "獒": 2078,
      "獨": 2079,
      "獲": 2080,
      "獵": 2081,
      "獸": 2082,
      "獻": 2083,
      "玄": 2084,
      "玆": 2085,
      "率": 2086,
      "玉": 2087,
      "王": 2088,
      "玖": 2089,
      "玟": 2090,
      "玩": 2091,
      "玲": 2092,
      "珊": 2093,
      "珍": 2094,
      "珞": 2095,
      "珠": 2096,
      "珥": 2097,
      "珩": 2098,
      "珪": 2099,
      "班": 2100,
      "現": 2101,
      "球": 2102,
      "理": 2103,
      "琉": 2104,
      "琢": 2105,
      "琦": 2106,
      "琪": 2107,
      "琮": 2108,
      "琳": 2109,
      "琴": 2110,
      "琵": 2111,
      "琶": 2112,
      "瑕": 2113,
      "瑙": 2114,
      "瑛": 2115,
      "瑜": 2116,
      "瑞": 2117,
      "瑟": 2118,
      "瑨": 2119,
      "瑩": 2120,
      "瑪": 2121,
      "瑾": 2122,
      "璃": 2123,
      "璟": 2124,
      "璡": 2125,
      "璣": 2126,
      "璧": 2127,
      "璨": 2128,
      "環": 2129,
      "璹": 2130,
      "璽": 2131,
      "璿": 2132,
      "瓏": 2133,
      "瓔": 2134,
      "瓚": 2135,
      "瓜": 2136,
      "瓦": 2137,
      "瓷": 2138,
      "甁": 2139,
      "甄": 2140,
      "甕": 2141,
      "甘": 2142,
      "甚": 2143,
      "生": 2144,
      "産": 2145,
      "用": 2146,
      "甫": 2147,
      "田": 2148,
      "由": 2149,
      "甲": 2150,
      "申": 2151,
      "男": 2152,
      "甸": 2153,
      "町": 2154,
      "界": 2155,
      "畏": 2156,
      "畑": 2157,
      "畓": 2158,
      "畔": 2159,
      "留": 2160,
      "畜": 2161,
      "畝": 2162,
      "畢": 2163,
      "略": 2164,
      "番": 2165,
      "異": 2166,
      "畵": 2167,
      "當": 2168,
      "畿": 2169,
      "疆": 2170,
      "疇": 2171,
      "疊": 2172,
      "疎": 2173,
      "疏": 2174,
      "疑": 2175,
      "疫": 2176,
      "疵": 2177,
      "疽": 2178,
      "疾": 2179,
      "病": 2180,
      "症": 2181,
      "痍": 2182,
      "痒": 2183,
      "痕": 2184,
      "痘": 2185,
      "痛": 2186,
      "痰": 2187,
      "痲": 2188,
      "痺": 2189,
      "痼": 2190,
      "瘀": 2191,
      "瘟": 2192,
      "瘡": 2193,
      "療": 2194,
      "癌": 2195,
      "癒": 2196,
      "癖": 2197,
      "癡": 2198,
      "登": 2199,
      "發": 2200,
      "白": 2201,
      "百": 2202,
      "的": 2203,
      "皆": 2204,
      "皇": 2205,
      "皐": 2206,
      "皓": 2207,
      "皮": 2208,
      "皿": 2209,
      "盂": 2210,
      "盃": 2211,
      "盆": 2212,
      "盈": 2213,
      "益": 2214,
      "盒": 2215,
      "盖": 2216,
      "盛": 2217,
      "盜": 2218,
      "盞": 2219,
      "盟": 2220,
      "盡": 2221,
      "監": 2222,
      "盤": 2223,
      "盧": 2224,
      "目": 2225,
      "盲": 2226,
      "直": 2227,
      "相": 2228,
      "省": 2229,
      "眄": 2230,
      "眉": 2231,
      "看": 2232,
      "眞": 2233,
      "眠": 2234,
      "眩": 2235,
      "眷": 2236,
      "眼": 2237,
      "着": 2238,
      "睛": 2239,
      "睡": 2240,
      "督": 2241,
      "睦": 2242,
      "睿": 2243,
      "瞋": 2244,
      "瞑": 2245,
      "瞭": 2246,
      "瞳": 2247,
      "瞻": 2248,
      "矛": 2249,
      "矜": 2250,
      "矢": 2251,
      "矣": 2252,
      "知": 2253,
      "短": 2254,
      "矯": 2255,
      "石": 2256,
      "砂": 2257,
      "砲": 2258,
      "破": 2259,
      "硅": 2260,
      "硏": 2261,
      "硝": 2262,
      "硫": 2263,
      "硬": 2264,
      "硯": 2265,
      "碁": 2266,
      "碎": 2267,
      "碑": 2268,
      "碗": 2269,
      "碣": 2270,
      "碧": 2271,
      "碩": 2272,
      "確": 2273,
      "磁": 2274,
      "磋": 2275,
      "磨": 2276,
      "磯": 2277,
      "磻": 2278,
      "礁": 2279,
      "礎": 2280,
      "礪": 2281,
      "礫": 2282,
      "示": 2283,
      "社": 2284,
      "祀": 2285,
      "祈": 2286,
      "祉": 2287,
      "祖": 2288,
      "祚": 2289,
      "祛": 2290,
      "祝": 2291,
      "神": 2292,
      "祠": 2293,
      "祥": 2294,
      "票": 2295,
      "祭": 2296,
      "祿": 2297,
      "禁": 2298,
      "禍": 2299,
      "禎": 2300,
      "福": 2301,
      "禦": 2302,
      "禧": 2303,
      "禪": 2304,
      "禮": 2305,
      "禹": 2306,
      "禽": 2307,
      "禾": 2308,
      "秀": 2309,
      "私": 2310,
      "秉": 2311,
      "秋": 2312,
      "科": 2313,
      "秒": 2314,
      "秘": 2315,
      "租": 2316,
      "秦": 2317,
      "秩": 2318,
      "移": 2319,
      "稀": 2320,
      "稅": 2321,
      "稈": 2322,
      "程": 2323,
      "稔": 2324,
      "稚": 2325,
      "稜": 2326,
      "種": 2327,
      "稱": 2328,
      "稷": 2329,
      "稻": 2330,
      "稼": 2331,
      "稽": 2332,
      "稿": 2333,
      "穀": 2334,
      "穆": 2335,
      "積": 2336,
      "穗": 2337,
      "穡": 2338,
      "穩": 2339,
      "穰": 2340,
      "穴": 2341,
      "究": 2342,
      "空": 2343,
      "穿": 2344,
      "突": 2345,
      "窄": 2346,
      "窈": 2347,
      "窓": 2348,
      "窕": 2349,
      "窘": 2350,
      "窟": 2351,
      "窩": 2352,
      "窮": 2353,
      "窯": 2354,
      "竄": 2355,
      "竅": 2356,
      "竊": 2357,
      "立": 2358,
      "站": 2359,
      "竝": 2360,
      "竟": 2361,
      "章": 2362,
      "竣": 2363,
      "童": 2364,
      "竪": 2365,
      "端": 2366,
      "競": 2367,
      "竹": 2368,
      "竿": 2369,
      "笏": 2370,
      "笑": 2371,
      "笠": 2372,
      "符": 2373,
      "第": 2374,
      "笹": 2375,
      "筆": 2376,
      "等": 2377,
      "筋": 2378,
      "筍": 2379,
      "筑": 2380,
      "筒": 2381,
      "答": 2382,
      "策": 2383,
      "筵": 2384,
      "箋": 2385,
      "箏": 2386,
      "箔": 2387,
      "算": 2388,
      "箚": 2389,
      "管": 2390,
      "箭": 2391,
      "箱": 2392,
      "箴": 2393,
      "箸": 2394,
      "節": 2395,
      "範": 2396,
      "篆": 2397,
      "篇": 2398,
      "築": 2399,
      "篠": 2400,
      "篤": 2401,
      "簡": 2402,
      "簾": 2403,
      "簿": 2404,
      "籌": 2405,
      "籍": 2406,
      "籠": 2407,
      "籬": 2408,
      "米": 2409,
      "粉": 2410,
      "粒": 2411,
      "粗": 2412,
      "粟": 2413,
      "粥": 2414,
      "粧": 2415,
      "粲": 2416,
      "精": 2417,
      "糊": 2418,
      "糖": 2419,
      "糞": 2420,
      "糧": 2421,
      "系": 2422,
      "紀": 2423,
      "約": 2424,
      "紅": 2425,
      "紋": 2426,
      "納": 2427,
      "紐": 2428,
      "純": 2429,
      "紘": 2430,
      "紙": 2431,
      "級": 2432,
      "素": 2433,
      "紡": 2434,
      "索": 2435,
      "紫": 2436,
      "累": 2437,
      "細": 2438,
      "紳": 2439,
      "紹": 2440,
      "終": 2441,
      "絃": 2442,
      "組": 2443,
      "絆": 2444,
      "結": 2445,
      "絡": 2446,
      "給": 2447,
      "絪": 2448,
      "統": 2449,
      "絲": 2450,
      "絶": 2451,
      "絹": 2452,
      "綏": 2453,
      "經": 2454,
      "綜": 2455,
      "綠": 2456,
      "維": 2457,
      "綱": 2458,
      "網": 2459,
      "綵": 2460,
      "綺": 2461,
      "綾": 2462,
      "綿": 2463,
      "緊": 2464,
      "緖": 2465,
      "線": 2466,
      "緝": 2467,
      "締": 2468,
      "緣": 2469,
      "編": 2470,
      "緩": 2471,
      "緯": 2472,
      "練": 2473,
      "緻": 2474,
      "縉": 2475,
      "縊": 2476,
      "縛": 2477,
      "縝": 2478,
      "縣": 2479,
      "縫": 2480,
      "縱": 2481,
      "總": 2482,
      "績": 2483,
      "織": 2484,
      "繕": 2485,
      "繡": 2486,
      "繩": 2487,
      "繪": 2488,
      "繼": 2489,
      "纂": 2490,
      "續": 2491,
      "纏": 2492,
      "纖": 2493,
      "罔": 2494,
      "罪": 2495,
      "置": 2496,
      "罰": 2497,
      "署": 2498,
      "罷": 2499,
      "罹": 2500,
      "羅": 2501,
      "羈": 2502,
      "羊": 2503,
      "羌": 2504,
      "美": 2505,
      "羔": 2506,
      "羞": 2507,
      "群": 2508,
      "羨": 2509,
      "義": 2510,
      "羲": 2511,
      "羹": 2512,
      "羽": 2513,
      "翁": 2514,
      "翊": 2515,
      "習": 2516,
      "翔": 2517,
      "翟": 2518,
      "翠": 2519,
      "翩": 2520,
      "翰": 2521,
      "翼": 2522,
      "耀": 2523,
      "老": 2524,
      "考": 2525,
      "者": 2526,
      "耆": 2527,
      "而": 2528,
      "耐": 2529,
      "耕": 2530,
      "耗": 2531,
      "耘": 2532,
      "耳": 2533,
      "耶": 2534,
      "耽": 2535,
      "耿": 2536,
      "聊": 2537,
      "聖": 2538,
      "聘": 2539,
      "聚": 2540,
      "聞": 2541,
      "聯": 2542,
      "聰": 2543,
      "聲": 2544,
      "職": 2545,
      "聽": 2546,
      "聾": 2547,
      "聿": 2548,
      "肅": 2549,
      "肆": 2550,
      "肇": 2551,
      "肉": 2552,
      "肋": 2553,
      "肖": 2554,
      "肝": 2555,
      "股": 2556,
      "肢": 2557,
      "肥": 2558,
      "肩": 2559,
      "肯": 2560,
      "育": 2561,
      "肺": 2562,
      "胃": 2563,
      "背": 2564,
      "胎": 2565,
      "胞": 2566,
      "胡": 2567,
      "胤": 2568,
      "胥": 2569,
      "胱": 2570,
      "胸": 2571,
      "能": 2572,
      "脂": 2573,
      "脅": 2574,
      "脇": 2575,
      "脈": 2576,
      "脚": 2577,
      "脣": 2578,
      "脫": 2579,
      "脾": 2580,
      "腎": 2581,
      "腐": 2582,
      "腑": 2583,
      "腕": 2584,
      "腦": 2585,
      "腫": 2586,
      "腰": 2587,
      "腱": 2588,
      "腸": 2589,
      "腹": 2590,
      "腺": 2591,
      "膀": 2592,
      "膏": 2593,
      "膚": 2594,
      "膜": 2595,
      "膝": 2596,
      "膳": 2597,
      "膽": 2598,
      "膾": 2599,
      "臘": 2600,
      "臟": 2601,
      "臣": 2602,
      "臥": 2603,
      "臧": 2604,
      "臨": 2605,
      "自": 2606,
      "臭": 2607,
      "至": 2608,
      "致": 2609,
      "臺": 2610,
      "臻": 2611,
      "臾": 2612,
      "與": 2613,
      "興": 2614,
      "舊": 2615,
      "舌": 2616,
      "舍": 2617,
      "舒": 2618,
      "舛": 2619,
      "舜": 2620,
      "舞": 2621,
      "舟": 2622,
      "航": 2623,
      "舫": 2624,
      "般": 2625,
      "舵": 2626,
      "舶": 2627,
      "船": 2628,
      "艀": 2629,
      "艙": 2630,
      "艤": 2631,
      "艦": 2632,
      "艮": 2633,
      "良": 2634,
      "艱": 2635,
      "色": 2636,
      "艶": 2637,
      "艾": 2638,
      "芒": 2639,
      "芙": 2640,
      "芝": 2641,
      "芥": 2642,
      "芯": 2643,
      "花": 2644,
      "芳": 2645,
      "芸": 2646,
      "芻": 2647,
      "芼": 2648,
      "芽": 2649,
      "苑": 2650,
      "苔": 2651,
      "苗": 2652,
      "苛": 2653,
      "苟": 2654,
      "若": 2655,
      "苦": 2656,
      "英": 2657,
      "茂": 2658,
      "范": 2659,
      "茅": 2660,
      "茉": 2661,
      "茨": 2662,
      "茵": 2663,
      "茶": 2664,
      "茸": 2665,
      "茹": 2666,
      "荀": 2667,
      "草": 2668,
      "荊": 2669,
      "荷": 2670,
      "莉": 2671,
      "莊": 2672,
      "莎": 2673,
      "莞": 2674,
      "莫": 2675,
      "菅": 2676,
      "菊": 2677,
      "菌": 2678,
      "菜": 2679,
      "菩": 2680,
      "華": 2681,
      "菱": 2682,
      "菲": 2683,
      "菴": 2684,
      "菹": 2685,
      "萊": 2686,
      "萌": 2687,
      "萍": 2688,
      "萩": 2689,
      "萬": 2690,
      "落": 2691,
      "葉": 2692,
      "葛": 2693,
      "董": 2694,
      "葦": 2695,
      "葬": 2696,
      "蒙": 2697,
      "蒲": 2698,
      "蒸": 2699,
      "蒼": 2700,
      "蒿": 2701,
      "蓄": 2702,
      "蓉": 2703,
      "蓋": 2704,
      "蓑": 2705,
      "蓬": 2706,
      "蓮": 2707,
      "蔔": 2708,
      "蔘": 2709,
      "蔚": 2710,
      "蔡": 2711,
      "蔣": 2712,
      "蔥": 2713,
      "蔬": 2714,
      "蔭": 2715,
      "蔯": 2716,
      "蕩": 2717,
      "蕪": 2718,
      "蕭": 2719,
      "薄": 2720,
      "薇": 2721,
      "薑": 2722,
      "薔": 2723,
      "薛": 2724,
      "薦": 2725,
      "薩": 2726,
      "薪": 2727,
      "薯": 2728,
      "薰": 2729,
      "藁": 2730,
      "藍": 2731,
      "藏": 2732,
      "藜": 2733,
      "藝": 2734,
      "藤": 2735,
      "藥": 2736,
      "藩": 2737,
      "藷": 2738,
      "藻": 2739,
      "藿": 2740,
      "蘇": 2741,
      "蘊": 2742,
      "蘖": 2743,
      "蘭": 2744,
      "蘿": 2745,
      "虎": 2746,
      "虐": 2747,
      "處": 2748,
      "虛": 2749,
      "虜": 2750,
      "虞": 2751,
      "號": 2752,
      "虧": 2753,
      "虹": 2754,
      "蚊": 2755,
      "蛇": 2756,
      "蜀": 2757,
      "蜂": 2758,
      "蜜": 2759,
      "蝕": 2760,
      "蝗": 2761,
      "蝟": 2762,
      "蝦": 2763,
      "蝶": 2764,
      "蝸": 2765,
      "融": 2766,
      "螢": 2767,
      "螺": 2768,
      "蟄": 2769,
      "蟠": 2770,
      "蟲": 2771,
      "蟻": 2772,
      "蟾": 2773,
      "蠟": 2774,
      "蠶": 2775,
      "蠻": 2776,
      "血": 2777,
      "衆": 2778,
      "行": 2779,
      "衍": 2780,
      "術": 2781,
      "街": 2782,
      "衙": 2783,
      "衛": 2784,
      "衝": 2785,
      "衡": 2786,
      "衣": 2787,
      "表": 2788,
      "衫": 2789,
      "衰": 2790,
      "衲": 2791,
      "衷": 2792,
      "衿": 2793,
      "袁": 2794,
      "袈": 2795,
      "袍": 2796,
      "袖": 2797,
      "袞": 2798,
      "被": 2799,
      "裁": 2800,
      "裂": 2801,
      "裏": 2802,
      "裕": 2803,
      "補": 2804,
      "裝": 2805,
      "裟": 2806,
      "裨": 2807,
      "裳": 2808,
      "裵": 2809,
      "裸": 2810,
      "製": 2811,
      "複": 2812,
      "褒": 2813,
      "褓": 2814,
      "襄": 2815,
      "襟": 2816,
      "襲": 2817,
      "西": 2818,
      "要": 2819,
      "覆": 2820,
      "覇": 2821,
      "見": 2822,
      "規": 2823,
      "視": 2824,
      "親": 2825,
      "覺": 2826,
      "覽": 2827,
      "觀": 2828,
      "角": 2829,
      "解": 2830,
      "觸": 2831,
      "言": 2832,
      "訂": 2833,
      "訃": 2834,
      "計": 2835,
      "訊": 2836,
      "訌": 2837,
      "討": 2838,
      "訓": 2839,
      "託": 2840,
      "記": 2841,
      "訟": 2842,
      "訣": 2843,
      "訥": 2844,
      "訪": 2845,
      "設": 2846,
      "許": 2847,
      "訴": 2848,
      "診": 2849,
      "註": 2850,
      "詐": 2851,
      "詔": 2852,
      "評": 2853,
      "詞": 2854,
      "詠": 2855,
      "詢": 2856,
      "試": 2857,
      "詩": 2858,
      "話": 2859,
      "詳": 2860,
      "詹": 2861,
      "誅": 2862,
      "誌": 2863,
      "認": 2864,
      "誓": 2865,
      "誘": 2866,
      "語": 2867,
      "誠": 2868,
      "誤": 2869,
      "誥": 2870,
      "說": 2871,
      "課": 2872,
      "誼": 2873,
      "誾": 2874,
      "調": 2875,
      "談": 2876,
      "請": 2877,
      "諍": 2878,
      "論": 2879,
      "諜": 2880,
      "諡": 2881,
      "諦": 2882,
      "諫": 2883,
      "諭": 2884,
      "諱": 2885,
      "諸": 2886,
      "諺": 2887,
      "謀": 2888,
      "謁": 2889,
      "謂": 2890,
      "謎": 2891,
      "謖": 2892,
      "謙": 2893,
      "講": 2894,
      "謝": 2895,
      "謠": 2896,
      "謫": 2897,
      "謬": 2898,
      "謹": 2899,
      "證": 2900,
      "識": 2901,
      "譚": 2902,
      "譜": 2903,
      "警": 2904,
      "譯": 2905,
      "議": 2906,
      "護": 2907,
      "譽": 2908,
      "讀": 2909,
      "變": 2910,
      "讐": 2911,
      "讓": 2912,
      "讚": 2913,
      "谷": 2914,
      "豆": 2915,
      "豈": 2916,
      "豊": 2917,
      "豌": 2918,
      "豕": 2919,
      "豚": 2920,
      "象": 2921,
      "豪": 2922,
      "豫": 2923,
      "豹": 2924,
      "貂": 2925,
      "貌": 2926,
      "貝": 2927,
      "貞": 2928,
      "負": 2929,
      "財": 2930,
      "貢": 2931,
      "貧": 2932,
      "貨": 2933,
      "貪": 2934,
      "貫": 2935,
      "責": 2936,
      "貯": 2937,
      "貰": 2938,
      "貴": 2939,
      "貶": 2940,
      "買": 2941,
      "貸": 2942,
      "費": 2943,
      "賀": 2944,
      "賃": 2945,
      "資": 2946,
      "賈": 2947,
      "賊": 2948,
      "賑": 2949,
      "賓": 2950,
      "賜": 2951,
      "賞": 2952,
      "賠": 2953,
      "賢": 2954,
      "賣": 2955,
      "賤": 2956,
      "賦": 2957,
      "質": 2958,
      "賭": 2959,
      "購": 2960,
      "贄": 2961,
      "贅": 2962,
      "贈": 2963,
      "贊": 2964,
      "贖": 2965,
      "赤": 2966,
      "赦": 2967,
      "走": 2968,
      "赴": 2969,
      "起": 2970,
      "超": 2971,
      "越": 2972,
      "趙": 2973,
      "足": 2974,
      "趺": 2975,
      "趾": 2976,
      "跋": 2977,
      "距": 2978,
      "跡": 2979,
      "跨": 2980,
      "路": 2981,
      "跳": 2982,
      "踊": 2983,
      "踏": 2984,
      "踐": 2985,
      "蹂": 2986,
      "蹄": 2987,
      "蹊": 2988,
      "蹟": 2989,
      "蹴": 2990,
      "躇": 2991,
      "躊": 2992,
      "躍": 2993,
      "躪": 2994,
      "身": 2995,
      "躬": 2996,
      "軀": 2997,
      "車": 2998,
      "軌": 2999,
      "軍": 3000,
      "軒": 3001,
      "軟": 3002,
      "軸": 3003,
      "軾": 3004,
      "較": 3005,
      "載": 3006,
      "輒": 3007,
      "輓": 3008,
      "輔": 3009,
      "輕": 3010,
      "輝": 3011,
      "輩": 3012,
      "輪": 3013,
      "輸": 3014,
      "輾": 3015,
      "輿": 3016,
      "轄": 3017,
      "轉": 3018,
      "轍": 3019,
      "辛": 3020,
      "辜": 3021,
      "辣": 3022,
      "辦": 3023,
      "辨": 3024,
      "辭": 3025,
      "辯": 3026,
      "辰": 3027,
      "辱": 3028,
      "農": 3029,
      "迂": 3030,
      "迅": 3031,
      "迎": 3032,
      "近": 3033,
      "返": 3034,
      "迦": 3035,
      "迪": 3036,
      "迫": 3037,
      "述": 3038,
      "迷": 3039,
      "迹": 3040,
      "追": 3041,
      "退": 3042,
      "送": 3043,
      "逅": 3044,
      "逆": 3045,
      "逈": 3046,
      "逋": 3047,
      "逍": 3048,
      "透": 3049,
      "逐": 3050,
      "途": 3051,
      "通": 3052,
      "逝": 3053,
      "逞": 3054,
      "速": 3055,
      "造": 3056,
      "逢": 3057,
      "連": 3058,
      "逮": 3059,
      "週": 3060,
      "進": 3061,
      "逸": 3062,
      "遁": 3063,
      "遂": 3064,
      "遇": 3065,
      "遊": 3066,
      "運": 3067,
      "遍": 3068,
      "過": 3069,
      "道": 3070,
      "達": 3071,
      "違": 3072,
      "遙": 3073,
      "遜": 3074,
      "遠": 3075,
      "遡": 3076,
      "適": 3077,
      "遭": 3078,
      "遮": 3079,
      "遲": 3080,
      "遵": 3081,
      "遷": 3082,
      "選": 3083,
      "遺": 3084,
      "遼": 3085,
      "避": 3086,
      "邂": 3087,
      "還": 3088,
      "邇": 3089,
      "邈": 3090,
      "邊": 3091,
      "邑": 3092,
      "邕": 3093,
      "邢": 3094,
      "那": 3095,
      "邦": 3096,
      "邪": 3097,
      "邯": 3098,
      "邱": 3099,
      "邵": 3100,
      "邸": 3101,
      "郁": 3102,
      "郊": 3103,
      "郞": 3104,
      "郡": 3105,
      "部": 3106,
      "郭": 3107,
      "郵": 3108,
      "都": 3109,
      "鄂": 3110,
      "鄒": 3111,
      "鄕": 3112,
      "鄙": 3113,
      "鄧": 3114,
      "鄭": 3115,
      "鄲": 3116,
      "酉": 3117,
      "酊": 3118,
      "酌": 3119,
      "配": 3120,
      "酒": 3121,
      "酢": 3122,
      "酩": 3123,
      "酪": 3124,
      "酬": 3125,
      "酷": 3126,
      "酸": 3127,
      "醉": 3128,
      "醋": 3129,
      "醒": 3130,
      "醜": 3131,
      "醫": 3132,
      "醬": 3133,
      "醮": 3134,
      "醴": 3135,
      "釀": 3136,
      "采": 3137,
      "釋": 3138,
      "里": 3139,
      "重": 3140,
      "野": 3141,
      "量": 3142,
      "金": 3143,
      "釗": 3144,
      "釘": 3145,
      "釜": 3146,
      "針": 3147,
      "釣": 3148,
      "鈍": 3149,
      "鈴": 3150,
      "鈺": 3151,
      "鈿": 3152,
      "鉅": 3153,
      "鉉": 3154,
      "鉞": 3155,
      "鉢": 3156,
      "鉤": 3157,
      "銀": 3158,
      "銃": 3159,
      "銅": 3160,
      "銓": 3161,
      "銖": 3162,
      "銘": 3163,
      "銳": 3164,
      "銷": 3165,
      "鋒": 3166,
      "鋪": 3167,
      "鋼": 3168,
      "錄": 3169,
      "錘": 3170,
      "錢": 3171,
      "錦": 3172,
      "錨": 3173,
      "錫": 3174,
      "錯": 3175,
      "鍊": 3176,
      "鍋": 3177,
      "鍛": 3178,
      "鍵": 3179,
      "鍼": 3180,
      "鍾": 3181,
      "鎌": 3182,
      "鎔": 3183,
      "鎖": 3184,
      "鎣": 3185,
      "鎬": 3186,
      "鎭": 3187,
      "鎰": 3188,
      "鏃": 3189,
      "鏞": 3190,
      "鏡": 3191,
      "鐘": 3192,
      "鐵": 3193,
      "鐸": 3194,
      "鑄": 3195,
      "鑑": 3196,
      "鑛": 3197,
      "鑿": 3198,
      "長": 3199,
      "門": 3200,
      "閉": 3201,
      "開": 3202,
      "閑": 3203,
      "閒": 3204,
      "間": 3205,
      "閔": 3206,
      "閘": 3207,
      "閣": 3208,
      "閤": 3209,
      "閥": 3210,
      "閨": 3211,
      "閭": 3212,
      "閱": 3213,
      "閻": 3214,
      "闕": 3215,
      "關": 3216,
      "闢": 3217,
      "阜": 3218,
      "阪": 3219,
      "防": 3220,
      "阻": 3221,
      "阿": 3222,
      "陀": 3223,
      "附": 3224,
      "陋": 3225,
      "降": 3226,
      "限": 3227,
      "陛": 3228,
      "陜": 3229,
      "陝": 3230,
      "陟": 3231,
      "院": 3232,
      "陣": 3233,
      "除": 3234,
      "陰": 3235,
      "陳": 3236,
      "陵": 3237,
      "陶": 3238,
      "陸": 3239,
      "陽": 3240,
      "隅": 3241,
      "隆": 3242,
      "隊": 3243,
      "隍": 3244,
      "階": 3245,
      "隔": 3246,
      "隘": 3247,
      "隙": 3248,
      "際": 3249,
      "障": 3250,
      "隣": 3251,
      "隨": 3252,
      "險": 3253,
      "隱": 3254,
      "隷": 3255,
      "隸": 3256,
      "隻": 3257,
      "雀": 3258,
      "雁": 3259,
      "雄": 3260,
      "雅": 3261,
      "集": 3262,
      "雉": 3263,
      "雖": 3264,
      "雙": 3265,
      "雜": 3266,
      "離": 3267,
      "難": 3268,
      "雨": 3269,
      "雪": 3270,
      "雲": 3271,
      "零": 3272,
      "雷": 3273,
      "電": 3274,
      "需": 3275,
      "霆": 3276,
      "震": 3277,
      "霖": 3278,
      "霜": 3279,
      "霞": 3280,
      "霧": 3281,
      "露": 3282,
      "霽": 3283,
      "靄": 3284,
      "靈": 3285,
      "靑": 3286,
      "靖": 3287,
      "靜": 3288,
      "非": 3289,
      "面": 3290,
      "革": 3291,
      "靴": 3292,
      "鞍": 3293,
      "鞠": 3294,
      "鞭": 3295,
      "韋": 3296,
      "韓": 3297,
      "韜": 3298,
      "音": 3299,
      "韶": 3300,
      "韻": 3301,
      "響": 3302,
      "頂": 3303,
      "頃": 3304,
      "項": 3305,
      "順": 3306,
      "須": 3307,
      "頌": 3308,
      "預": 3309,
      "頑": 3310,
      "頓": 3311,
      "領": 3312,
      "頭": 3313,
      "頸": 3314,
      "顆": 3315,
      "題": 3316,
      "額": 3317,
      "顔": 3318,
      "願": 3319,
      "顚": 3320,
      "類": 3321,
      "顧": 3322,
      "顯": 3323,
      "風": 3324,
      "颱": 3325,
      "飛": 3326,
      "飜": 3327,
      "食": 3328,
      "飢": 3329,
      "飮": 3330,
      "飯": 3331,
      "飼": 3332,
      "飽": 3333,
      "飾": 3334,
      "餉": 3335,
      "養": 3336,
      "餌": 3337,
      "餐": 3338,
      "餓": 3339,
      "餘": 3340,
      "餠": 3341,
      "館": 3342,
      "饅": 3343,
      "饌": 3344,
      "饍": 3345,
      "饑": 3346,
      "饒": 3347,
      "饗": 3348,
      "首": 3349,
      "香": 3350,
      "馨": 3351,
      "馬": 3352,
      "馮": 3353,
      "馳": 3354,
      "駁": 3355,
      "駐": 3356,
      "駕": 3357,
      "駙": 3358,
      "駟": 3359,
      "駱": 3360,
      "駿": 3361,
      "騎": 3362,
      "騰": 3363,
      "騷": 3364,
      "驅": 3365,
      "驕": 3366,
      "驗": 3367,
      "驚": 3368,
      "驛": 3369,
      "驪": 3370,
      "骨": 3371,
      "骸": 3372,
      "髓": 3373,
      "體": 3374,
      "高": 3375,
      "髮": 3376,
      "鬧": 3377,
      "鬪": 3378,
      "鬱": 3379,
      "鬼": 3380,
      "魁": 3381,
      "魂": 3382,
      "魏": 3383,
      "魔": 3384,
      "魚": 3385,
      "魯": 3386,
      "鮑": 3387,
      "鮫": 3388,
      "鮮": 3389,
      "鯤": 3390,
      "鯨": 3391,
      "鰲": 3392,
      "鱗": 3393,
      "鳥": 3394,
      "鳳": 3395,
      "鳴": 3396,
      "鳶": 3397,
      "鴛": 3398,
      "鴦": 3399,
      "鴨": 3400,
      "鴻": 3401,
      "鵝": 3402,
      "鵡": 3403,
      "鵬": 3404,
      "鵲": 3405,
      "鶯": 3406,
      "鶴": 3407,
      "鷄": 3408,
      "鷗": 3409,
      "鷲": 3410,
      "鷹": 3411,
      "鷺": 3412,
      "鸚": 3413,
      "鸞": 3414,
      "鹵": 3415,
      "鹽": 3416,
      "鹿": 3417,
      "麒": 3418,
      "麗": 3419,
      "麟": 3420,
      "麥": 3421,
      "麴": 3422,
      "麵": 3423,
      "麻": 3424,
      "黃": 3425,
      "黎": 3426,
      "黑": 3427,
      "默": 3428,
      "黜": 3429,
      "點": 3430,
      "黨": 3431,
      "鼎": 3432,
      "鼓": 3433,
      "鼠": 3434,
      "鼻": 3435,
      "齊": 3436,
      "齋": 3437,
      "齎": 3438,
      "齒": 3439,
      "齡": 3440,
      "龍": 3441,
      "龜": 3442,
      "가": 3443,
      "각": 3444,
      "간": 3445,
      "갇": 3446,
      "갈": 3447,
      "갉": 3448,
      "갊": 3449,
      "감": 3450,
      "갑": 3451,
      "값": 3452,
      "갓": 3453,
      "갔": 3454,
      "강": 3455,
      "갖": 3456,
      "갗": 3457,
      "같": 3458,
      "갚": 3459,
      "갛": 3460,
      "개": 3461,
      "객": 3462,
      "갠": 3463,
      "갤": 3464,
      "갬": 3465,
      "갭": 3466,
      "갯": 3467,
      "갰": 3468,
      "갱": 3469,
      "갸": 3470,
      "갹": 3471,
      "갼": 3472,
      "걀": 3473,
      "걍": 3474,
      "걔": 3475,
      "걘": 3476,
      "거": 3477,
      "걱": 3478,
      "걲": 3479,
      "건": 3480,
      "걷": 3481,
      "걸": 3482,
      "걺": 3483,
      "검": 3484,
      "겁": 3485,
      "것": 3486,
      "겄": 3487,
      "겅": 3488,
      "겆": 3489,
      "겉": 3490,
      "겊": 3491,
      "겋": 3492,
      "게": 3493,
      "겐": 3494,
      "겔": 3495,
      "겜": 3496,
      "겟": 3497,
      "겠": 3498,
      "겡": 3499,
      "겨": 3500,
      "격": 3501,
      "겪": 3502,
      "견": 3503,
      "겯": 3504,
      "결": 3505,
      "겸": 3506,
      "겹": 3507,
      "겻": 3508,
      "겼": 3509,
      "경": 3510,
      "곁": 3511,
      "계": 3512,
      "곅": 3513,
      "곌": 3514,
      "곒": 3515,
      "곗": 3516,
      "곘": 3517,
      "곚": 3518,
      "고": 3519,
      "곡": 3520,
      "곤": 3521,
      "곧": 3522,
      "골": 3523,
      "곪": 3524,
      "곬": 3525,
      "곯": 3526,
      "곰": 3527,
      "곱": 3528,
      "곳": 3529,
      "공": 3530,
      "곶": 3531,
      "곸": 3532,
      "과": 3533,
      "곽": 3534,
      "관": 3535,
      "괄": 3536,
      "괌": 3537,
      "괍": 3538,
      "괏": 3539,
      "광": 3540,
      "괒": 3541,
      "괘": 3542,
      "괜": 3543,
      "괟": 3544,
      "괭": 3545,
      "괴": 3546,
      "괸": 3547,
      "굉": 3548,
      "교": 3549,
      "굑": 3550,
      "굛": 3551,
      "굣": 3552,
      "굥": 3553,
      "굪": 3554,
      "굫": 3555,
      "구": 3556,
      "국": 3557,
      "군": 3558,
      "굳": 3559,
      "굴": 3560,
      "굵": 3561,
      "굶": 3562,
      "굼": 3563,
      "굽": 3564,
      "굿": 3565,
      "궁": 3566,
      "궂": 3567,
      "궃": 3568,
      "궅": 3569,
      "궈": 3570,
      "궉": 3571,
      "권": 3572,
      "궐": 3573,
      "궜": 3574,
      "궝": 3575,
      "궤": 3576,
      "궨": 3577,
      "궷": 3578,
      "귀": 3579,
      "귄": 3580,
      "귈": 3581,
      "귐": 3582,
      "귓": 3583,
      "귕": 3584,
      "규": 3585,
      "균": 3586,
      "귤": 3587,
      "귱": 3588,
      "그": 3589,
      "극": 3590,
      "귺": 3591,
      "근": 3592,
      "귿": 3593,
      "글": 3594,
      "긁": 3595,
      "금": 3596,
      "급": 3597,
      "긋": 3598,
      "긍": 3599,
      "긔": 3600,
      "기": 3601,
      "긱": 3602,
      "긴": 3603,
      "긷": 3604,
      "길": 3605,
      "긿": 3606,
      "김": 3607,
      "깁": 3608,
      "깃": 3609,
      "깄": 3610,
      "깅": 3611,
      "깆": 3612,
      "깊": 3613,
      "까": 3614,
      "깍": 3615,
      "깎": 3616,
      "깐": 3617,
      "깔": 3618,
      "깜": 3619,
      "깝": 3620,
      "깟": 3621,
      "깠": 3622,
      "깡": 3623,
      "깥": 3624,
      "깨": 3625,
      "깬": 3626,
      "깰": 3627,
      "깸": 3628,
      "깹": 3629,
      "깻": 3630,
      "깼": 3631,
      "깽": 3632,
      "꺄": 3633,
      "꺠": 3634,
      "꺼": 3635,
      "꺽": 3636,
      "꺾": 3637,
      "껀": 3638,
      "껄": 3639,
      "껌": 3640,
      "껍": 3641,
      "껏": 3642,
      "껐": 3643,
      "껑": 3644,
      "께": 3645,
      "껜": 3646,
      "껠": 3647,
      "껫": 3648,
      "껴": 3649,
      "꼇": 3650,
      "꼈": 3651,
      "꼍": 3652,
      "꼐": 3653,
      "꼬": 3654,
      "꼭": 3655,
      "꼰": 3656,
      "꼴": 3657,
      "꼼": 3658,
      "꼽": 3659,
      "꼿": 3660,
      "꽁": 3661,
      "꽂": 3662,
      "꽃": 3663,
      "꽈": 3664,
      "꽉": 3665,
      "꽌": 3666,
      "꽐": 3667,
      "꽜": 3668,
      "꽝": 3669,
      "꽤": 3670,
      "꽥": 3671,
      "꽹": 3672,
      "꾀": 3673,
      "꾄": 3674,
      "꾐": 3675,
      "꾳": 3676,
      "꾸": 3677,
      "꾹": 3678,
      "꾼": 3679,
      "꿀": 3680,
      "꿇": 3681,
      "꿈": 3682,
      "꿉": 3683,
      "꿋": 3684,
      "꿍": 3685,
      "꿎": 3686,
      "꿏": 3687,
      "꿔": 3688,
      "꿧": 3689,
      "꿨": 3690,
      "꿩": 3691,
      "꿰": 3692,
      "꿴": 3693,
      "꿸": 3694,
      "뀄": 3695,
      "뀌": 3696,
      "뀐": 3697,
      "뀔": 3698,
      "뀜": 3699,
      "뀝": 3700,
      "뀨": 3701,
      "끄": 3702,
      "끈": 3703,
      "끊": 3704,
      "끌": 3705,
      "끎": 3706,
      "끓": 3707,
      "끔": 3708,
      "끕": 3709,
      "끗": 3710,
      "끙": 3711,
      "끝": 3712,
      "끼": 3713,
      "끽": 3714,
      "낀": 3715,
      "낄": 3716,
      "낌": 3717,
      "낍": 3718,
      "낏": 3719,
      "낑": 3720,
      "나": 3721,
      "낙": 3722,
      "낚": 3723,
      "난": 3724,
      "낞": 3725,
      "낟": 3726,
      "날": 3727,
      "낡": 3728,
      "낢": 3729,
      "남": 3730,
      "납": 3731,
      "낫": 3732,
      "났": 3733,
      "낭": 3734,
      "낮": 3735,
      "낯": 3736,
      "낱": 3737,
      "낳": 3738,
      "내": 3739,
      "낵": 3740,
      "낸": 3741,
      "낻": 3742,
      "낼": 3743,
      "냄": 3744,
      "냅": 3745,
      "냇": 3746,
      "냈": 3747,
      "냉": 3748,
      "냋": 3749,
      "냐": 3750,
      "냑": 3751,
      "냔": 3752,
      "냘": 3753,
      "냠": 3754,
      "냣": 3755,
      "냥": 3756,
      "냬": 3757,
      "너": 3758,
      "넉": 3759,
      "넋": 3760,
      "넌": 3761,
      "널": 3762,
      "넒": 3763,
      "넓": 3764,
      "넗": 3765,
      "넘": 3766,
      "넙": 3767,
      "넛": 3768,
      "넜": 3769,
      "넝": 3770,
      "넣": 3771,
      "네": 3772,
      "넥": 3773,
      "넨": 3774,
      "넬": 3775,
      "넴": 3776,
      "넵": 3777,
      "넷": 3778,
      "넸": 3779,
      "넹": 3780,
      "넺": 3781,
      "녀": 3782,
      "녁": 3783,
      "녃": 3784,
      "년": 3785,
      "녈": 3786,
      "념": 3787,
      "녑": 3788,
      "녓": 3789,
      "녔": 3790,
      "녕": 3791,
      "녘": 3792,
      "녜": 3793,
      "녠": 3794,
      "녤": 3795,
      "녰": 3796,
      "노": 3797,
      "녹": 3798,
      "논": 3799,
      "놀": 3800,
      "놈": 3801,
      "놉": 3802,
      "놋": 3803,
      "농": 3804,
      "놏": 3805,
      "높": 3806,
      "놓": 3807,
      "놔": 3808,
      "놨": 3809,
      "뇌": 3810,
      "뇐": 3811,
      "뇔": 3812,
      "뇨": 3813,
      "뇰": 3814,
      "뇸": 3815,
      "뇽": 3816,
      "누": 3817,
      "눅": 3818,
      "눈": 3819,
      "눋": 3820,
      "눌": 3821,
      "눔": 3822,
      "눕": 3823,
      "눗": 3824,
      "눙": 3825,
      "눠": 3826,
      "눴": 3827,
      "뉘": 3828,
      "뉜": 3829,
      "뉠": 3830,
      "뉨": 3831,
      "뉩": 3832,
      "뉴": 3833,
      "뉼": 3834,
      "늄": 3835,
      "늇": 3836,
      "늉": 3837,
      "느": 3838,
      "늑": 3839,
      "는": 3840,
      "늘": 3841,
      "늙": 3842,
      "늚": 3843,
      "늠": 3844,
      "능": 3845,
      "늦": 3846,
      "늪": 3847,
      "늬": 3848,
      "늴": 3849,
      "니": 3850,
      "닉": 3851,
      "닌": 3852,
      "닐": 3853,
      "님": 3854,
      "닙": 3855,
      "닛": 3856,
      "닝": 3857,
      "닢": 3858,
      "다": 3859,
      "닥": 3860,
      "닦": 3861,
      "단": 3862,
      "닫": 3863,
      "달": 3864,
      "닭": 3865,
      "닮": 3866,
      "닳": 3867,
      "담": 3868,
      "답": 3869,
      "닷": 3870,
      "당": 3871,
      "닻": 3872,
      "닽": 3873,
      "닿": 3874,
      "대": 3875,
      "댁": 3876,
      "댄": 3877,
      "댈": 3878,
      "댐": 3879,
      "댑": 3880,
      "댓": 3881,
      "댔": 3882,
      "댕": 3883,
      "댖": 3884,
      "댜": 3885,
      "댤": 3886,
      "댱": 3887,
      "더": 3888,
      "덕": 3889,
      "덖": 3890,
      "던": 3891,
      "덜": 3892,
      "덞": 3893,
      "덟": 3894,
      "덤": 3895,
      "덥": 3896,
      "덧": 3897,
      "덨": 3898,
      "덩": 3899,
      "덪": 3900,
      "덫": 3901,
      "덮": 3902,
      "데": 3903,
      "덱": 3904,
      "덴": 3905,
      "델": 3906,
      "뎀": 3907,
      "뎁": 3908,
      "뎃": 3909,
      "뎅": 3910,
      "뎌": 3911,
      "뎐": 3912,
      "뎠": 3913,
      "뎡": 3914,
      "뎨": 3915,
      "뎬": 3916,
      "도": 3917,
      "독": 3918,
      "돈": 3919,
      "돋": 3920,
      "돌": 3921,
      "돎": 3922,
      "돐": 3923,
      "돔": 3924,
      "돕": 3925,
      "돗": 3926,
      "동": 3927,
      "돛": 3928,
      "돝": 3929,
      "돟": 3930,
      "돠": 3931,
      "돤": 3932,
      "돨": 3933,
      "돼": 3934,
      "돾": 3935,
      "됀": 3936,
      "됏": 3937,
      "됐": 3938,
      "되": 3939,
      "됙": 3940,
      "된": 3941,
      "될": 3942,
      "됨": 3943,
      "됩": 3944,
      "됫": 3945,
      "됬": 3946,
      "됭": 3947,
      "됮": 3948,
      "됰": 3949,
      "됴": 3950,
      "둉": 3951,
      "두": 3952,
      "둑": 3953,
      "둔": 3954,
      "둘": 3955,
      "둠": 3956,
      "둡": 3957,
      "둣": 3958,
      "둥": 3959,
      "둬": 3960,
      "둴": 3961,
      "둿": 3962,
      "뒀": 3963,
      "뒈": 3964,
      "뒤": 3965,
      "뒨": 3966,
      "뒷": 3967,
      "뒸": 3968,
      "뒹": 3969,
      "듀": 3970,
      "듁": 3971,
      "듄": 3972,
      "듈": 3973,
      "듐": 3974,
      "드": 3975,
      "득": 3976,
      "든": 3977,
      "듣": 3978,
      "들": 3979,
      "듥": 3980,
      "듦": 3981,
      "듬": 3982,
      "듭": 3983,
      "듯": 3984,
      "등": 3985,
      "듸": 3986,
      "딀": 3987,
      "디": 3988,
      "딕": 3989,
      "딘": 3990,
      "딛": 3991,
      "딜": 3992,
      "딤": 3993,
      "딥": 3994,
      "딧": 3995,
      "딨": 3996,
      "딩": 3997,
      "딪": 3998,
      "딫": 3999,
      "딮": 4000,
      "따": 4001,
      "딱": 4002,
      "딴": 4003,
      "딸": 4004,
      "딹": 4005,
      "땀": 4006,
      "땁": 4007,
      "땃": 4008,
      "땄": 4009,
      "땅": 4010,
      "땋": 4011,
      "때": 4012,
      "땐": 4013,
      "땔": 4014,
      "땜": 4015,
      "땟": 4016,
      "땠": 4017,
      "땡": 4018,
      "땨": 4019,
      "땽": 4020,
      "떄": 4021,
      "떠": 4022,
      "떡": 4023,
      "떢": 4024,
      "떤": 4025,
      "떨": 4026,
      "떪": 4027,
      "떫": 4028,
      "떰": 4029,
      "떱": 4030,
      "떳": 4031,
      "떴": 4032,
      "떵": 4033,
      "떻": 4034,
      "떼": 4035,
      "떽": 4036,
      "뗀": 4037,
      "뗄": 4038,
      "뗌": 4039,
      "뗍": 4040,
      "뗏": 4041,
      "뗐": 4042,
      "뗑": 4043,
      "뗘": 4044,
      "뗳": 4045,
      "뗸": 4046,
      "또": 4047,
      "똑": 4048,
      "똔": 4049,
      "똘": 4050,
      "똠": 4051,
      "똣": 4052,
      "똥": 4053,
      "똬": 4054,
      "뙈": 4055,
      "뙜": 4056,
      "뙤": 4057,
      "뚁": 4058,
      "뚜": 4059,
      "뚝": 4060,
      "뚠": 4061,
      "뚤": 4062,
      "뚫": 4063,
      "뚬": 4064,
      "뚯": 4065,
      "뚱": 4066,
      "뚸": 4067,
      "뛰": 4068,
      "뛴": 4069,
      "뛸": 4070,
      "뜀": 4071,
      "뜁": 4072,
      "뜨": 4073,
      "뜩": 4074,
      "뜬": 4075,
      "뜯": 4076,
      "뜰": 4077,
      "뜸": 4078,
      "뜹": 4079,
      "뜻": 4080,
      "띄": 4081,
      "띈": 4082,
      "띌": 4083,
      "띔": 4084,
      "띕": 4085,
      "띠": 4086,
      "띡": 4087,
      "띤": 4088,
      "띨": 4089,
      "띰": 4090,
      "띱": 4091,
      "띳": 4092,
      "띵": 4093,
      "라": 4094,
      "락": 4095,
      "란": 4096,
      "랄": 4097,
      "람": 4098,
      "랍": 4099,
      "랏": 4100,
      "랐": 4101,
      "랑": 4102,
      "랒": 4103,
      "랖": 4104,
      "랗": 4105,
      "래": 4106,
      "랙": 4107,
      "랜": 4108,
      "랠": 4109,
      "램": 4110,
      "랩": 4111,
      "랫": 4112,
      "랬": 4113,
      "랭": 4114,
      "랲": 4115,
      "랴": 4116,
      "략": 4117,
      "랸": 4118,
      "럅": 4119,
      "량": 4120,
      "러": 4121,
      "럭": 4122,
      "런": 4123,
      "럴": 4124,
      "럼": 4125,
      "럽": 4126,
      "럿": 4127,
      "렀": 4128,
      "렁": 4129,
      "렇": 4130,
      "레": 4131,
      "렉": 4132,
      "렌": 4133,
      "렐": 4134,
      "렘": 4135,
      "렙": 4136,
      "렛": 4137,
      "렜": 4138,
      "렝": 4139,
      "려": 4140,
      "력": 4141,
      "련": 4142,
      "렬": 4143,
      "렴": 4144,
      "렵": 4145,
      "렶": 4146,
      "렷": 4147,
      "렸": 4148,
      "령": 4149,
      "례": 4150,
      "롄": 4151,
      "로": 4152,
      "록": 4153,
      "론": 4154,
      "롤": 4155,
      "롬": 4156,
      "롭": 4157,
      "롯": 4158,
      "롱": 4159,
      "롸": 4160,
      "롼": 4161,
      "뢀": 4162,
      "뢍": 4163,
      "뢰": 4164,
      "뢴": 4165,
      "뢾": 4166,
      "뢿": 4167,
      "룀": 4168,
      "룃": 4169,
      "료": 4170,
      "룍": 4171,
      "룐": 4172,
      "룔": 4173,
      "룖": 4174,
      "룟": 4175,
      "룡": 4176,
      "루": 4177,
      "룩": 4178,
      "룬": 4179,
      "룰": 4180,
      "룸": 4181,
      "룹": 4182,
      "룻": 4183,
      "룽": 4184,
      "뤄": 4185,
      "뤈": 4186,
      "뤘": 4187,
      "뤠": 4188,
      "뤤": 4189,
      "뤼": 4190,
      "뤽": 4191,
      "륀": 4192,
      "륄": 4193,
      "륏": 4194,
      "륑": 4195,
      "류": 4196,
      "륙": 4197,
      "륜": 4198,
      "률": 4199,
      "륨": 4200,
      "륭": 4201,
      "르": 4202,
      "륵": 4203,
      "른": 4204,
      "를": 4205,
      "름": 4206,
      "릅": 4207,
      "릇": 4208,
      "릉": 4209,
      "릍": 4210,
      "릎": 4211,
      "릐": 4212,
      "릘": 4213,
      "리": 4214,
      "릭": 4215,
      "린": 4216,
      "릲": 4217,
      "릳": 4218,
      "릴": 4219,
      "림": 4220,
      "립": 4221,
      "릿": 4222,
      "링": 4223,
      "맇": 4224,
      "마": 4225,
      "막": 4226,
      "만": 4227,
      "맍": 4228,
      "많": 4229,
      "맏": 4230,
      "말": 4231,
      "맑": 4232,
      "맘": 4233,
      "맙": 4234,
      "맛": 4235,
      "망": 4236,
      "맞": 4237,
      "맟": 4238,
      "맡": 4239,
      "맣": 4240,
      "매": 4241,
      "맥": 4242,
      "맨": 4243,
      "맬": 4244,
      "맴": 4245,
      "맵": 4246,
      "맷": 4247,
      "맸": 4248,
      "맹": 4249,
      "맺": 4250,
      "먀": 4251,
      "먁": 4252,
      "먄": 4253,
      "먓": 4254,
      "먕": 4255,
      "머": 4256,
      "먹": 4257,
      "먼": 4258,
      "멀": 4259,
      "멈": 4260,
      "멉": 4261,
      "멋": 4262,
      "멍": 4263,
      "멎": 4264,
      "멓": 4265,
      "메": 4266,
      "멕": 4267,
      "멘": 4268,
      "멜": 4269,
      "멤": 4270,
      "멥": 4271,
      "멧": 4272,
      "멨": 4273,
      "멩": 4274,
      "멪": 4275,
      "며": 4276,
      "멱": 4277,
      "면": 4278,
      "멸": 4279,
      "몀": 4280,
      "몃": 4281,
      "몄": 4282,
      "명": 4283,
      "몆": 4284,
      "몇": 4285,
      "몊": 4286,
      "몌": 4287,
      "몐": 4288,
      "모": 4289,
      "목": 4290,
      "몫": 4291,
      "몬": 4292,
      "몰": 4293,
      "몲": 4294,
      "몸": 4295,
      "몹": 4296,
      "못": 4297,
      "몽": 4298,
      "뫼": 4299,
      "묀": 4300,
      "묄": 4301,
      "묏": 4302,
      "묑": 4303,
      "묘": 4304,
      "묙": 4305,
      "묜": 4306,
      "묠": 4307,
      "묫": 4308,
      "묭": 4309,
      "무": 4310,
      "묵": 4311,
      "묶": 4312,
      "문": 4313,
      "묻": 4314,
      "물": 4315,
      "묽": 4316,
      "묾": 4317,
      "뭄": 4318,
      "뭅": 4319,
      "뭇": 4320,
      "뭉": 4321,
      "뭍": 4322,
      "뭏": 4323,
      "뭐": 4324,
      "뭔": 4325,
      "뭘": 4326,
      "뭡": 4327,
      "뭣": 4328,
      "뭤": 4329,
      "뭬": 4330,
      "뮈": 4331,
      "뮌": 4332,
      "뮐": 4333,
      "뮙": 4334,
      "뮤": 4335,
      "뮨": 4336,
      "뮬": 4337,
      "뮴": 4338,
      "뮹": 4339,
      "므": 4340,
      "믄": 4341,
      "믈": 4342,
      "믐": 4343,
      "믓": 4344,
      "믕": 4345,
      "미": 4346,
      "믹": 4347,
      "민": 4348,
      "믾": 4349,
      "믿": 4350,
      "밀": 4351,
      "밈": 4352,
      "밉": 4353,
      "밋": 4354,
      "밌": 4355,
      "밍": 4356,
      "밎": 4357,
      "및": 4358,
      "밑": 4359,
      "바": 4360,
      "박": 4361,
      "밖": 4362,
      "반": 4363,
      "받": 4364,
      "발": 4365,
      "밝": 4366,
      "밞": 4367,
      "밟": 4368,
      "밠": 4369,
      "밤": 4370,
      "밥": 4371,
      "밧": 4372,
      "방": 4373,
      "밪": 4374,
      "밭": 4375,
      "배": 4376,
      "백": 4377,
      "밴": 4378,
      "밷": 4379,
      "밸": 4380,
      "뱀": 4381,
      "뱁": 4382,
      "뱃": 4383,
      "뱄": 4384,
      "뱅": 4385,
      "뱉": 4386,
      "뱌": 4387,
      "뱍": 4388,
      "뱎": 4389,
      "뱐": 4390,
      "뱕": 4391,
      "뱡": 4392,
      "버": 4393,
      "벅": 4394,
      "번": 4395,
      "벋": 4396,
      "벌": 4397,
      "범": 4398,
      "법": 4399,
      "벗": 4400,
      "벙": 4401,
      "벚": 4402,
      "벛": 4403,
      "베": 4404,
      "벡": 4405,
      "벤": 4406,
      "벧": 4407,
      "벨": 4408,
      "벰": 4409,
      "벱": 4410,
      "벳": 4411,
      "벵": 4412,
      "벼": 4413,
      "벽": 4414,
      "변": 4415,
      "별": 4416,
      "볍": 4417,
      "볏": 4418,
      "볐": 4419,
      "병": 4420,
      "볕": 4421,
      "볜": 4422,
      "보": 4423,
      "복": 4424,
      "볶": 4425,
      "본": 4426,
      "볼": 4427,
      "봄": 4428,
      "봅": 4429,
      "봇": 4430,
      "봉": 4431,
      "봐": 4432,
      "봔": 4433,
      "봘": 4434,
      "봤": 4435,
      "봬": 4436,
      "뵀": 4437,
      "뵈": 4438,
      "뵌": 4439,
      "뵐": 4440,
      "뵘": 4441,
      "뵙": 4442,
      "뵤": 4443,
      "부": 4444,
      "북": 4445,
      "분": 4446,
      "붆": 4447,
      "붇": 4448,
      "불": 4449,
      "붉": 4450,
      "붏": 4451,
      "붐": 4452,
      "붑": 4453,
      "붓": 4454,
      "붕": 4455,
      "붖": 4456,
      "붙": 4457,
      "붜": 4458,
      "붠": 4459,
      "붸": 4460,
      "뷔": 4461,
      "뷘": 4462,
      "뷜": 4463,
      "뷰": 4464,
      "뷴": 4465,
      "뷸": 4466,
      "븀": 4467,
      "븉": 4468,
      "브": 4469,
      "븍": 4470,
      "븐": 4471,
      "블": 4472,
      "븟": 4473,
      "븠": 4474,
      "븸": 4475,
      "비": 4476,
      "빅": 4477,
      "빈": 4478,
      "빋": 4479,
      "빌": 4480,
      "빍": 4481,
      "빔": 4482,
      "빕": 4483,
      "빗": 4484,
      "빙": 4485,
      "빚": 4486,
      "빛": 4487,
      "빠": 4488,
      "빡": 4489,
      "빤": 4490,
      "빨": 4491,
      "빰": 4492,
      "빳": 4493,
      "빴": 4494,
      "빵": 4495,
      "빻": 4496,
      "빼": 4497,
      "빽": 4498,
      "뺀": 4499,
      "뺄": 4500,
      "뺌": 4501,
      "뺍": 4502,
      "뺏": 4503,
      "뺐": 4504,
      "뺑": 4505,
      "뺘": 4506,
      "뺨": 4507,
      "뺴": 4508,
      "뻐": 4509,
      "뻑": 4510,
      "뻔": 4511,
      "뻗": 4512,
      "뻘": 4513,
      "뻣": 4514,
      "뻤": 4515,
      "뻥": 4516,
      "뻬": 4517,
      "뼈": 4518,
      "뼉": 4519,
      "뼘": 4520,
      "뼛": 4521,
      "뼝": 4522,
      "뽀": 4523,
      "뽁": 4524,
      "뽄": 4525,
      "뽈": 4526,
      "뽐": 4527,
      "뽑": 4528,
      "뽕": 4529,
      "뾰": 4530,
      "뿅": 4531,
      "뿌": 4532,
      "뿍": 4533,
      "뿐": 4534,
      "뿔": 4535,
      "뿜": 4536,
      "뿟": 4537,
      "뿡": 4538,
      "쀠": 4539,
      "쁘": 4540,
      "쁜": 4541,
      "쁠": 4542,
      "쁨": 4543,
      "쁩": 4544,
      "삐": 4545,
      "삑": 4546,
      "삔": 4547,
      "삘": 4548,
      "삠": 4549,
      "삣": 4550,
      "삥": 4551,
      "사": 4552,
      "삭": 4553,
      "삯": 4554,
      "산": 4555,
      "삳": 4556,
      "살": 4557,
      "삵": 4558,
      "삶": 4559,
      "삷": 4560,
      "삼": 4561,
      "삽": 4562,
      "삿": 4563,
      "샀": 4564,
      "상": 4565,
      "샂": 4566,
      "샅": 4567,
      "새": 4568,
      "색": 4569,
      "샌": 4570,
      "샏": 4571,
      "샐": 4572,
      "샘": 4573,
      "샙": 4574,
      "샛": 4575,
      "샜": 4576,
      "생": 4577,
      "샤": 4578,
      "샥": 4579,
      "샨": 4580,
      "샬": 4581,
      "샴": 4582,
      "샵": 4583,
      "샷": 4584,
      "샹": 4585,
      "샾": 4586,
      "섀": 4587,
      "섄": 4588,
      "섐": 4589,
      "서": 4590,
      "석": 4591,
      "섞": 4592,
      "선": 4593,
      "섣": 4594,
      "설": 4595,
      "섥": 4596,
      "섦": 4597,
      "섧": 4598,
      "섬": 4599,
      "섭": 4600,
      "섯": 4601,
      "섰": 4602,
      "성": 4603,
      "섶": 4604,
      "세": 4605,
      "섹": 4606,
      "센": 4607,
      "셀": 4608,
      "셈": 4609,
      "셉": 4610,
      "셋": 4611,
      "셌": 4612,
      "셍": 4613,
      "셐": 4614,
      "셑": 4615,
      "셔": 4616,
      "션": 4617,
      "셜": 4618,
      "셤": 4619,
      "셥": 4620,
      "셧": 4621,
      "셨": 4622,
      "셩": 4623,
      "셰": 4624,
      "셴": 4625,
      "셸": 4626,
      "솃": 4627,
      "솅": 4628,
      "소": 4629,
      "속": 4630,
      "솎": 4631,
      "손": 4632,
      "솔": 4633,
      "솜": 4634,
      "솝": 4635,
      "솟": 4636,
      "송": 4637,
      "솥": 4638,
      "솦": 4639,
      "솨": 4640,
      "솬": 4641,
      "솽": 4642,
      "쇄": 4643,
      "쇠": 4644,
      "쇤": 4645,
      "쇨": 4646,
      "쇳": 4647,
      "쇼": 4648,
      "쇽": 4649,
      "숀": 4650,
      "숄": 4651,
      "숌": 4652,
      "숍": 4653,
      "숏": 4654,
      "숑": 4655,
      "숔": 4656,
      "수": 4657,
      "숙": 4658,
      "순": 4659,
      "숟": 4660,
      "술": 4661,
      "숨": 4662,
      "숩": 4663,
      "숫": 4664,
      "숭": 4665,
      "숯": 4666,
      "숱": 4667,
      "숲": 4668,
      "숴": 4669,
      "숸": 4670,
      "쉄": 4671,
      "쉈": 4672,
      "쉐": 4673,
      "쉑": 4674,
      "쉔": 4675,
      "쉘": 4676,
      "쉣": 4677,
      "쉥": 4678,
      "쉬": 4679,
      "쉰": 4680,
      "쉴": 4681,
      "쉼": 4682,
      "쉽": 4683,
      "쉿": 4684,
      "슁": 4685,
      "슈": 4686,
      "슉": 4687,
      "슌": 4688,
      "슐": 4689,
      "슘": 4690,
      "슛": 4691,
      "슝": 4692,
      "스": 4693,
      "슥": 4694,
      "슨": 4695,
      "슬": 4696,
      "슭": 4697,
      "슴": 4698,
      "습": 4699,
      "슷": 4700,
      "승": 4701,
      "슼": 4702,
      "슽": 4703,
      "싀": 4704,
      "시": 4705,
      "식": 4706,
      "신": 4707,
      "싣": 4708,
      "실": 4709,
      "싫": 4710,
      "심": 4711,
      "십": 4712,
      "싯": 4713,
      "싱": 4714,
      "싶": 4715,
      "싷": 4716,
      "싸": 4717,
      "싹": 4718,
      "싺": 4719,
      "싼": 4720,
      "쌀": 4721,
      "쌈": 4722,
      "쌉": 4723,
      "쌌": 4724,
      "쌍": 4725,
      "쌓": 4726,
      "쌔": 4727,
      "쌕": 4728,
      "쌘": 4729,
      "쌤": 4730,
      "쌩": 4731,
      "쌰": 4732,
      "쌴": 4733,
      "썅": 4734,
      "써": 4735,
      "썩": 4736,
      "썪": 4737,
      "썬": 4738,
      "썰": 4739,
      "썸": 4740,
      "썹": 4741,
      "썼": 4742,
      "썽": 4743,
      "쎄": 4744,
      "쎈": 4745,
      "쎌": 4746,
      "쎔": 4747,
      "쎘": 4748,
      "쎙": 4749,
      "쎼": 4750,
      "쏘": 4751,
      "쏙": 4752,
      "쏜": 4753,
      "쏟": 4754,
      "쏠": 4755,
      "쏨": 4756,
      "쏩": 4757,
      "쏫": 4758,
      "쏭": 4759,
      "쏴": 4760,
      "쐇": 4761,
      "쐈": 4762,
      "쐐": 4763,
      "쐝": 4764,
      "쐬": 4765,
      "쐰": 4766,
      "쐴": 4767,
      "쑈": 4768,
      "쑤": 4769,
      "쑥": 4770,
      "쑨": 4771,
      "쑬": 4772,
      "쑴": 4773,
      "쑵": 4774,
      "쑹": 4775,
      "쒀": 4776,
      "쒄": 4777,
      "쒔": 4778,
      "쒜": 4779,
      "쒸": 4780,
      "쓩": 4781,
      "쓰": 4782,
      "쓱": 4783,
      "쓴": 4784,
      "쓸": 4785,
      "쓿": 4786,
      "씀": 4787,
      "씁": 4788,
      "씅": 4789,
      "씌": 4790,
      "씐": 4791,
      "씨": 4792,
      "씩": 4793,
      "씬": 4794,
      "씰": 4795,
      "씸": 4796,
      "씹": 4797,
      "씻": 4798,
      "씼": 4799,
      "씽": 4800,
      "아": 4801,
      "악": 4802,
      "안": 4803,
      "앉": 4804,
      "않": 4805,
      "알": 4806,
      "앍": 4807,
      "앎": 4808,
      "앓": 4809,
      "암": 4810,
      "압": 4811,
      "앖": 4812,
      "앗": 4813,
      "았": 4814,
      "앙": 4815,
      "앚": 4816,
      "앜": 4817,
      "앝": 4818,
      "앞": 4819,
      "앟": 4820,
      "애": 4821,
      "액": 4822,
      "앢": 4823,
      "앤": 4824,
      "앨": 4825,
      "앰": 4826,
      "앱": 4827,
      "앳": 4828,
      "앴": 4829,
      "앵": 4830,
      "야": 4831,
      "약": 4832,
      "얀": 4833,
      "얄": 4834,
      "얇": 4835,
      "얌": 4836,
      "얍": 4837,
      "얏": 4838,
      "얐": 4839,
      "양": 4840,
      "얕": 4841,
      "얗": 4842,
      "얘": 4843,
      "얜": 4844,
      "얠": 4845,
      "얬": 4846,
      "어": 4847,
      "억": 4848,
      "얶": 4849,
      "언": 4850,
      "얹": 4851,
      "얻": 4852,
      "얼": 4853,
      "얽": 4854,
      "엄": 4855,
      "업": 4856,
      "없": 4857,
      "엇": 4858,
      "었": 4859,
      "엉": 4860,
      "엊": 4861,
      "엌": 4862,
      "엎": 4863,
      "에": 4864,
      "엑": 4865,
      "엔": 4866,
      "엘": 4867,
      "엠": 4868,
      "엡": 4869,
      "엣": 4870,
      "엤": 4871,
      "엥": 4872,
      "엦": 4873,
      "엪": 4874,
      "여": 4875,
      "역": 4876,
      "엮": 4877,
      "연": 4878,
      "엲": 4879,
      "열": 4880,
      "엶": 4881,
      "엷": 4882,
      "염": 4883,
      "엽": 4884,
      "엾": 4885,
      "엿": 4886,
      "였": 4887,
      "영": 4888,
      "옅": 4889,
      "옆": 4890,
      "옇": 4891,
      "예": 4892,
      "옉": 4893,
      "옌": 4894,
      "옐": 4895,
      "옘": 4896,
      "옙": 4897,
      "옛": 4898,
      "옜": 4899,
      "오": 4900,
      "옥": 4901,
      "온": 4902,
      "올": 4903,
      "옭": 4904,
      "옮": 4905,
      "옯": 4906,
      "옳": 4907,
      "옴": 4908,
      "옵": 4909,
      "옷": 4910,
      "옸": 4911,
      "옹": 4912,
      "옻": 4913,
      "와": 4914,
      "왁": 4915,
      "완": 4916,
      "왈": 4917,
      "왐": 4918,
      "왑": 4919,
      "왓": 4920,
      "왔": 4921,
      "왕": 4922,
      "왜": 4923,
      "왝": 4924,
      "왠": 4925,
      "왱": 4926,
      "외": 4927,
      "왼": 4928,
      "욀": 4929,
      "욋": 4930,
      "욌": 4931,
      "욍": 4932,
      "요": 4933,
      "욕": 4934,
      "욘": 4935,
      "욜": 4936,
      "욤": 4937,
      "욧": 4938,
      "용": 4939,
      "욯": 4940,
      "우": 4941,
      "욱": 4942,
      "욳": 4943,
      "운": 4944,
      "울": 4945,
      "움": 4946,
      "웁": 4947,
      "웃": 4948,
      "웅": 4949,
      "웉": 4950,
      "워": 4951,
      "웍": 4952,
      "원": 4953,
      "월": 4954,
      "웜": 4955,
      "웝": 4956,
      "웟": 4957,
      "웠": 4958,
      "웡": 4959,
      "웥": 4960,
      "웨": 4961,
      "웩": 4962,
      "웬": 4963,
      "웰": 4964,
      "웸": 4965,
      "웹": 4966,
      "웻": 4967,
      "웽": 4968,
      "위": 4969,
      "윅": 4970,
      "윈": 4971,
      "윌": 4972,
      "윔": 4973,
      "윕": 4974,
      "윗": 4975,
      "윙": 4976,
      "유": 4977,
      "육": 4978,
      "윢": 4979,
      "윤": 4980,
      "윥": 4981,
      "율": 4982,
      "윰": 4983,
      "윱": 4984,
      "윳": 4985,
      "융": 4986,
      "윷": 4987,
      "윹": 4988,
      "으": 4989,
      "윽": 4990,
      "윾": 4991,
      "은": 4992,
      "을": 4993,
      "읊": 4994,
      "읋": 4995,
      "음": 4996,
      "읍": 4997,
      "읏": 4998,
      "응": 4999,
      "읕": 5000,
      "읖": 5001,
      "읗": 5002,
      "의": 5003,
      "읙": 5004,
      "읜": 5005,
      "읠": 5006,
      "읫": 5007,
      "읭": 5008,
      "이": 5009,
      "익": 5010,
      "읶": 5011,
      "인": 5012,
      "읹": 5013,
      "읺": 5014,
      "읻": 5015,
      "일": 5016,
      "읽": 5017,
      "읿": 5018,
      "잃": 5019,
      "임": 5020,
      "입": 5021,
      "잆": 5022,
      "잇": 5023,
      "있": 5024,
      "잉": 5025,
      "잊": 5026,
      "잋": 5027,
      "잌": 5028,
      "잎": 5029,
      "자": 5030,
      "작": 5031,
      "잔": 5032,
      "잖": 5033,
      "잗": 5034,
      "잘": 5035,
      "잚": 5036,
      "잠": 5037,
      "잡": 5038,
      "잣": 5039,
      "잤": 5040,
      "장": 5041,
      "잦": 5042,
      "잩": 5043,
      "재": 5044,
      "잭": 5045,
      "잰": 5046,
      "잴": 5047,
      "잼": 5048,
      "잽": 5049,
      "잿": 5050,
      "쟀": 5051,
      "쟁": 5052,
      "쟂": 5053,
      "쟈": 5054,
      "쟉": 5055,
      "쟌": 5056,
      "쟎": 5057,
      "쟘": 5058,
      "쟛": 5059,
      "쟝": 5060,
      "쟤": 5061,
      "저": 5062,
      "적": 5063,
      "전": 5064,
      "절": 5065,
      "젊": 5066,
      "젋": 5067,
      "점": 5068,
      "접": 5069,
      "젓": 5070,
      "젔": 5071,
      "정": 5072,
      "젖": 5073,
      "제": 5074,
      "젝": 5075,
      "젠": 5076,
      "젤": 5077,
      "젬": 5078,
      "젭": 5079,
      "젯": 5080,
      "젱": 5081,
      "져": 5082,
      "젹": 5083,
      "젼": 5084,
      "젾": 5085,
      "젿": 5086,
      "졀": 5087,
      "졈": 5088,
      "졉": 5089,
      "졊": 5090,
      "졋": 5091,
      "졌": 5092,
      "졍": 5093,
      "졔": 5094,
      "졕": 5095,
      "조": 5096,
      "족": 5097,
      "존": 5098,
      "졸": 5099,
      "좀": 5100,
      "좁": 5101,
      "종": 5102,
      "좇": 5103,
      "좋": 5104,
      "좌": 5105,
      "좔": 5106,
      "좡": 5107,
      "좨": 5108,
      "좼": 5109,
      "죄": 5110,
      "죈": 5111,
      "죌": 5112,
      "죔": 5113,
      "죗": 5114,
      "죘": 5115,
      "죙": 5116,
      "죠": 5117,
      "죤": 5118,
      "죵": 5119,
      "주": 5120,
      "죽": 5121,
      "준": 5122,
      "줂": 5123,
      "줄": 5124,
      "줌": 5125,
      "줍": 5126,
      "줏": 5127,
      "중": 5128,
      "줗": 5129,
      "줘": 5130,
      "줬": 5131,
      "줴": 5132,
      "줼": 5133,
      "쥐": 5134,
      "쥔": 5135,
      "쥘": 5136,
      "쥡": 5137,
      "쥬": 5138,
      "쥰": 5139,
      "쥴": 5140,
      "쥼": 5141,
      "즈": 5142,
      "즉": 5143,
      "즌": 5144,
      "즐": 5145,
      "즘": 5146,
      "즙": 5147,
      "즛": 5148,
      "증": 5149,
      "지": 5150,
      "직": 5151,
      "짂": 5152,
      "진": 5153,
      "짇": 5154,
      "질": 5155,
      "짊": 5156,
      "짐": 5157,
      "집": 5158,
      "짒": 5159,
      "짓": 5160,
      "징": 5161,
      "짖": 5162,
      "짙": 5163,
      "짚": 5164,
      "짜": 5165,
      "짝": 5166,
      "짠": 5167,
      "짢": 5168,
      "짤": 5169,
      "짦": 5170,
      "짧": 5171,
      "짬": 5172,
      "짭": 5173,
      "짰": 5174,
      "짱": 5175,
      "째": 5176,
      "짹": 5177,
      "짼": 5178,
      "쨈": 5179,
      "쨉": 5180,
      "쨋": 5181,
      "쨌": 5182,
      "쨍": 5183,
      "쨔": 5184,
      "쨕": 5185,
      "쨩": 5186,
      "쨰": 5187,
      "쩌": 5188,
      "쩍": 5189,
      "쩐": 5190,
      "쩔": 5191,
      "쩜": 5192,
      "쩝": 5193,
      "쩡": 5194,
      "쩨": 5195,
      "쩬": 5196,
      "쪄": 5197,
      "쪘": 5198,
      "쪼": 5199,
      "쪽": 5200,
      "쪾": 5201,
      "쫀": 5202,
      "쫄": 5203,
      "쫌": 5204,
      "쫑": 5205,
      "쫒": 5206,
      "쫓": 5207,
      "쫙": 5208,
      "쫭": 5209,
      "쫴": 5210,
      "쬐": 5211,
      "쬔": 5212,
      "쬘": 5213,
      "쬠": 5214,
      "쭈": 5215,
      "쭉": 5216,
      "쭌": 5217,
      "쭐": 5218,
      "쭘": 5219,
      "쭙": 5220,
      "쭝": 5221,
      "쭤": 5222,
      "쭸": 5223,
      "쮜": 5224,
      "쮠": 5225,
      "쮸": 5226,
      "쯔": 5227,
      "쯕": 5228,
      "쯤": 5229,
      "쯧": 5230,
      "쯩": 5231,
      "찌": 5232,
      "찍": 5233,
      "찐": 5234,
      "찔": 5235,
      "찜": 5236,
      "찝": 5237,
      "찟": 5238,
      "찡": 5239,
      "찢": 5240,
      "찧": 5241,
      "차": 5242,
      "착": 5243,
      "찬": 5244,
      "찮": 5245,
      "찰": 5246,
      "참": 5247,
      "찹": 5248,
      "찻": 5249,
      "찼": 5250,
      "창": 5251,
      "찾": 5252,
      "찿": 5253,
      "챂": 5254,
      "채": 5255,
      "책": 5256,
      "챈": 5257,
      "챌": 5258,
      "챔": 5259,
      "챕": 5260,
      "챗": 5261,
      "챘": 5262,
      "챙": 5263,
      "챜": 5264,
      "챠": 5265,
      "챤": 5266,
      "챦": 5267,
      "챨": 5268,
      "챵": 5269,
      "처": 5270,
      "척": 5271,
      "천": 5272,
      "철": 5273,
      "첨": 5274,
      "첩": 5275,
      "첫": 5276,
      "첬": 5277,
      "청": 5278,
      "체": 5279,
      "첵": 5280,
      "첸": 5281,
      "첼": 5282,
      "쳄": 5283,
      "쳇": 5284,
      "쳉": 5285,
      "쳐": 5286,
      "쳔": 5287,
      "쳘": 5288,
      "쳠": 5289,
      "쳣": 5290,
      "쳤": 5291,
      "쳥": 5292,
      "쳬": 5293,
      "초": 5294,
      "촉": 5295,
      "촌": 5296,
      "촐": 5297,
      "촘": 5298,
      "촙": 5299,
      "촛": 5300,
      "총": 5301,
      "촤": 5302,
      "촨": 5303,
      "촬": 5304,
      "촹": 5305,
      "최": 5306,
      "쵠": 5307,
      "쵤": 5308,
      "쵯": 5309,
      "쵲": 5310,
      "쵷": 5311,
      "쵸": 5312,
      "춀": 5313,
      "춈": 5314,
      "추": 5315,
      "축": 5316,
      "춘": 5317,
      "출": 5318,
      "춣": 5319,
      "춤": 5320,
      "춥": 5321,
      "춧": 5322,
      "충": 5323,
      "춰": 5324,
      "춴": 5325,
      "췄": 5326,
      "췌": 5327,
      "췐": 5328,
      "취": 5329,
      "췬": 5330,
      "췰": 5331,
      "췻": 5332,
      "츄": 5333,
      "츅": 5334,
      "츈": 5335,
      "츌": 5336,
      "츕": 5337,
      "츙": 5338,
      "츠": 5339,
      "측": 5340,
      "츤": 5341,
      "츨": 5342,
      "츰": 5343,
      "층": 5344,
      "츼": 5345,
      "치": 5346,
      "칙": 5347,
      "친": 5348,
      "칠": 5349,
      "칡": 5350,
      "칢": 5351,
      "침": 5352,
      "칩": 5353,
      "칫": 5354,
      "칭": 5355,
      "카": 5356,
      "칵": 5357,
      "칸": 5358,
      "칼": 5359,
      "캄": 5360,
      "캅": 5361,
      "캇": 5362,
      "캉": 5363,
      "캐": 5364,
      "캑": 5365,
      "캔": 5366,
      "캘": 5367,
      "캠": 5368,
      "캡": 5369,
      "캣": 5370,
      "캤": 5371,
      "캥": 5372,
      "캬": 5373,
      "커": 5374,
      "컥": 5375,
      "컨": 5376,
      "컫": 5377,
      "컬": 5378,
      "컴": 5379,
      "컵": 5380,
      "컷": 5381,
      "컸": 5382,
      "컹": 5383,
      "컽": 5384,
      "케": 5385,
      "켁": 5386,
      "켄": 5387,
      "켈": 5388,
      "켐": 5389,
      "켑": 5390,
      "켓": 5391,
      "켔": 5392,
      "켕": 5393,
      "켜": 5394,
      "켠": 5395,
      "켤": 5396,
      "켬": 5397,
      "켭": 5398,
      "켰": 5399,
      "켱": 5400,
      "코": 5401,
      "콕": 5402,
      "콘": 5403,
      "콜": 5404,
      "콤": 5405,
      "콥": 5406,
      "콧": 5407,
      "콩": 5408,
      "콬": 5409,
      "콰": 5410,
      "콱": 5411,
      "콴": 5412,
      "콸": 5413,
      "쾀": 5414,
      "쾃": 5415,
      "쾅": 5416,
      "쾌": 5417,
      "쾡": 5418,
      "쾨": 5419,
      "쾰": 5420,
      "쿄": 5421,
      "쿠": 5422,
      "쿡": 5423,
      "쿤": 5424,
      "쿨": 5425,
      "쿰": 5426,
      "쿱": 5427,
      "쿳": 5428,
      "쿵": 5429,
      "쿼": 5430,
      "쿽": 5431,
      "퀀": 5432,
      "퀄": 5433,
      "퀘": 5434,
      "퀜": 5435,
      "퀠": 5436,
      "퀭": 5437,
      "퀴": 5438,
      "퀵": 5439,
      "퀸": 5440,
      "퀼": 5441,
      "큄": 5442,
      "큅": 5443,
      "큇": 5444,
      "큐": 5445,
      "큘": 5446,
      "큠": 5447,
      "크": 5448,
      "큭": 5449,
      "큰": 5450,
      "클": 5451,
      "큼": 5452,
      "큽": 5453,
      "킁": 5454,
      "킅": 5455,
      "키": 5456,
      "킥": 5457,
      "킨": 5458,
      "킬": 5459,
      "킴": 5460,
      "킵": 5461,
      "킷": 5462,
      "킹": 5463,
      "타": 5464,
      "탁": 5465,
      "탄": 5466,
      "탈": 5467,
      "탉": 5468,
      "탐": 5469,
      "탑": 5470,
      "탓": 5471,
      "탔": 5472,
      "탕": 5473,
      "탙": 5474,
      "태": 5475,
      "택": 5476,
      "탠": 5477,
      "탤": 5478,
      "탬": 5479,
      "탭": 5480,
      "탯": 5481,
      "탰": 5482,
      "탱": 5483,
      "탸": 5484,
      "탹": 5485,
      "터": 5486,
      "턱": 5487,
      "턴": 5488,
      "털": 5489,
      "텀": 5490,
      "텁": 5491,
      "텃": 5492,
      "텄": 5493,
      "텅": 5494,
      "테": 5495,
      "텍": 5496,
      "텐": 5497,
      "텔": 5498,
      "템": 5499,
      "텝": 5500,
      "텟": 5501,
      "텡": 5502,
      "텨": 5503,
      "텼": 5504,
      "톄": 5505,
      "톈": 5506,
      "토": 5507,
      "톡": 5508,
      "톤": 5509,
      "톨": 5510,
      "톰": 5511,
      "톱": 5512,
      "톳": 5513,
      "통": 5514,
      "톺": 5515,
      "톼": 5516,
      "퇀": 5517,
      "퇘": 5518,
      "퇴": 5519,
      "툇": 5520,
      "툐": 5521,
      "툥": 5522,
      "투": 5523,
      "툭": 5524,
      "툰": 5525,
      "툴": 5526,
      "툶": 5527,
      "툼": 5528,
      "툽": 5529,
      "툿": 5530,
      "퉁": 5531,
      "퉈": 5532,
      "퉜": 5533,
      "퉤": 5534,
      "튀": 5535,
      "튁": 5536,
      "튄": 5537,
      "튈": 5538,
      "튐": 5539,
      "튕": 5540,
      "튜": 5541,
      "튠": 5542,
      "튤": 5543,
      "튬": 5544,
      "튱": 5545,
      "트": 5546,
      "특": 5547,
      "튼": 5548,
      "튽": 5549,
      "튿": 5550,
      "틀": 5551,
      "틈": 5552,
      "틋": 5553,
      "틍": 5554,
      "틑": 5555,
      "틔": 5556,
      "틜": 5557,
      "티": 5558,
      "틱": 5559,
      "틴": 5560,
      "틸": 5561,
      "팀": 5562,
      "팁": 5563,
      "팃": 5564,
      "팅": 5565,
      "파": 5566,
      "팍": 5567,
      "팎": 5568,
      "판": 5569,
      "팔": 5570,
      "팜": 5571,
      "팝": 5572,
      "팟": 5573,
      "팠": 5574,
      "팡": 5575,
      "팥": 5576,
      "패": 5577,
      "팩": 5578,
      "팬": 5579,
      "팰": 5580,
      "팸": 5581,
      "팹": 5582,
      "팻": 5583,
      "팼": 5584,
      "팽": 5585,
      "퍄": 5586,
      "퍅": 5587,
      "퍈": 5588,
      "퍙": 5589,
      "퍠": 5590,
      "퍼": 5591,
      "퍽": 5592,
      "펀": 5593,
      "펄": 5594,
      "펌": 5595,
      "펍": 5596,
      "펏": 5597,
      "펐": 5598,
      "펑": 5599,
      "페": 5600,
      "펙": 5601,
      "펜": 5602,
      "펠": 5603,
      "펨": 5604,
      "펩": 5605,
      "펫": 5606,
      "펭": 5607,
      "펴": 5608,
      "펵": 5609,
      "편": 5610,
      "펼": 5611,
      "폄": 5612,
      "폈": 5613,
      "평": 5614,
      "폋": 5615,
      "폐": 5616,
      "포": 5617,
      "폭": 5618,
      "폰": 5619,
      "폴": 5620,
      "폼": 5621,
      "폽": 5622,
      "폿": 5623,
      "퐁": 5624,
      "퐈": 5625,
      "퐌": 5626,
      "퐝": 5627,
      "푀": 5628,
      "푄": 5629,
      "푈": 5630,
      "표": 5631,
      "푝": 5632,
      "푠": 5633,
      "푭": 5634,
      "푯": 5635,
      "푸": 5636,
      "푹": 5637,
      "푼": 5638,
      "풀": 5639,
      "풂": 5640,
      "품": 5641,
      "풉": 5642,
      "풋": 5643,
      "풍": 5644,
      "퓌": 5645,
      "퓨": 5646,
      "퓰": 5647,
      "퓸": 5648,
      "퓻": 5649,
      "프": 5650,
      "픅": 5651,
      "픈": 5652,
      "플": 5653,
      "픔": 5654,
      "픕": 5655,
      "픙": 5656,
      "픞": 5657,
      "픠": 5658,
      "피": 5659,
      "픽": 5660,
      "핀": 5661,
      "필": 5662,
      "핋": 5663,
      "핌": 5664,
      "핍": 5665,
      "핏": 5666,
      "핑": 5667,
      "하": 5668,
      "학": 5669,
      "한": 5670,
      "핟": 5671,
      "할": 5672,
      "핡": 5673,
      "핥": 5674,
      "핧": 5675,
      "함": 5676,
      "합": 5677,
      "핫": 5678,
      "핬": 5679,
      "항": 5680,
      "핮": 5681,
      "핳": 5682,
      "해": 5683,
      "핵": 5684,
      "핶": 5685,
      "핷": 5686,
      "핸": 5687,
      "핼": 5688,
      "햄": 5689,
      "햅": 5690,
      "햇": 5691,
      "했": 5692,
      "행": 5693,
      "햊": 5694,
      "햎": 5695,
      "햐": 5696,
      "햔": 5697,
      "햘": 5698,
      "햝": 5699,
      "햠": 5700,
      "햡": 5701,
      "햤": 5702,
      "향": 5703,
      "헀": 5704,
      "헁": 5705,
      "허": 5706,
      "헉": 5707,
      "헌": 5708,
      "헐": 5709,
      "험": 5710,
      "헙": 5711,
      "헛": 5712,
      "헝": 5713,
      "헤": 5714,
      "헥": 5715,
      "헨": 5716,
      "헬": 5717,
      "헴": 5718,
      "헵": 5719,
      "헷": 5720,
      "헸": 5721,
      "헹": 5722,
      "혀": 5723,
      "혁": 5724,
      "현": 5725,
      "혈": 5726,
      "혐": 5727,
      "협": 5728,
      "혓": 5729,
      "혔": 5730,
      "형": 5731,
      "혜": 5732,
      "호": 5733,
      "혹": 5734,
      "혼": 5735,
      "홀": 5736,
      "홁": 5737,
      "홈": 5738,
      "홉": 5739,
      "홋": 5740,
      "홍": 5741,
      "홑": 5742,
      "화": 5743,
      "확": 5744,
      "환": 5745,
      "홛": 5746,
      "활": 5747,
      "홤": 5748,
      "홥": 5749,
      "홧": 5750,
      "황": 5751,
      "홪": 5752,
      "홰": 5753,
      "횃": 5754,
      "횄": 5755,
      "회": 5756,
      "획": 5757,
      "횐": 5758,
      "횔": 5759,
      "횝": 5760,
      "횟": 5761,
      "횡": 5762,
      "횧": 5763,
      "효": 5764,
      "횰": 5765,
      "횽": 5766,
      "후": 5767,
      "훅": 5768,
      "훈": 5769,
      "훌": 5770,
      "훑": 5771,
      "훓": 5772,
      "훔": 5773,
      "훕": 5774,
      "훗": 5775,
      "훙": 5776,
      "훝": 5777,
      "훠": 5778,
      "훤": 5779,
      "훨": 5780,
      "훼": 5781,
      "훽": 5782,
      "휀": 5783,
      "휄": 5784,
      "휑": 5785,
      "휘": 5786,
      "휙": 5787,
      "휜": 5788,
      "휠": 5789,
      "휨": 5790,
      "휩": 5791,
      "휭": 5792,
      "휴": 5793,
      "휸": 5794,
      "휼": 5795,
      "흄": 5796,
      "흉": 5797,
      "흐": 5798,
      "흑": 5799,
      "흔": 5800,
      "흗": 5801,
      "흘": 5802,
      "흙": 5803,
      "흠": 5804,
      "흡": 5805,
      "흥": 5806,
      "흩": 5807,
      "흫": 5808,
      "희": 5809,
      "흭": 5810,
      "흰": 5811,
      "흽": 5812,
      "히": 5813,
      "힉": 5814,
      "힌": 5815,
      "힐": 5816,
      "힘": 5817,
      "힙": 5818,
      "힛": 5819,
      "힝": 5820,
      "": 5821,
      "": 5822,
      "": 5823,
      "": 5824,
      "으로": 5825,
      "했다": 5826,
      "에서": 5827,
      "하는": 5828,
      "있다": 5829,
      "하고": 5830,
      "이다": 5831,
      "20": 5832,
      "한다": 5833,
      "00": 5834,
      "사업": 5835,
      "있는": 5836,
      "지난": 5837,
      "지역": 5838,
      "이라": 5839,
      "까지": 5840,
      "대한": 5841,
      "기업": 5842,
      "부터": 5843,
      "201": 5844,
      "지원": 5845,
      "위해": 5846,
      "한국": 5847,
      "된다": 5848,
      "지만": 5849,
      "들이": 5850,
      "면서": 5851,
      "적인": 5852,
      "적으로": 5853,
      "10": 5854,
      "교육": 5855,
      "됐다": 5856,
      "것으로": 5857,
      "통해": 5858,
      "정부": 5859,
      "하기": 5860,
      "에게": 5861,
      "에는": 5862,
      "시장": 5863,
      "기자": 5864,
      "하다": 5865,
      "었다": 5866,
      "이번": 5867,
      "위원": 5868,
      "말했다": 5869,
      "들의": 5870,
      "산업": 5871,
      "위한": 5872,
      "혔다": 5873,
      "계획": 5874,
      "이어": 5875,
      "관계": 5876,
      "경제": 5877,
      "대표": 5878,
      "밝혔다": 5879,
      "하게": 5880,
      "하여": 5881,
      "겠다": 5882,
      "도록": 5883,
      "진행": 5884,
      "되는": 5885,
      "함께": 5886,
      "사회": 5887,
      "추진": 5888,
      "문화": 5889,
      "등을": 5890,
      "기술": 5891,
      "자는": 5892,
      "개발": 5893,
      "운영": 5894,
      "경우": 5895,
      "관련": 5896,
      "이라고": 5897,
      "장은": 5898,
      "억원": 5899,
      "대상": 5900,
      "연구": 5901,
      "아니": 5902,
      "보다": 5903,
      "가능": 5904,
      "올해": 5905,
      "의원": 5906,
      "대해": 5907,
      "서울": 5908,
      "학교": 5909,
      "경기": 5910,
      "지난해": 5911,
      "19": 5912,
      "도시": 5913,
      "하지": 5914,
      "이상": 5915,
      "시간": 5916,
      "에도": 5917,
      "관리": 5918,
      "환경": 5919,
      "문제": 5920,
      "11": 5921,
      "았다": 5922,
      "제공": 5923,
      "30": 5924,
      "사를": 5925,
      "예정": 5926,
      "안전": 5927,
      "센터": 5928,
      "정책": 5929,
      "12": 5930,
      "해야": 5931,
      "시설": 5932,
      "기관": 5933,
      "),": 5934,
      "따라": 5935,
      "투자": 5936,
      "들은": 5937,
      "하며": 5938,
      "비스": 5939,
      "프로": 5940,
      "참여": 5941,
      "필요": 5942,
      "없다": 5943,
      "에서는": 5944,
      "우리": 5945,
      "학생": 5946,
      "자리": 5947,
      "시민": 5948,
      "주민": 5949,
      "000": 5950,
      "서비스": 5951,
      "것이": 5952,
      "통령": 5953,
      "으며": 5954,
      "것이다": 5955,
      "다양": 5956,
      "국내": 5957,
      "대통령": 5958,
      "회의": 5959,
      "광주": 5960,
      "장을": 5961,
      "성을": 5962,
      "들어": 5963,
      "같은": 5964,
      "결과": 5965,
      "15": 5966,
      "전문": 5967,
      "조사": 5968,
      "국가": 5969,
      "발전": 5970,
      "세계": 5971,
      "평가": 5972,
      "력을": 5973,
      "만원": 5974,
      "상황": 5975,
      "국민": 5976,
      "활동": 5977,
      "다양한": 5978,
      "이날": 5979,
      "금융": 5980,
      "졌다": 5981,
      "특히": 5982,
      "기준": 5983,
      "대로": 5984,
      "되고": 5985,
      "하면": 5986,
      "미국": 5987,
      "였다": 5988,
      "하겠다": 5989,
      "사용": 5990,
      "이용": 5991,
      "기를": 5992,
      "것은": 5993,
      "전국": 5994,
      "때문": 5995,
      "르면": 5996,
      "이후": 5997,
      "대구": 5998,
      "자가": 5999,
      "최근": 6000,
      "현재": 6001,
      "마련": 6002,
      "있도록": 6003,
      "일본": 6004,
      "위원회": 6005,
      "정보": 6006,
      "규모": 6007,
      "이를": 6008,
      "지를": 6009,
      "오는": 6010,
      "따르면": 6011,
      "국회": 6012,
      "공사": 6013,
      "18": 6014,
      "관광": 6015,
      "발생": 6016,
      "도로": 6017,
      "행사": 6018,
      "정을": 6019,
      "개선": 6020,
      "제주": 6021,
      "지방": 6022,
      "기간": 6023,
      "이에": 6024,
      "이나": 6025,
      "건설": 6026,
      "확대": 6027,
      "co": 6028,
      "단체": 6029,
      "50": 6030,
      "중국": 6031,
      "기대": 6032,
      "강화": 6033,
      "들을": 6034,
      "증가": 6035,
      "관계자는": 6036,
      "있어": 6037,
      "이는": 6038,
      "시작": 6039,
      "리는": 6040,
      "공동": 6041,
      "지는": 6042,
      "민주": 6043,
      "선정": 6044,
      "피해": 6045,
      "제품": 6046,
      "성장": 6047,
      "업체": 6048,
      "시는": 6049,
      "분야": 6050,
      "서는": 6051,
      "활용": 6052,
      "예산": 6053,
      "없는": 6054,
      "하지만": 6055,
      "설명": 6056,
      "대회": 6057,
      "등의": 6058,
      "부산": 6059,
      "13": 6060,
      "사실": 6061,
      "라는": 6062,
      "가장": 6063,
      "하면서": 6064,
      "동안": 6065,
      "주택": 6066,
      "200": 6067,
      "25": 6068,
      "예정이다": 6069,
      "혁신": 6070,
      "14": 6071,
      "거래": 6072,
      "라고": 6073,
      "발표": 6074,
      "2019": 6075,
      "행정": 6076,
      "그램": 6077,
      "조성": 6078,
      "은행": 6079,
      "자의": 6080,
      "경찰": 6081,
      "모두": 6082,
      "명이": 6083,
      "한편": 6084,
      "장이": 6085,
      "의회": 6086,
      "가운": 6087,
      "스트": 6088,
      "100": 6089,
      "협력": 6090,
      "개최": 6091,
      "교통": 6092,
      "특별": 6093,
      "등이": 6094,
      "성이": 6095,
      "판매": 6096,
      "성과": 6097,
      "16": 6098,
      "생활": 6099,
      "내용": 6100,
      "17": 6101,
      "대비": 6102,
      "기록": 6103,
      "가운데": 6104,
      "%)": 6105,
      "해당": 6106,
      "..": 6107,
      "시행": 6108,
      "이라는": 6109,
      "방안": 6110,
      "복지": 6111,
      "이고": 6112,
      "많은": 6113,
      "들에게": 6114,
      "국제": 6115,
      "인천": 6116,
      "프로그램": 6117,
      "확인": 6118,
      "생산": 6119,
      "보고": 6120,
      "마트": 6121,
      "사고": 6122,
      "수출": 6123,
      "대학": 6124,
      "다른": 6125,
      "1일": 6126,
      "다는": 6127,
      "거나": 6128,
      "22": 6129,
      "화를": 6130,
      "지속": 6131,
      "회사": 6132,
      "자체": 6133,
      "지고": 6134,
      "설치": 6135,
      "사람": 6136,
      "구성": 6137,
      "24": 6138,
      "적극": 6139,
      "신청": 6140,
      "계획이다": 6141,
      "미래": 6142,
      "수는": 6143,
      "기에": 6144,
      "상을": 6145,
      "그러": 6146,
      "로운": 6147,
      "원을": 6148,
      "현장": 6149,
      "아이": 6150,
      "시스": 6151,
      "가는": 6152,
      "업무": 6153,
      "포함": 6154,
      "상품": 6155,
      "없이": 6156,
      "자동": 6157,
      "과정": 6158,
      "경쟁": 6159,
      "방문": 6160,
      "중심": 6161,
      "리를": 6162,
      "아니라": 6163,
      "결정": 6164,
      "전망": 6165,
      "공공": 6166,
      "운동": 6167,
      "사진": 6168,
      "노동": 6169,
      "만큼": 6170,
      "한다는": 6171,
      "명의": 6172,
      "소비": 6173,
      "현대": 6174,
      "일자리": 6175,
      "계약": 6176,
      "확보": 6177,
      "점을": 6178,
      "또한": 6179,
      "행위": 6180,
      "선거": 6181,
      "나타": 6182,
      "적용": 6183,
      "제로": 6184,
      "대책": 6185,
      "열린": 6186,
      "분석": 6187,
      "요구": 6188,
      "내년": 6189,
      "구축": 6190,
      "가격": 6191,
      "23": 6192,
      "장관": 6193,
      "7년": 6194,
      "수준": 6195,
      "제도": 6196,
      "정치": 6197,
      "이라며": 6198,
      "이유": 6199,
      "랜드": 6200,
      "원이": 6201,
      "대상으로": 6202,
      "공개": 6203,
      "보험": 6204,
      "등에": 6205,
      "후보": 6206,
      "것을": 6207,
      "앞으로": 6208,
      "대전": 6209,
      "추가": 6210,
      "직접": 6211,
      "전남": 6212,
      "부는": 6213,
      "실시": 6214,
      "왔다": 6215,
      "리고": 6216,
      "수도": 6217,
      "중소": 6218,
      "개정": 6219,
      "사업을": 6220,
      "회를": 6221,
      "시스템": 6222,
      "고객": 6223,
      "청년": 6224,
      "글로": 6225,
      "우수": 6226,
      "건강": 6227,
      "어려": 6228,
      "최대": 6229,
      "북한": 6230,
      "활성": 6231,
      "자를": 6232,
      "는다": 6233,
      "기존": 6234,
      "치를": 6235,
      "경영": 6236,
      "사는": 6237,
      "40": 6238,
      "비롯": 6239,
      "한다고": 6240,
      "28": 6241,
      "하나": 6242,
      "주요": 6243,
      "했다고": 6244,
      "부분": 6245,
      "보인": 6246,
      "정상": 6247,
      "종합": 6248,
      "체험": 6249,
      "났다": 6250,
      "전체": 6251,
      "소득": 6252,
      "레이": 6253,
      "시아": 6254,
      "26": 6255,
      "스타": 6256,
      "에서도": 6257,
      "최고": 6258,
      "참석": 6259,
      "원의": 6260,
      "라인": 6261,
      "관심": 6262,
      "1년": 6263,
      "기가": 6264,
      "27": 6265,
      "삼성": 6266,
      "자유": 6267,
      "감소": 6268,
      "울산": 6269,
      "명을": 6270,
      "글로벌": 6271,
      "일까지": 6272,
      "지적": 6273,
      "전북": 6274,
      "일부": 6275,
      "데이": 6276,
      "규제": 6277,
      "강조": 6278,
      "com": 6279,
      "조합": 6280,
      "의를": 6281,
      "선수": 6282,
      "의료": 6283,
      "준비": 6284,
      "파트": 6285,
      "책임": 6286,
      "해외": 6287,
      "원은": 6288,
      "또는": 6289,
      "마을": 6290,
      "충북": 6291,
      "들과": 6292,
      "스마트": 6293,
      "근로": 6294,
      "대응": 6295,
      "규정": 6296,
      "오후": 6297,
      "따른": 6298,
      "새로운": 6299,
      "있다는": 6300,
      "인이": 6301,
      "5년": 6302,
      "받아": 6303,
      "on": 6304,
      "자치": 6305,
      "효과": 6306,
      "일반": 6307,
      "금을": 6308,
      "페이": 6309,
      "방송": 6310,
      "전자": 6311,
      "단지": 6312,
      "보호": 6313,
      "공간": 6314,
      "기반": 6315,
      "노력": 6316,
      "자동차": 6317,
      "사건": 6318,
      "식을": 6319,
      "사례": 6320,
      "지정": 6321,
      "29": 6322,
      "높은": 6323,
      "공급": 6324,
      "민주당": 6325,
      "영향": 6326,
      "의견": 6327,
      "일부터": 6328,
      "관한": 6329,
      "사가": 6330,
      "체육": 6331,
      "고용": 6332,
      "도가": 6333,
      "그룹": 6334,
      "가구": 6335,
      "개월": 6336,
      "되지": 6337,
      "평균": 6338,
      "인의": 6339,
      "상승": 6340,
      "한국당": 6341,
      "가족": 6342,
      "사이": 6343,
      "물론": 6344,
      "도는": 6345,
      "기념": 6346,
      "부담": 6347,
      "다시": 6348,
      "자신": 6349,
      "처리": 6350,
      "이전": 6351,
      "검찰": 6352,
      "이뤄": 6353,
      "라도": 6354,
      "협약": 6355,
      "당시": 6356,
      "더욱": 6357,
      "소년": 6358,
      "영업": 6359,
      "받은": 6360,
      "도를": 6361,
      "회장": 6362,
      "업계": 6363,
      "기로": 6364,
      "보인다": 6365,
      "중요": 6366,
      "처럼": 6367,
      "예상": 6368,
      "때문에": 6369,
      "8년": 6370,
      "지급": 6371,
      "m2": 6372,
      "유치": 6373,
      "두고": 6374,
      "여성": 6375,
      "주장": 6376,
      "장애": 6377,
      "시가": 6378,
      "모든": 6379,
      "선을": 6380,
      "되어": 6381,
      "구조": 6382,
      "전략": 6383,
      "중앙": 6384,
      "이런": 6385,
      "우려": 6386,
      "2017년": 6387,
      "이미": 6388,
      "있을": 6389,
      "공연": 6390,
      "60": 6391,
      "인정": 6392,
      "도입": 6393,
      "모습": 6394,
      "차량": 6395,
      "시에": 6396,
      "부가": 6397,
      "만들": 6398,
      "했고": 6399,
      "해결": 6400,
      "상태": 6401,
      "등으로": 6402,
      "렸다": 6403,
      "거리": 6404,
      "생각": 6405,
      "않고": 6406,
      "역할": 6407,
      "주는": 6408,
      "건축": 6409,
      "3년": 6410,
      "위를": 6411,
      "창업": 6412,
      "수요": 6413,
      "이며": 6414,
      "의미": 6415,
      "는데": 6416,
      "과학": 6417,
      "성공": 6418,
      "받고": 6419,
      "제1": 6420,
      "세대": 6421,
      "으나": 6422,
      "권을": 6423,
      "너지": 6424,
      "나라": 6425,
      "참가": 6426,
      "알려": 6427,
      "수사": 6428,
      "지난달": 6429,
      "분양": 6430,
      "원에": 6431,
      "이익": 6432,
      "않은": 6433,
      "역시": 6434,
      "했던": 6435,
      "정부가": 6436,
      "절차": 6437,
      "가지": 6438,
      "각각": 6439,
      "수가": 6440,
      ")'": 6441,
      "유지": 6442,
      "주의": 6443,
      "예술": 6444,
      "직원": 6445,
      "그는": 6446,
      "법률": 6447,
      "불어": 6448,
      "판단": 6449,
      "6년": 6450,
      "지도": 6451,
      "지금": 6452,
      "집중": 6453,
      "자로": 6454,
      "활성화": 6455,
      "아파트": 6456,
      "농업": 6457,
      "브랜드": 6458,
      "매출": 6459,
      "때문이다": 6460,
      "등록": 6461,
      "반도": 6462,
      "그러나": 6463,
      "기는": 6464,
      "바이": 6465,
      "사항": 6466,
      "경북": 6467,
      "홍보": 6468,
      "목표": 6469,
      "축제": 6470,
      "니다": 6471,
      "민간": 6472,
      "전문가": 6473,
      "체계": 6474,
      "달러": 6475,
      "앞서": 6476,
      "2년": 6477,
      "이하": 6478,
      "설명했다": 6479,
      "어린": 6480,
      "하기로": 6481,
      "처음": 6482,
      "안을": 6483,
      "공무": 6484,
      "우선": 6485,
      "자인": 6486,
      "감사": 6487,
      "반영": 6488,
      "검토": 6489,
      "비용": 6490,
      "청와": 6491,
      "사무": 6492,
      "임금": 6493,
      "다음": 6494,
      "기능": 6495,
      "수를": 6496,
      "kr": 6497,
      "버스": 6498,
      "통신": 6499,
      "소재": 6500,
      "찾아": 6501,
      "기획": 6502,
      "식품": 6503,
      "청와대": 6504,
      "전기": 6505,
      "기본": 6506,
      "중소기업": 6507,
      "단계": 6508,
      "동산": 6509,
      "라이": 6510,
      "처분": 6511,
      "신고": 6512,
      "본부": 6513,
      "고려": 6514,
      "제2": 6515,
      "청소년": 6516,
      "씨는": 6517,
      "인구": 6518,
      "공정": 6519,
      "논의": 6520,
      "강조했다": 6521,
      "70": 6522,
      "대를": 6523,
      "에너지": 6524,
      "%,": 6525,
      "미세": 6526,
      "예방": 6527,
      "늘어": 6528,
      "개인": 6529,
      "전시": 6530,
      "이었다": 6531,
      "반기": 6532,
      "조정": 6533,
      "필요한": 6534,
      "세종": 6535,
      "통합": 6536,
      "므로": 6537,
      "제한": 6538,
      "분기": 6539,
      "만에": 6540,
      "받았다": 6541,
      "병원": 6542,
      "기도": 6543,
      "체결": 6544,
      "자료": 6545,
      "부문": 6546,
      "방법": 6547,
      "방식": 6548,
      "공모": 6549,
      "핵심": 6550,
      "80": 6551,
      "시키": 6552,
      "재정": 6553,
      "오전": 6554,
      "조치": 6555,
      "있다고": 6556,
      "중인": 6557,
      "안정": 6558,
      "인사": 6559,
      "취업": 6560,
      "제시": 6561,
      "데이터": 6562,
      "의원은": 6563,
      "진다": 6564,
      "모델": 6565,
      "자원": 6566,
      "일보": 6567,
      "교육청": 6568,
      "서를": 6569,
      "보면": 6570,
      "정부는": 6571,
      "지가": 6572,
      "지에": 6573,
      "감독": 6574,
      "제를": 6575,
      "밖에": 6576,
      "차지": 6577,
      "충남": 6578,
      "되면": 6579,
      "으면": 6580,
      "합의": 6581,
      "제기": 6582,
      "통한": 6583,
      "공항": 6584,
      "재인": 6585,
      "있으며": 6586,
      "외국": 6587,
      "1만": 6588,
      "지지": 6589,
      "부동산": 6590,
      "대표는": 6591,
      "역사": 6592,
      "변화": 6593,
      "지자체": 6594,
      "정부의": 6595,
      "력이": 6596,
      "점검": 6597,
      "세를": 6598,
      "더불어": 6599,
      "감을": 6600,
      "리가": 6601,
      "이사": 6602,
      "공원": 6603,
      "제작": 6604,
      "제3": 6605,
      "사회적": 6606,
      "평화": 6607,
      "물을": 6608,
      "미세먼": 6609,
      "인을": 6610,
      "il": 6611,
      "좋은": 6612,
      "이와": 6613,
      "SK": 6614,
      "인터": 6615,
      "공유": 6616,
      "...": 6617,
      "별로": 6618,
      "9월": 6619,
      "2019년": 6620,
      "보여": 6621,
      "LG": 6622,
      "6월": 6623,
      "했지만": 6624,
      "항공": 6625,
      "시청": 6626,
      "최종": 6627,
      "다고": 6628,
      "방침": 6629,
      "설립": 6630,
      "불법": 6631,
      "신규": 6632,
      "사랑": 6633,
      "in": 6634,
      "an": 6635,
      "3월": 6636,
      "전년": 6637,
      "받을": 6638,
      "나타났다": 6639,
      "제조": 6640,
      "지구": 6641,
      "문재인": 6642,
      "현실": 6643,
      "',": 6644,
      "만들어": 6645,
      "활동을": 6646,
      "있고": 6647,
      "필요하다": 6648,
      "전환": 6649,
      "7월": 6650,
      "국토": 6651,
      "협회": 6652,
      "대출": 6653,
      "보건": 6654,
      "er": 6655,
      "영화": 6656,
      "제출": 6657,
      "이해": 6658,
      "경기도": 6659,
      "최초": 6660,
      "10월": 6661,
      "움을": 6662,
      "계속": 6663,
      "않는": 6664,
      "서비스를": 6665,
      "가치": 6666,
      "부를": 6667,
      "구매": 6668,
      "치료": 6669,
      "조직": 6670,
      "4년": 6671,
      "번째": 6672,
      "수익": 6673,
      "의무": 6674,
      "향후": 6675,
      "4월": 6676,
      "수상": 6677,
      "연계": 6678,
      "정의": 6679,
      "주시": 6680,
      "정도": 6681,
      "2020": 6682,
      "아닌": 6683,
      "하려": 6684,
      "출시": 6685,
      "본격": 6686,
      "8월": 6687,
      "협의": 6688,
      "소를": 6689,
      "카드": 6690,
      "있었다": 6691,
      "5월": 6692,
      "재단": 6693,
      "대형": 6694,
      "과의": 6695,
      "회담": 6696,
      "%),": 6697,
      "드러": 6698,
      "하락": 6699,
      "확정": 6700,
      "여러": 6701,
      "크게": 6702,
      "하도록": 6703,
      "2018년": 6704,
      "창출": 6705,
      "방안을": 6706,
      "상당": 6707,
      "무역": 6708,
      "위험": 6709,
      "소유": 6710,
      "그동안": 6711,
      "법인": 6712,
      "스포": 6713,
      "위원장": 6714,
      "하거나": 6715,
      "음을": 6716,
      "소비자": 6717,
      "부모": 6718,
      "란다": 6719,
      "500": 6720,
      "전했다": 6721,
      "TV": 6722,
      "텐츠": 6723,
      "상담": 6724,
      "심사": 6725,
      "떨어": 6726,
      "범죄": 6727,
      "아니다": 6728,
      "교수": 6729,
      "민국": 6730,
      "변경": 6731,
      "않았다": 6732,
      "재산": 6733,
      "대한민국": 6734,
      "각종": 6735,
      "인트": 6736,
      "해양": 6737,
      "어린이": 6738,
      "나가": 6739,
      "사의": 6740,
      "금액": 6741,
      "바란다": 6742,
      "방향": 6743,
      "더라도": 6744,
      "가능한": 6745,
      "사전": 6746,
      "발굴": 6747,
      "재판": 6748,
      "채용": 6749,
      "전달": 6750,
      "부족": 6751,
      "라며": 6752,
      "조선": 6753,
      "군은": 6754,
      "콘텐츠": 6755,
      "이동": 6756,
      "리아": 6757,
      "자연": 6758,
      "개혁": 6759,
      "문을": 6760,
      "영상": 6761,
      "시험": 6762,
      "비율": 6763,
      "장기": 6764,
      "허가": 6765,
      "위반": 6766,
      "롯데": 6767,
      "소통": 6768,
      "전을": 6769,
      "아시아": 6770,
      "위치": 6771,
      "프리": 6772,
      "작업": 6773,
      "입장": 6774,
      "12월": 6775,
      "거쳐": 6776,
      "러스": 6777,
      "집행": 6778,
      "로부터": 6779,
      "최저": 6780,
      "행복": 6781,
      "na": 6782,
      "소송": 6783,
      "했으며": 6784,
      "인상": 6785,
      "희망": 6786,
      "2016년": 6787,
      "역할을": 6788,
      "점에서": 6789,
      "시장은": 6790,
      "온라인": 6791,
      "증권": 6792,
      "투입": 6793,
      "대학교": 6794,
      "수입": 6795,
      "명으로": 6796,
      "제외": 6797,
      "가능하다": 6798,
      "육성": 6799,
      "유통": 6800,
      "남북": 6801,
      "나서": 6802,
      "현지": 6803,
      "넘어": 6804,
      "원에서": 6805,
      "비롯해": 6806,
      "비를": 6807,
      "11월": 6808,
      "원으로": 6809,
      "미세먼지": 6810,
      "차례": 6811,
      "정한": 6812,
      "요청": 6813,
      "실적": 6814,
      "경험": 6815,
      "토지": 6816,
      "보유": 6817,
      "90": 6818,
      "담당": 6819,
      "과정에서": 6820,
      "바로": 6821,
      "청구": 6822,
      "냈다": 6823,
      "1월": 6824,
      "포인트": 6825,
      "치는": 6826,
      "인한": 6827,
      "토론": 6828,
      "것도": 6829,
      "대통령은": 6830,
      "상의": 6831,
      "어렵": 6832,
      "었던": 6833,
      "작품": 6834,
      "AI": 6835,
      "여행": 6836,
      "장애인": 6837,
      "공식": 6838,
      "도내": 6839,
      "게임": 6840,
      "나는": 6841,
      "위기": 6842,
      "자들이": 6843,
      "자산": 6844,
      "해서": 6845,
      "임대": 6846,
      "혐의": 6847,
      "그런": 6848,
      "중심으로": 6849,
      "역량": 6850,
      "있지만": 6851,
      "중이다": 6852,
      "의혹": 6853,
      "있게": 6854,
      "지원을": 6855,
      "주변": 6856,
      "구청": 6857,
      "설계": 6858,
      "지역의": 6859,
      "많이": 6860,
      "플랫": 6861,
      "진흥": 6862,
      "으로써": 6863,
      "인증": 6864,
      "인은": 6865,
      "종목": 6866,
      "21": 6867,
      "노조": 6868,
      "억원을": 6869,
      "논란": 6870,
      "플랫폼": 6871,
      "수립": 6872,
      "공장": 6873,
      "받는": 6874,
      "가입": 6875,
      "드는": 6876,
      "인근": 6877,
      "자와": 6878,
      "확산": 6879,
      "이야": 6880,
      "연합": 6881,
      "시대": 6882,
      "주차": 6883,
      "인력": 6884,
      "기여": 6885,
      "실제": 6886,
      "전통": 6887,
      "무리": 6888,
      "자금": 6889,
      "교류": 6890,
      "프라": 6891,
      "자에게": 6892,
      "일이": 6893,
      "뿐만": 6894,
      "수행": 6895,
      "나온": 6896,
      "기업의": 6897,
      "선택": 6898,
      "같이": 6899,
      "워크": 6900,
      "독립": 6901,
      "소속": 6902,
      "복합": 6903,
      "사업에": 6904,
      "아동": 6905,
      "정비": 6906,
      "전주": 6907,
      "소방": 6908,
      "제안": 6909,
      "대화": 6910,
      "했다는": 6911,
      "35": 6912,
      "리스": 6913,
      "돌아": 6914,
      "km": 6915,
      "건의": 6916,
      "되면서": 6917,
      "정신": 6918,
      "디어": 6919,
      "협의회": 6920,
      "3개": 6921,
      "반면": 6922,
      "사업은": 6923,
      "마다": 6924,
      "홈페이": 6925,
      "구체": 6926,
      "기초": 6927,
      "봉사": 6928,
      "트를": 6929,
      "당진": 6930,
      "구역": 6931,
      "스를": 6932,
      "300": 6933,
      "반대": 6934,
      "공무원": 6935,
      "위에": 6936,
      "인식": 6937,
      "진출": 6938,
      "조례": 6939,
      "등학교": 6940,
      "장과": 6941,
      "이달": 6942,
      "통과": 6943,
      "여야": 6944,
      "재생": 6945,
      "지하": 6946,
      "인지": 6947,
      "보는": 6948,
      "부의": 6949,
      "학과": 6950,
      "이자": 6951,
      "인재": 6952,
      "생태": 6953,
      "장의": 6954,
      "농가": 6955,
      "지로": 6956,
      "주목": 6957,
      "섰다": 6958,
      "주거": 6959,
      "근무": 6960,
      "디지": 6961,
      "인해": 6962,
      "가능성이": 6963,
      "점이": 6964,
      "비판": 6965,
      "정이": 6966,
      "르는": 6967,
      "목소": 6968,
      "모집": 6969,
      "채권": 6970,
      "케이": 6971,
      "시즌": 6972,
      "문제가": 6973,
      "훈련": 6974,
      "목적": 6975,
      "혜택": 6976,
      "높아": 6977,
      "철도": 6978,
      "자들의": 6979,
      "효율": 6980,
      "최소": 6981,
      "보증": 6982,
      "인공": 6983,
      "디지털": 6984,
      "청주": 6985,
      "건을": 6986,
      "움이": 6987,
      "디자인": 6988,
      "이벤": 6989,
      "프로젝": 6990,
      "노인": 6991,
      "부품": 6992,
      "주도": 6993,
      "갖고": 6994,
      "학습": 6995,
      "매년": 6996,
      "이기": 6997,
      "'(": 6998,
      "장에서": 6999,
      "대통령이": 7000,
      "상이": 7001,
      "소개": 7002,
      "충청": 7003,
      "의견을": 7004,
      "벤처": 7005,
      "비교": 7006,
      "영향을": 7007,
      "도서": 7008,
      "다가": 7009,
      "문제를": 7010,
      "2월": 7011,
      "아직": 7012,
      "안에": 7013,
      "정당": 7014,
      "연속": 7015,
      "판결": 7016,
      "방침이다": 7017,
      "2020년": 7018,
      "대가": 7019,
      "전에": 7020,
      "수원": 7021,
      "비해": 7022,
      "건립": 7023,
      "심의": 7024,
      "면적": 7025,
      "스포츠": 7026,
      "산물": 7027,
      "음악": 7028,
      "반도체": 7029,
      "되기": 7030,
      "수도권": 7031,
      "맞춤": 7032,
      "5개": 7033,
      "되며": 7034,
      "달라": 7035,
      "입주": 7036,
      "주년": 7037,
      "제대로": 7038,
      "전용": 7039,
      "편의": 7040,
      "부에": 7041,
      "이행": 7042,
      "용역": 7043,
      "4개": 7044,
      "하루": 7045,
      "수소": 7046,
      "균형": 7047,
      "로서": 7048,
      "어려운": 7049,
      "기술을": 7050,
      "1천": 7051,
      "간의": 7052,
      "상공": 7053,
      "않다": 7054,
      "않는다": 7055,
      "과거": 7056,
      "스로": 7057,
      "바이오": 7058,
      "36": 7059,
      "불과": 7060,
      "하는데": 7061,
      "끌어": 7062,
      "인도": 7063,
      "쳤다": 7064,
      "않을": 7065,
      "이러": 7066,
      "다만": 7067,
      "해소": 7068,
      "하이": 7069,
      "자격": 7070,
      "이유로": 7071,
      "2000": 7072,
      "회가": 7073,
      "대부분": 7074,
      "자유한국당": 7075,
      "더불어민주당": 7076,
      "위는": 7077,
      "나갈": 7078,
      "3일": 7079,
      "건물": 7080,
      "취득": 7081,
      "선보": 7082,
      "배우": 7083,
      "자신의": 7084,
      "앞으로도": 7085,
      "달리": 7086,
      "상생": 7087,
      "중단": 7088,
      "촉구": 7089,
      "공단": 7090,
      "일을": 7091,
      "놓고": 7092,
      "간담": 7093,
      "상대": 7094,
      "전망이다": 7095,
      "보장": 7096,
      "자에": 7097,
      "검사": 7098,
      "해도": 7099,
      "먼저": 7100,
      "회복": 7101,
      "신용": 7102,
      "1000": 7103,
      "전히": 7104,
      "비중": 7105,
      "비롯한": 7106,
      "롭게": 7107,
      "들도": 7108,
      "인프라": 7109,
      "연결": 7110,
      "도의": 7111,
      "호텔": 7112,
      "치고": 7113,
      "199": 7114,
      "2015년": 7115,
      "경남": 7116,
      "우리나라": 7117,
      "계획을": 7118,
      "이제": 7119,
      "베이": 7120,
      "사망": 7121,
      "주제로": 7122,
      "촬영": 7123,
      "리그": 7124,
      "선발": 7125,
      "스는": 7126,
      "나선": 7127,
      "붙였다": 7128,
      "5000": 7129,
      "국정": 7130,
      "주식": 7131,
      "인터넷": 7132,
      "만나": 7133,
      "하겠다는": 7134,
      "5G": 7135,
      "무엇": 7136,
      "21일": 7137,
      "5일": 7138,
      "유럽": 7139,
      "배출": 7140,
      "린다": 7141,
      "도민": 7142,
      "아야": 7143,
      "33": 7144,
      "바탕": 7145,
      "기록했다": 7146,
      "관련해": 7147,
      "농협": 7148,
      "원내": 7149,
      "사태": 7150,
      "결과를": 7151,
      "리에": 7152,
      "자율": 7153,
      "할인": 7154,
      "손해": 7155,
      "신뢰": 7156,
      "측은": 7157,
      "앞두고": 7158,
      "도와": 7159,
      "아울": 7160,
      "사업이": 7161,
      "으로서": 7162,
      "지속적으로": 7163,
      "규모의": 7164,
      "KB": 7165,
      "회는": 7166,
      "마음": 7167,
      "등급": 7168,
      "어떤": 7169,
      "운전": 7170,
      "회원": 7171,
      "장비": 7172,
      "정기": 7173,
      "출연": 7174,
      "접수": 7175,
      "스코": 7176,
      "품질": 7177,
      "매우": 7178,
      "공공기관": 7179,
      "연구원": 7180,
      "45": 7181,
      "부와": 7182,
      "회장은": 7183,
      "사와": 7184,
      "기업이": 7185,
      "제1항": 7186,
      "완료": 7187,
      "코스": 7188,
      "의한": 7189,
      "없어": 7190,
      "개의": 7191,
      "국립": 7192,
      "1조": 7193,
      "제가": 7194,
      "달성": 7195,
      "서로": 7196,
      "금리": 7197,
      "덧붙였다": 7198,
      "차별": 7199,
      "축구": 7200,
      "누구": 7201,
      "2일": 7202,
      "수밖에": 7203,
      "주고": 7204,
      "파악": 7205,
      "트럼": 7206,
      "2만": 7207,
      "학년": 7208,
      "줄어": 7209,
      "최선을": 7210,
      "내용을": 7211,
      "이러한": 7212,
      "채무": 7213,
      "실질": 7214,
      "시와": 7215,
      "오늘": 7216,
      "으로는": 7217,
      "내고": 7218,
      "테크": 7219,
      "당국": 7220,
      "시간을": 7221,
      "함으로써": 7222,
      "출신": 7223,
      "못한": 7224,
      "파크": 7225,
      "정보를": 7226,
      "실에서": 7227,
      "열고": 7228,
      "bo": 7229,
      "장에": 7230,
      "가스": 7231,
      "원칙": 7232,
      "프로젝트": 7233,
      "임을": 7234,
      "결국": 7235,
      "알려졌다": 7236,
      "10일": 7237,
      "교육을": 7238,
      "않아": 7239,
      "2차": 7240,
      "예비": 7241,
      "이들": 7242,
      "그렇": 7243,
      "행사를": 7244,
      "기구": 7245,
      "작년": 7246,
      "습니다": 7247,
      "25일": 7248,
      "친환경": 7249,
      "정상회담": 7250,
      "동시에": 7251,
      "4일": 7252,
      "수수": 7253,
      "바른": 7254,
      "20일": 7255,
      "관광객": 7256,
      "화재": 7257,
      "30일": 7258,
      "대하여": 7259,
      "외교": 7260,
      "음식": 7261,
      "프로그램을": 7262,
      "부지": 7263,
      "언론": 7264,
      "길을": 7265,
      "금지": 7266,
      "IC": 7267,
      "일정": 7268,
      "성에": 7269,
      "이루": 7270,
      "안이": 7271,
      "신설": 7272,
      "쇼핑": 7273,
      "KT": 7274,
      "15일": 7275,
      "관심을": 7276,
      "겠다는": 7277,
      "시티": 7278,
      "트럼프": 7279,
      "하자": 7280,
      "진단": 7281,
      "외국인": 7282,
      "르게": 7283,
      "31": 7284,
      "37": 7285,
      "맞아": 7286,
      "사업의": 7287,
      "물질": 7288,
      "부과": 7289,
      "아울러": 7290,
      "협상": 7291,
      "18일": 7292,
      "65": 7293,
      "발언": 7294,
      "대에": 7295,
      "보상": 7296,
      "임시": 7297,
      "바탕으로": 7298,
      "39": 7299,
      "조건": 7300,
      "불편": 7301,
      "부정": 7302,
      "이름": 7303,
      "정규": 7304,
      "서도": 7305,
      "보수": 7306,
      "그리고": 7307,
      "기부": 7308,
      "충분": 7309,
      "베트": 7310,
      "ae": 7311,
      "38": 7312,
      "시의": 7313,
      "향상": 7314,
      "등은": 7315,
      "26일": 7316,
      "28일": 7317,
      "인권": 7318,
      "통계": 7319,
      "조사를": 7320,
      "스터": 7321,
      "원인": 7322,
      "국회의원": 7323,
      "성과를": 7324,
      "마이": 7325,
      "화학": 7326,
      "씨가": 7327,
      "률은": 7328,
      "가정": 7329,
      "오른": 7330,
      "화된": 7331,
      "베트남": 7332,
      "심각": 7333,
      "국무": 7334,
      "맞춤형": 7335,
      "사로": 7336,
      "하던": 7337,
      "처벌": 7338,
      "19일": 7339,
      "방지": 7340,
      "네트": 7341,
      "연금": 7342,
      "폐기": 7343,
      "특정": 7344,
      "전의": 7345,
      "바람": 7346,
      "통상": 7347,
      "이지": 7348,
      "49": 7349,
      "지능": 7350,
      "선언": 7351,
      "정책을": 7352,
      "나오": 7353,
      "상반기": 7354,
      "총리": 7355,
      "마지": 7356,
      "내는": 7357,
      "취소": 7358,
      "위로": 7359,
      "11일": 7360,
      "자치단체": 7361,
      "전반": 7362,
      "마케": 7363,
      "이상의": 7364,
      "운용": 7365,
      "고속": 7366,
      "27일": 7367,
      "광역": 7368,
      "우승": 7369,
      "의하여": 7370,
      "시작으로": 7371,
      "에선": 7372,
      "주로": 7373,
      "ew": 7374,
      "동의": 7375,
      "관은": 7376,
      "7일": 7377,
      "보도": 7378,
      "중요한": 7379,
      "실현": 7380,
      "피고": 7381,
      "둘러": 7382,
      "노선": 7383,
      "22일": 7384,
      "펼쳐": 7385,
      "가까": 7386,
      "보조": 7387,
      "어느": 7388,
      "실을": 7389,
      "자세": 7390,
      "회에서": 7391,
      "개편": 7392,
      "내부": 7393,
      "nam": 7394,
      "마케팅": 7395,
      "48": 7396,
      "형태": 7397,
      "작가": 7398,
      "전해": 7399,
      "모바": 7400,
      "신속": 7401,
      "구는": 7402,
      "와의": 7403,
      "최초로": 7404,
      "지역사회": 7405,
      "최저임금": 7406,
      "여론": 7407,
      "사유": 7408,
      "ar": 7409,
      "기다": 7410,
      "마무리": 7411,
      "홈페이지": 7412,
      "관을": 7413,
      "2개": 7414,
      "만족": 7415,
      "17일": 7416,
      "대해서는": 7417,
      "부처": 7418,
      "리지": 7419,
      "or": 7420,
      "주장했다": 7421,
      "업을": 7422,
      "무료": 7423,
      "24일": 7424,
      "8일": 7425,
      "상황에서": 7426,
      "대체": 7427,
      "오염": 7428,
      "차를": 7429,
      "선도": 7430,
      "가량": 7431,
      "29일": 7432,
      "펀드": 7433,
      "23일": 7434,
      "마지막": 7435,
      "수의": 7436,
      "어나": 7437,
      "스크": 7438,
      "참석한": 7439,
      "자기": 7440,
      "안내": 7441,
      "ch": 7442,
      "주관": 7443,
      "근거": 7444,
      "작성": 7445,
      "권의": 7446,
      "14일": 7447,
      "고를": 7448,
      "장으로": 7449,
      "수록": 7450,
      "모바일": 7451,
      "연구소": 7452,
      "IT": 7453,
      "이른": 7454,
      "대중": 7455,
      "과제": 7456,
      "못하고": 7457,
      "이벤트": 7458,
      "약속": 7459,
      "34": 7460,
      "시켜": 7461,
      "하더라도": 7462,
      "수석": 7463,
      "발견": 7464,
      "내에": 7465,
      "대통령의": 7466,
      "기회를": 7467,
      "31일": 7468,
      "나무": 7469,
      "완화": 7470,
      "료를": 7471,
      "4차": 7472,
      "랐다": 7473,
      "표준": 7474,
      "작용": 7475,
      "농촌": 7476,
      "특허": 7477,
      "표현": 7478,
      "사실을": 7479,
      "당부": 7480,
      "고령": 7481,
      "6일": 7482,
      "비핵": 7483,
      "9일": 7484,
      "법을": 7485,
      "주가": 7486,
      "명에": 7487,
      "회의를": 7488,
      "사실상": 7489,
      "오픈": 7490,
      "이들은": 7491,
      "여름": 7492,
      "협약을": 7493,
      "네이": 7494,
      "정은": 7495,
      "하우": 7496,
      "응답": 7497,
      "실천": 7498,
      "의사": 7499,
      "ilbo": 7500,
      "업종": 7501,
      "공직": 7502,
      "있었": 7503,
      "위해서는": 7504,
      "사법": 7505,
      "지적했다": 7506,
      "열리는": 7507,
      "재난": 7508,
      "맞춰": 7509,
      "NS": 7510,
      "매매": 7511,
      "필요가": 7512,
      "만의": 7513,
      "연장": 7514,
      "운행": 7515,
      "심을": 7516,
      "ews": 7517,
      "부여": 7518,
      "내놓": 7519,
      "들에": 7520,
      "수영": 7521,
      "생명": 7522,
      "경쟁력": 7523,
      "드라": 7524,
      "시범": 7525,
      "지나": 7526,
      "폭력": 7527,
      "도움이": 7528,
      "돼야": 7529,
      "부진": 7530,
      "힘을": 7531,
      "나섰다": 7532,
      "상호": 7533,
      "현황": 7534,
      "강력": 7535,
      "출범": 7536,
      "하였다": 7537,
      "한반도": 7538,
      "취약": 7539,
      "55": 7540,
      "추천": 7541,
      "수용": 7542,
      "경우에는": 7543,
      "대는": 7544,
      "코리아": 7545,
      "16일": 7546,
      "관람": 7547,
      "지역에": 7548,
      "im": 7549,
      "쉽게": 7550,
      "12일": 7551,
      "연간": 7552,
      "메이": 7553,
      "발표한": 7554,
      "테이": 7555,
      "질환": 7556,
      "동물": 7557,
      "내려": 7558,
      "비상": 7559,
      "년간": 7560,
      "시도": 7561,
      "학부모": 7562,
      "해석": 7563,
      "플레이": 7564,
      "문제는": 7565,
      "대신": 7566,
      "대규모": 7567,
      "단속": 7568,
      "기계": 7569,
      "자녀": 7570,
      "가동": 7571,
      "하기도": 7572,
      "국민의": 7573,
      "률이": 7574,
      "발전을": 7575,
      "가진": 7576,
      "입장을": 7577,
      "이번에": 7578,
      "들여": 7579,
      "구속": 7580,
      "1차": 7581,
      "제품을": 7582,
      "47": 7583,
      "동일": 7584,
      "드시": 7585,
      "사업으로": 7586,
      "투표": 7587,
      "만원을": 7588,
      "대기": 7589,
      "고민": 7590,
      "니스": 7591,
      "하다는": 7592,
      "검증": 7593,
      "평가를": 7594,
      "13일": 7595,
      "올라": 7596,
      "지사": 7597,
      "포럼": 7598,
      "않았": 7599,
      "피해를": 7600,
      "스토": 7601,
      "과정을": 7602,
      "정도로": 7603,
      "이란": 7604,
      "나온다": 7605,
      "발생한": 7606,
      "전력": 7607,
      "al": 7608,
      "르고": 7609,
      "기대한다": 7610,
      "하반기": 7611,
      "소상공": 7612,
      "군이": 7613,
      "스티": 7614,
      "첨단": 7615,
      "시의회": 7616,
      "시장이": 7617,
      "하여야": 7618,
      "량이": 7619,
      "공감": 7620,
      "관계자": 7621,
      "등과": 7622,
      "만든": 7623,
      "시설을": 7624,
      "문의": 7625,
      "거주": 7626,
      "6개": 7627,
      "법원": 7628,
      "단을": 7629,
      "억원으로": 7630,
      "스스로": 7631,
      "허용": 7632,
      "접근": 7633,
      "단은": 7634,
      "놀이": 7635,
      "지면서": 7636,
      "꾸준": 7637,
      "어떻": 7638,
      "활용해": 7639,
      "회계": 7640,
      "네트워크": 7641,
      "시장을": 7642,
      "여전히": 7643,
      "여건": 7644,
      "모습을": 7645,
      "년까지": 7646,
      "요금": 7647,
      "혐의로": 7648,
      "사업비": 7649,
      "인수": 7650,
      "융합": 7651,
      "반드시": 7652,
      "효과를": 7653,
      "도서관": 7654,
      "스타트": 7655,
      "철저": 7656,
      "맞는": 7657,
      "시장의": 7658,
      "기금": 7659,
      "투어": 7660,
      "구간": 7661,
      "상표": 7662,
      "것이라는": 7663,
      "대책을": 7664,
      "계약을": 7665,
      "올림": 7666,
      "있기": 7667,
      "CC": 7668,
      "양성": 7669,
      "총선": 7670,
      "법무": 7671,
      "매수": 7672,
      "원하는": 7673,
      "관심이": 7674,
      "어떻게": 7675,
      "적극적인": 7676,
      "아가": 7677,
      "59": 7678,
      "세가": 7679,
      "도에": 7680,
      "인데": 7681,
      "점은": 7682,
      "1인": 7683,
      "보였다": 7684,
      "스럽": 7685,
      "품목": 7686,
      "예상된다": 7687,
      "상황을": 7688,
      "2014년": 7689,
      "%(": 7690,
      "도심": 7691,
      "조기": 7692,
      "강원": 7693,
      "그래": 7694,
      "국방": 7695,
      "기준으로": 7696,
      "갔다": 7697,
      "하였": 7698,
      "변호": 7699,
      "BC": 7700,
      "언급": 7701,
      "포함한": 7702,
      "나왔다": 7703,
      "적극적으로": 7704,
      "비핵화": 7705,
      "불가": 7706,
      "사장": 7707,
      "미술": 7708,
      "합리": 7709,
      "절차를": 7710,
      "이가": 7711,
      "만들기": 7712,
      "법안": 7713,
      "적이고": 7714,
      "시장에서": 7715,
      "반발": 7716,
      "계층": 7717,
      "발표했다": 7718,
      "주행": 7719,
      "하고자": 7720,
      "활성화를": 7721,
      "3000": 7722,
      "드라마": 7723,
      "계를": 7724,
      "32": 7725,
      "지의": 7726,
      "진행된다": 7727,
      "지역경제": 7728,
      "크다": 7729,
      "치매": 7730,
      "권리": 7731,
      "3만": 7732,
      "배치": 7733,
      "46": 7734,
      "점으로": 7735,
      "기대된다": 7736,
      "교수는": 7737,
      "특수": 7738,
      "출산": 7739,
      "률을": 7740,
      "천안": 7741,
      "52": 7742,
      "수산": 7743,
      "것이라고": 7744,
      "회에": 7745,
      "능력": 7746,
      "광고": 7747,
      "공동체": 7748,
      "다운": 7749,
      "제재": 7750,
      "곳에": 7751,
      "안보": 7752,
      "당이": 7753,
      "리기": 7754,
      "상황이다": 7755,
      "위원장은": 7756,
      "단순": 7757,
      "법에": 7758,
      "분위": 7759,
      ".\"": 7760,
      "노후": 7761,
      "회견": 7762,
      "선고": 7763,
      "전쟁": 7764,
      "행동": 7765,
      "이지만": 7766,
      "교체": 7767,
      "올림픽": 7768,
      "플러스": 7769,
      "발행": 7770,
      "존재": 7771,
      "나눔": 7772,
      "과세": 7773,
      "관이": 7774,
      "현대차": 7775,
      "머니": 7776,
      "집계": 7777,
      "실무": 7778,
      "자본": 7779,
      "증가했다": 7780,
      "관에서": 7781,
      "에어": 7782,
      "프트": 7783,
      "국토교통": 7784,
      "과학기술": 7785,
      "위가": 7786,
      "성적": 7787,
      "외부": 7788,
      "택시": 7789,
      "활용한": 7790,
      "장소": 7791,
      "군민": 7792,
      "원전": 7793,
      "시간이": 7794,
      "75": 7795,
      "청은": 7796,
      "월드": 7797,
      "반응": 7798,
      "군산": 7799,
      "en": 7800,
      "1억": 7801,
      "준다": 7802,
      "당은": 7803,
      "방문해": 7804,
      "책임을": 7805,
      "당초": 7806,
      "회의에서": 7807,
      "목표로": 7808,
      "가치를": 7809,
      "이렇": 7810,
      "스마트폰": 7811,
      "되었다": 7812,
      "eon": 7813,
      "권이": 7814,
      "호로": 7815,
      "영국": 7816,
      "가를": 7817,
      "정확": 7818,
      "초청": 7819,
      "없다는": 7820,
      "대의": 7821,
      "화장": 7822,
      "신문": 7823,
      "(-": 7824,
      "받지": 7825,
      "여명이": 7826,
      "교사": 7827,
      "뛰어": 7828,
      "조치를": 7829,
      "중에": 7830,
      "44": 7831,
      "작은": 7832,
      "점에": 7833,
      "완성": 7834,
      "타당": 7835,
      "주기": 7836,
      "이로": 7837,
      "여부를": 7838,
      "진행한다": 7839,
      "자들은": 7840,
      "주최": 7841,
      "여기에": 7842,
      "긍정": 7843,
      "했으나": 7844,
      "2천": 7845,
      "매입": 7846,
      "대기업": 7847,
      "일본의": 7848,
      "유일": 7849,
      "대변": 7850,
      "특별한": 7851,
      "미디어": 7852,
      "가고": 7853,
      "군의": 7854,
      "당사": 7855,
      "공업": 7856,
      "외에도": 7857,
      "의원이": 7858,
      "인과": 7859,
      "지원센터": 7860,
      "지켜": 7861,
      "으로부터": 7862,
      "시스템을": 7863,
      "스가": 7864,
      "99": 7865,
      "있는데": 7866,
      "기재": 7867,
      "보안": 7868,
      "하려는": 7869,
      "서구": 7870,
      "사과": 7871,
      "보니": 7872,
      "결제": 7873,
      "등에서": 7874,
      "공약": 7875,
      "수급": 7876,
      "기자회견": 7877,
      "포항": 7878,
      "같다": 7879,
      "방식으로": 7880,
      "가능성": 7881,
      "처음으로": 7882,
      "량을": 7883,
      "ww": 7884,
      "노력을": 7885,
      "주문": 7886,
      "인하": 7887,
      "누리": 7888,
      "낮은": 7889,
      "감이": 7890,
      "운드": 7891,
      "제공한다": 7892,
      "라우": 7893,
      "신한": 7894,
      "SNS": 7895,
      "잘못": 7896,
      "캠페": 7897,
      "지원하는": 7898,
      "점유": 7899,
      "함을": 7900,
      "예고": 7901,
      "인공지능": 7902,
      "너무": 7903,
      "가졌다": 7904,
      "만을": 7905,
      "감안": 7906,
      "열어": 7907,
      "지상": 7908,
      "보급": 7909,
      "백화": 7910,
      "제공하는": 7911,
      "올해는": 7912,
      "순환": 7913,
      "확충": 7914,
      "확장": 7915,
      "학생들이": 7916,
      "예산을": 7917,
      "기소": 7918,
      "율이": 7919,
      "일이다": 7920,
      "ho": 7921,
      "’,": 7922,
      "채널": 7923,
      "어렵다": 7924,
      "어제": 7925,
      "대표가": 7926,
      "혜택을": 7927,
      "걸쳐": 7928,
      "기울": 7929,
      "상위": 7930,
      "문화예술": 7931,
      "물이": 7932,
      "시키는": 7933,
      "400": 7934,
      "로는": 7935,
      "산업단지": 7936,
      "at": 7937,
      "et": 7938,
      "골프": 7939,
      "액은": 7940,
      "스러": 7941,
      "장학": 7942,
      "시행령": 7943,
      "겼다": 7944,
      "88": 7945,
      "하겠다고": 7946,
      "말까지": 7947,
      "못했다": 7948,
      "준공": 7949,
      "2022": 7950,
      "프리미": 7951,
      "얼마": 7952,
      "입찰": 7953,
      "씨의": 7954,
      "단이": 7955,
      "박람": 7956,
      "66": 7957,
      "명은": 7958,
      "않도록": 7959,
      "위치한": 7960,
      "스타트업": 7961,
      "도교육청": 7962,
      "명한": 7963,
      "산업의": 7964,
      "환경을": 7965,
      "공시": 7966,
      "했을": 7967,
      "상대로": 7968,
      "졸업": 7969,
      "확인할": 7970,
      "정규직": 7971,
      "설비": 7972,
      "셈이다": 7973,
      "없었다": 7974,
      "초등학교": 7975,
      "전기차": 7976,
      "환자": 7977,
      "보완": 7978,
      "디오": 7979,
      "효과가": 7980,
      "개소": 7981,
      "위원회는": 7982,
      "지역에서": 7983,
      "정부와": 7984,
      "강남": 7985,
      "불구": 7986,
      "클럽": 7987,
      "동구": 7988,
      "직무": 7989,
      "us": 7990,
      "강제": 7991,
      "넘는": 7992,
      "악화": 7993,
      "음성": 7994,
      "여자": 7995,
      "시장에": 7996,
      "산업혁": 7997,
      "국비": 7998,
      "담보": 7999,
      "추진하고": 8000,
      "히려": 8001,
      "지식": 8002,
      "루션": 8003,
      "개별": 8004,
      "그대로": 8005,
      "9년": 8006,
      "독일": 8007,
      "겨울": 8008,
      "축산": 8009,
      "담은": 8010,
      "전면": 8011,
      "보다는": 8012,
      "유도": 8013,
      "블록": 8014,
      "서에": 8015,
      "올랐다": 8016,
      "구성된": 8017,
      "북미": 8018,
      "남아": 8019,
      "단의": 8020,
      "컨설": 8021,
      "배상": 8022,
      "모색": 8023,
      "움직": 8024,
      "그러면서": 8025,
      "하다고": 8026,
      "연수": 8027,
      "침해": 8028,
      "협조": 8029,
      "84": 8030,
      "한국의": 8031,
      "로봇": 8032,
      "긴급": 8033,
      "원과": 8034,
      "알고": 8035,
      "많다": 8036,
      "다하겠다": 8037,
      "우려가": 8038,
      "요일": 8039,
      "부당": 8040,
      "만으로": 8041,
      "역대": 8042,
      "확실": 8043,
      "재해": 8044,
      "57": 8045,
      "ST": 8046,
      "현안": 8047,
      "김영": 8048,
      "양국": 8049,
      "었고": 8050,
      "브리": 8051,
      "산림": 8052,
      "기의": 8053,
      "취임": 8054,
      "신도시": 8055,
      "진을": 8056,
      "없고": 8057,
      "오히려": 8058,
      "군사": 8059,
      "위의": 8060,
      "밝혀": 8061,
      "구를": 8062,
      "대폭": 8063,
      "태양": 8064,
      "기타": 8065,
      "솔루션": 8066,
      "무엇보다": 8067,
      "물류": 8068,
      "진입": 8069,
      "한다면": 8070,
      "조차": 8071,
      "편성": 8072,
      "공격": 8073,
      "즐길": 8074,
      "다음달": 8075,
      "30분": 8076,
      "당부했다": 8077,
      "절반": 8078,
      "비즈": 8079,
      "주력": 8080,
      "의결": 8081,
      "말을": 8082,
      "상장": 8083,
      "살펴": 8084,
      "만한": 8085,
      "이어서": 8086,
      "선물": 8087,
      "있어서": 8088,
      "문학": 8089,
      "책을": 8090,
      "총장": 8091,
      "문화재": 8092,
      "메달": 8093,
      "노력하겠다": 8094,
      "트리": 8095,
      "영업이익": 8096,
      "참여한": 8097,
      "초과": 8098,
      "등이다": 8099,
      "매일": 8100,
      "지표": 8101,
      "청문": 8102,
      "명예": 8103,
      "서류": 8104,
      "액을": 8105,
      "실제로": 8106,
      "분야에서": 8107,
      "그런데": 8108,
      "개방": 8109,
      "10년": 8110,
      "키로": 8111,
      "어려움을": 8112,
      "기와": 8113,
      "장관은": 8114,
      "것에": 8115,
      "역을": 8116,
      "케어": 8117,
      "벌어": 8118,
      "드론": 8119,
      "식이": 8120,
      "선정된": 8121,
      "경쟁력을": 8122,
      "늘었다": 8123,
      "형성": 8124,
      "거부": 8125,
      "조원": 8126,
      "함에": 8127,
      "운영하는": 8128,
      "카오": 8129,
      "진행됐다": 8130,
      "행위를": 8131,
      "구입": 8132,
      "자문": 8133,
      "안은": 8134,
      "유산": 8135,
      "정해": 8136,
      "입법": 8137,
      "제조업": 8138,
      "적절": 8139,
      "도전": 8140,
      "oo": 8141,
      "고도": 8142,
      "네이버": 8143,
      "살아": 8144,
      "율은": 8145,
      "급여": 8146,
      "형사": 8147,
      "조국": 8148,
      "그의": 8149,
      "점이다": 8150,
      "충전": 8151,
      "지키": 8152,
      "거듭": 8153,
      "행사는": 8154,
      "등도": 8155,
      "지와": 8156,
      "화가": 8157,
      "연구원은": 8158,
      "매각": 8159,
      "표시": 8160,
      "202": 8161,
      "새롭게": 8162,
      "한미": 8163,
      "스의": 8164,
      "1위": 8165,
      "58": 8166,
      "상품을": 8167,
      "운영하고": 8168,
      "계기로": 8169,
      "지분": 8170,
      "컨설팅": 8171,
      "협력을": 8172,
      "기능을": 8173,
      "이재": 8174,
      "청약": 8175,
      "바른미래": 8176,
      "광양": 8177,
      "유사": 8178,
      "충주": 8179,
      "높다": 8180,
      "로를": 8181,
      "증을": 8182,
      "증가한": 8183,
      "주주": 8184,
      "기한": 8185,
      "카페": 8186,
      "관계를": 8187,
      "따라서": 8188,
      "품을": 8189,
      "kg": 8190,
      "국내외": 8191,
      "갖춘": 8192,
      "가지고": 8193,
      "계열": 8194,
      "권한": 8195,
      "개최했다": 8196,
      "역량을": 8197,
      "했는데": 8198,
      "사회복지": 8199,
      "주민들의": 8200,
      "가로": 8201,
      "증거": 8202,
      "연구개발": 8203,
      "개설": 8204,
      "도시재생": 8205,
      "삼성전자": 8206,
      "당연": 8207,
      "조의": 8208,
      "아무": 8209,
      "벤처기업": 8210,
      "추정": 8211,
      "율을": 8212,
      "정보통신": 8213,
      "건으로": 8214,
      "SO": 8215,
      "56": 8216,
      "고등학교": 8217,
      "지속적인": 8218,
      "don": 8219,
      "위하여": 8220,
      "당의": 8221,
      "전형": 8222,
      "it": 8223,
      "적발": 8224,
      "꾸준히": 8225,
      "에만": 8226,
      "나고": 8227,
      "자료를": 8228,
      "시민들의": 8229,
      "동을": 8230,
      "보이고": 8231,
      "우수한": 8232,
      "불구하고": 8233,
      "디스": 8234,
      "보기": 8235,
      "창의": 8236,
      "일으": 8237,
      "소상공인": 8238,
      "한화": 8239,
      "사람이": 8240,
      "우는": 8241,
      "추석": 8242,
      "해왔다": 8243,
      "러시아": 8244,
      "150": 8245,
      "지금까지": 8246,
      "부서": 8247,
      "현장에서": 8248,
      "재배": 8249,
      "억원의": 8250,
      "민원": 8251,
      "성남": 8252,
      "곳에서": 8253,
      "열린다": 8254,
      "최소화": 8255,
      "일제": 8256,
      "페이스": 8257,
      "아름": 8258,
      "출발": 8259,
      "누구나": 8260,
      "7개": 8261,
      "상황이": 8262,
      "사상": 8263,
      "BS": 8264,
      "느냐": 8265,
      "매도": 8266,
      "정에": 8267,
      "namdon": 8268,
      "시급": 8269,
      "징계": 8270,
      "namdonews": 8271,
      "실태": 8272,
      "적이": 8273,
      "프리미엄": 8274,
      "도의회": 8275,
      "있던": 8276,
      "추어": 8277,
      "분쟁": 8278,
      "뉴스": 8279,
      "시각": 8280,
      "퇴직": 8281,
      "근로자": 8282,
      "박물": 8283,
      "침체": 8284,
      "태풍": 8285,
      "시상": 8286,
      "현행": 8287,
      "것과": 8288,
      "참여해": 8289,
      "훼손": 8290,
      "카카오": 8291,
      "2013년": 8292,
      "이루어": 8293,
      "위탁": 8294,
      "장치": 8295,
      "내에서": 8296,
      "폐기물": 8297,
      "발전소": 8298,
      "젊은": 8299,
      "어르": 8300,
      "법이": 8301,
      "로드": 8302,
      "진행하고": 8303,
      "프랑": 8304,
      "적이다": 8305,
      "어르신": 8306,
      "선정됐다": 8307,
      "위협": 8308,
      "CE": 8309,
      "43": 8310,
      "늘어난": 8311,
      "고교": 8312,
      "명령": 8313,
      "특화": 8314,
      "77": 8315,
      "트랙": 8316,
      "으니": 8317,
      "5천": 8318,
      "찾는": 8319,
      "나머": 8320,
      "트로": 8321,
      "최고의": 8322,
      "친구": 8323,
      "북한의": 8324,
      "시킨": 8325,
      "공기": 8326,
      "직장": 8327,
      "측면": 8328,
      "으므로": 8329,
      "정리": 8330,
      "동반": 8331,
      "이끌어": 8332,
      "1개": 8333,
      "le": 8334,
      "논란이": 8335,
      "42": 8336,
      "권에": 8337,
      "성장을": 8338,
      "경찰은": 8339,
      "미국의": 8340,
      "자리를": 8341,
      "사안": 8342,
      "소프트": 8343,
      "포함해": 8344,
      "직업": 8345,
      "안타": 8346,
      "수주": 8347,
      "영동": 8348,
      "시민의": 8349,
      "폭행": 8350,
      "서울시": 8351,
      "id": 8352,
      "경찰청": 8353,
      "라면": 8354,
      "정착": 8355,
      "기업을": 8356,
      "상태다": 8357,
      "종료": 8358,
      "광주시": 8359,
      "라우드": 8360,
      "혁신도시": 8361,
      "구체적인": 8362,
      "기회": 8363,
      "테마": 8364,
      "치지": 8365,
      "격을": 8366,
      "3천": 8367,
      "밝힌": 8368,
      "촉진": 8369,
      "예측": 8370,
      "참여하는": 8371,
      "수술": 8372,
      "도움을": 8373,
      "명과": 8374,
      "고가": 8375,
      "이틀": 8376,
      "특례": 8377,
      "없다고": 8378,
      "모니": 8379,
      "중요하다": 8380,
      "쓰레": 8381,
      "법적": 8382,
      "아이디어": 8383,
      "기기": 8384,
      "극복": 8385,
      "KI": 8386,
      "화에": 8387,
      "양도": 8388,
      "사항을": 8389,
      "합동": 8390,
      "시부터": 8391,
      "질문": 8392,
      "지방자치단체": 8393,
      "차단": 8394,
      "돼지": 8395,
      "기준을": 8396,
      "지수": 8397,
      "마저": 8398,
      "봤다": 8399,
      "가져": 8400,
      "범위": 8401,
      "노사": 8402,
      "감염": 8403,
      "체계를": 8404,
      "받았": 8405,
      "이용할": 8406,
      "연령": 8407,
      "단독": 8408,
      "비전": 8409,
      "일대": 8410,
      "차원에서": 8411,
      "바다": 8412,
      "종사": 8413,
      "중심의": 8414,
      "중구": 8415,
      "인기": 8416,
      "오피": 8417,
      "웨어": 8418,
      "무상": 8419,
      "ED": 8420,
      "나가겠다": 8421,
      "이처럼": 8422,
      "부담을": 8423,
      "수렴": 8424,
      "새로": 8425,
      "일은": 8426,
      "전화": 8427,
      "선박": 8428,
      "거운": 8429,
      "비가": 8430,
      "어야": 8431,
      "4000": 8432,
      "업무를": 8433,
      "규모로": 8434,
      "파트너": 8435,
      "유치원": 8436,
      "ki": 8437,
      "의약": 8438,
      "통화": 8439,
      "자세한": 8440,
      "사에서": 8441,
      "체인": 8442,
      "농산물": 8443,
      "삶의": 8444,
      "6개월": 8445,
      "만드는": 8446,
      "이렇게": 8447,
      "받는다": 8448,
      "주년을": 8449,
      "관련된": 8450,
      "곳이": 8451,
      "리더": 8452,
      "구현": 8453,
      "분명": 8454,
      "불안": 8455,
      "ver": 8456,
      "풀이": 8457,
      "지연": 8458,
      "비슷": 8459,
      "선임": 8460,
      "선진": 8461,
      "2021년": 8462,
      "진행했다": 8463,
      "es": 8464,
      "질을": 8465,
      "콘서": 8466,
      "메시": 8467,
      "보이": 8468,
      "곳을": 8469,
      "만이": 8470,
      "돌봄": 8471,
      "웠다": 8472,
      "성능": 8473,
      "4만": 8474,
      "8개": 8475,
      "추가로": 8476,
      "해상": 8477,
      "모아": 8478,
      "인가": 8479,
      "축소": 8480,
      "동기": 8481,
      "티브": 8482,
      "상임": 8483,
      "중한": 8484,
      "동원": 8485,
      "추경": 8486,
      "대금": 8487,
      "시킬": 8488,
      "사에": 8489,
      "드를": 8490,
      "참석했다": 8491,
      "안산": 8492,
      "어촌": 8493,
      "1회": 8494,
      "전공": 8495,
      "실패": 8496,
      "지사는": 8497,
      "이용해": 8498,
      "유튜": 8499,
      "단위": 8500,
      "면허": 8501,
      "유기": 8502,
      "센터에서": 8503,
      "빠르게": 8504,
      "고속도로": 8505,
      "됐고": 8506,
      "조달": 8507,
      "198": 8508,
      "67": 8509,
      "못하는": 8510,
      "에게는": 8511,
      "세법": 8512,
      "량은": 8513,
      "김종": 8514,
      "시켰": 8515,
      "이웃": 8516,
      "개막": 8517,
      "권은": 8518,
      "기아": 8519,
      "는지": 8520,
      "배경": 8521,
      "데다": 8522,
      "차지했다": 8523,
      "제는": 8524,
      "IP": 8525,
      "제약": 8526,
      "노래": 8527,
      "여부": 8528,
      "백화점": 8529,
      "으면서": 8530,
      "개선을": 8531,
      "승인": 8532,
      "5만": 8533,
      "돌파": 8534,
      "세부": 8535,
      "2010": 8536,
      "센터는": 8537,
      "대북": 8538,
      "었지만": 8539,
      "그린": 8540,
      "경제적": 8541,
      "예약": 8542,
      "합격": 8543,
      "결혼": 8544,
      "감소했다": 8545,
      "곳은": 8546,
      "빅데이터": 8547,
      "다면": 8548,
      "들고": 8549,
      "운송": 8550,
      "들로": 8551,
      "세워": 8552,
      "유출": 8553,
      "푸드": 8554,
      "출마": 8555,
      "였던": 8556,
      "되도록": 8557,
      "기반으로": 8558,
      "부채": 8559,
      "박근": 8560,
      "특징": 8561,
      "편리": 8562,
      "추진할": 8563,
      "소가": 8564,
      "등장": 8565,
      "선호": 8566,
      "투명": 8567,
      "안심": 8568,
      "밝히": 8569,
      "언제": 8570,
      "필수": 8571,
      "목을": 8572,
      "69": 8573,
      "CJ": 8574,
      "의지를": 8575,
      "평생": 8576,
      "앞장": 8577,
      "초기": 8578,
      "특성": 8579,
      "어린이집": 8580,
      "저감": 8581,
      "결의": 8582,
      "심리": 8583,
      "68": 8584,
      "가상": 8585,
      "당을": 8586,
      "전한": 8587,
      "순위": 8588,
      "강한": 8589,
      "음주": 8590,
      "사고가": 8591,
      "사실이": 8592,
      "생태계": 8593,
      "고양": 8594,
      "동양": 8595,
      "순으로": 8596,
      "쏟아": 8597,
      "사장은": 8598,
      "질의": 8599,
      "지원한다": 8600,
      "6000": 8601,
      "정원": 8602,
      "시절": 8603,
      "아산": 8604,
      "투자를": 8605,
      "균형발전": 8606,
      "가공": 8607,
      "제천": 8608,
      "관련한": 8609,
      "대리": 8610,
      "호선": 8611,
      "기억": 8612,
      "의심": 8613,
      "갖추": 8614,
      "과장은": 8615,
      "제공하고": 8616,
      "납부": 8617,
      "협업": 8618,
      "인으로": 8619,
      "본격적인": 8620,
      "지역을": 8621,
      "연기": 8622,
      "설정": 8623,
      "포스코": 8624,
      "제정": 8625,
      "의도": 8626,
      "회사의": 8627,
      "제주도": 8628,
      "부장": 8629,
      "시정": 8630,
      "스러운": 8631,
      "됐으며": 8632,
      "공사는": 8633,
      "실행": 8634,
      "없을": 8635,
      "위원회가": 8636,
      "전혀": 8637,
      "개를": 8638,
      "시를": 8639,
      "동아": 8640,
      "신청을": 8641,
      "사인": 8642,
      "웨이": 8643,
      "gu": 8644,
      "클라우드": 8645,
      "600": 8646,
      "해온": 8647,
      "마련됐다": 8648,
      "들었다": 8649,
      "박근혜": 8650,
      "마찬": 8651,
      "개정되기": 8652,
      "옥천": 8653,
      "이내": 8654,
      "폐지": 8655,
      "측이": 8656,
      "터리": 8657,
      "활발": 8658,
      "기업에": 8659,
      "추진하는": 8660,
      "학생들의": 8661,
      "1명": 8662,
      "속에": 8663,
      "제도를": 8664,
      "목적으로": 8665,
      "분의": 8666,
      "마찬가지": 8667,
      "대우": 8668,
      "과도": 8669,
      "주민들이": 8670,
      "익산": 8671,
      "기고": 8672,
      "성은": 8673,
      "진로": 8674,
      "기지": 8675,
      "이면": 8676,
      "관하여": 8677,
      "2012년": 8678,
      "유의": 8679,
      "이익을": 8680,
      "일상": 8681,
      "법령": 8682,
      "삼성전": 8683,
      "왼쪽": 8684,
      "헌법": 8685,
      "53": 8686,
      "무효": 8687,
      "이드": 8688,
      "규정하고": 8689,
      "규칙": 8690,
      "선생": 8691,
      "화폐": 8692,
      "뜻을": 8693,
      "유명": 8694,
      "가격이": 8695,
      "78": 8696,
      "PC": 8697,
      "강화를": 8698,
      "속에서": 8699,
      "교육감": 8700,
      "자랑": 8701,
      "실시간": 8702,
      "가맹": 8703,
      "kiho": 8704,
      "일환": 8705,
      "MO": 8706,
      "아래": 8707,
      "후원": 8708,
      "청이": 8709,
      "kihoilbo": 8710,
      "된다는": 8711,
      "된다고": 8712,
      "위원회를": 8713,
      "제4": 8714,
      "차가": 8715,
      "호남": 8716,
      "발생하는": 8717,
      "식으로": 8718,
      "EC": 8719,
      "사이에": 8720,
      "분야의": 8721,
      "면제": 8722,
      "국회에서": 8723,
      "실험": 8724,
      "진료": 8725,
      "나머지": 8726,
      "려는": 8727,
      "커뮤": 8728,
      "한일": 8729,
      "LH": 8730,
      "야구": 8731,
      "레스": 8732,
      "개발을": 8733,
      "적합": 8734,
      "나아가": 8735,
      "결합": 8736,
      "발의": 8737,
      "원장": 8738,
      "많아": 8739,
      "전담": 8740,
      "커뮤니": 8741,
      "목소리를": 8742,
      "심각한": 8743,
      "제고": 8744,
      "당선": 8745,
      "집계됐다": 8746,
      "캠프": 8747,
      "공익": 8748,
      "전날": 8749,
      "가계": 8750,
      "모니터": 8751,
      "당해": 8752,
      "관내": 8753,
      "협의체": 8754,
      "크로": 8755,
      "마켓": 8756,
      "문화를": 8757,
      "기업은": 8758,
      "상속": 8759,
      "등락": 8760,
      "외에": 8761,
      "수요가": 8762,
      "파업": 8763,
      "내용이": 8764,
      "달하는": 8765,
      "ic": 8766,
      "라스": 8767,
      "참여를": 8768,
      "니어": 8769,
      "연맹": 8770,
      "공고": 8771,
      "수업": 8772,
      "비즈니스": 8773,
      "신호": 8774,
      "가능성을": 8775,
      "아트": 8776,
      "물의": 8777,
      "텔레": 8778,
      "공사가": 8779,
      "징역": 8780,
      "팀이": 8781,
      "2018": 8782,
      "진행된": 8783,
      "수치": 8784,
      "64": 8785,
      "측정": 8786,
      "결과가": 8787,
      "급증": 8788,
      "북구": 8789,
      "사이트": 8790,
      "경우가": 8791,
      "미사": 8792,
      "착공": 8793,
      "면을": 8794,
      "공간을": 8795,
      "학술": 8796,
      "걱정": 8797,
      "북한이": 8798,
      "79": 8799,
      "7000": 8800,
      "영어": 8801,
      "유입": 8802,
      "구미": 8803,
      "보존": 8804,
      "답변": 8805,
      "1위를": 8806,
      "나누": 8807,
      "금이": 8808,
      "관리를": 8809,
      "수준의": 8810,
      "제외한": 8811,
      "실업": 8812,
      "태양광": 8813,
      "응급": 8814,
      "고발": 8815,
      "유리": 8816,
      "흐름": 8817,
      "전개": 8818,
      "본다": 8819,
      "것이므로": 8820,
      "사용할": 8821,
      "길이": 8822,
      "10개": 8823,
      "센터를": 8824,
      "8000": 8825,
      "페스티": 8826,
      "눈길을": 8827,
      "후보자": 8828,
      "연료": 8829,
      "높이고": 8830,
      "대해서도": 8831,
      "군에": 8832,
      "팀은": 8833,
      "항만": 8834,
      "집단": 8835,
      "보유한": 8836,
      "거의": 8837,
      "기업과": 8838,
      "법정": 8839,
      "사라": 8840,
      "re": 8841,
      "빠른": 8842,
      "여수": 8843,
      "통일": 8844,
      "대학생": 8845,
      "줄었다": 8846,
      "un": 8847,
      "보이는": 8848,
      "금은": 8849,
      "연출": 8850,
      "안전한": 8851,
      "비서": 8852,
      "임명": 8853,
      "부터는": 8854,
      "대처": 8855,
      "세포": 8856,
      "김성": 8857,
      "받게": 8858,
      "타당성": 8859,
      "페스티벌": 8860,
      "유아": 8861,
      "리티": 8862,
      "거점": 8863,
      "충분히": 8864,
      "반복": 8865,
      "정치적": 8866,
      "압박": 8867,
      "다이": 8868,
      "애플": 8869,
      "시키고": 8870,
      "사업자": 8871,
      "과는": 8872,
      "잡고": 8873,
      "고려해": 8874,
      "추세": 8875,
      "고위": 8876,
      "매장": 8877,
      "정지": 8878,
      "그림": 8879,
      "노총": 8880,
      "피해자": 8881,
      "보육": 8882,
      "지원할": 8883,
      "내용은": 8884,
      "손실": 8885,
      "계기가": 8886,
      "대선": 8887,
      "나와": 8888,
      "경우에": 8889,
      "먼트": 8890,
      "마련했다": 8891,
      "소화": 8892,
      "ICT": 8893,
      "유관": 8894,
      "착수": 8895,
      "행정안전": 8896,
      "54": 8897,
      "근본": 8898,
      "액이": 8899,
      "이야기": 8900,
      "것이고": 8901,
      "의미를": 8902,
      "함께하는": 8903,
      "전라": 8904,
      "감정": 8905,
      "도약": 8906,
      "영역": 8907,
      "상용": 8908,
      "기관의": 8909,
      "대상이": 8910,
      "트렌": 8911,
      "시작했다": 8912,
      "상황에": 8913,
      "터를": 8914,
      "미리": 8915,
      "원자": 8916,
      "상은": 8917,
      "74": 8918,
      "에이": 8919,
      "소는": 8920,
      "추진한다": 8921,
      "피해가": 8922,
      "내달": 8923,
      "중간": 8924,
      "내용의": 8925,
      "세트": 8926,
      "나선다": 8927,
      "제거": 8928,
      "수준으로": 8929,
      "기간을": 8930,
      "나눠": 8931,
      "바른미래당": 8932,
      "내지": 8933,
      "앞에서": 8934,
      "다수": 8935,
      "져야": 8936,
      "대구시": 8937,
      "깊은": 8938,
      "생을": 8939,
      "추진해": 8940,
      "화물": 8941,
      "기업인": 8942,
      "파이": 8943,
      "석유": 8944,
      "증진": 8945,
      "시민들이": 8946,
      "공헌": 8947,
      "면접": 8948,
      "마음을": 8949,
      ")’": 8950,
      "않으면": 8951,
      "유형": 8952,
      "음에도": 8953,
      "전지": 8954,
      "발급": 8955,
      "입증": 8956,
      "캐릭": 8957,
      "적지": 8958,
      "콘서트": 8959,
      "번호": 8960,
      "이라면": 8961,
      "이중": 8962,
      "서산": 8963,
      "벗어나": 8964,
      "법무부": 8965,
      "ha": 8966,
      "다르": 8967,
      "군수": 8968,
      "세미": 8969,
      "명절": 8970,
      "최우수": 8971,
      "회의실에서": 8972,
      "인기를": 8973,
      "당장": 8974,
      "FC": 8975,
      "지출": 8976,
      "조항": 8977,
      "선의": 8978,
      "주간": 8979,
      "캠퍼": 8980,
      "변동": 8981,
      "확대해": 8982,
      "임직원": 8983,
      "수여": 8984,
      "미를": 8985,
      "배제": 8986,
      "점포": 8987,
      "회장이": 8988,
      "분리": 8989,
      "어디": 8990,
      "오프": 8991,
      "제공할": 8992,
      "상인": 8993,
      "AS": 8994,
      "중공업": 8995,
      "시내": 8996,
      "상징": 8997,
      "호응": 8998,
      "산업혁명": 8999,
      "유니": 9000,
      "프랑스": 9001,
      "비난": 9002,
      "이슈": 9003,
      "리즈": 9004,
      "확대를": 9005,
      "면서도": 9006,
      "한계": 9007,
      "자영업": 9008,
      "드린다": 9009,
      "A씨는": 9010,
      "강의": 9011,
      "단축": 9012,
      "이르": 9013,
      "관계가": 9014,
      "시한": 9015,
      "위해서": 9016,
      "제2항": 9017,
      "별로는": 9018,
      "원이다": 9019,
      "사정이": 9020,
      "열었다": 9021,
      "시공": 9022,
      "호가는": 9023,
      "남자": 9024,
      "부실": 9025,
      "가가": 9026,
      "많았다": 9027,
      "사립": 9028,
      "됐던": 9029,
      "수로": 9030,
      "행을": 9031,
      "조사됐다": 9032,
      "지원사업": 9033,
      "기관이": 9034,
      "프리카": 9035,
      "커피": 9036,
      "션을": 9037,
      "순천": 9038,
      "가을": 9039,
      "남성": 9040,
      "부대": 9041,
      "주체": 9042,
      "고등": 9043,
      "우리는": 9044,
      "위와": 9045,
      "씨를": 9046,
      "타운": 9047,
      "조금": 9048,
      "올리": 9049,
      "유튜브": 9050,
      "의미가": 9051,
      "오피스": 9052,
      "질병": 9053,
      "85": 9054,
      "부상": 9055,
      "유발": 9056,
      "조작": 9057,
      "선사": 9058,
      "입학": 9059,
      "자리에서": 9060,
      "간다": 9061,
      "소리": 9062,
      "관객": 9063,
      "적정": 9064,
      "현재까지": 9065,
      "보전": 9066,
      "운영을": 9067,
      "무대": 9068,
      "기자회견을": 9069,
      "LED": 9070,
      "공제": 9071,
      "세월": 9072,
      "획득": 9073,
      "이끌": 9074,
      "특구": 9075,
      "초등": 9076,
      "선보인다": 9077,
      "의해": 9078,
      "일자리를": 9079,
      "63": 9080,
      "신경": 9081,
      "시까지": 9082,
      "아버": 9083,
      "소에": 9084,
      "재건축": 9085,
      "활동에": 9086,
      "KBS": 9087,
      "한정": 9088,
      "권역": 9089,
      "뮤지": 9090,
      "심판": 9091,
      "주를": 9092,
      "라운드": 9093,
      "aeil": 9094,
      "인물": 9095,
      "박물관": 9096,
      "해당하는": 9097,
      "상업": 9098,
      "참여할": 9099,
      "겪고": 9100,
      "우리가": 9101,
      "양산": 9102,
      "화성": 9103,
      "mm": 9104,
      "이라도": 9105,
      "이종": 9106,
      "우고": 9107,
      "강연": 9108,
      "동참": 9109,
      "미만": 9110,
      "2억": 9111,
      "명확": 9112,
      "에서의": 9113,
      "겠다고": 9114,
      "해수": 9115,
      "만명": 9116,
      "자율주행": 9117,
      "군수는": 9118,
      "생각한다": 9119,
      "해를": 9120,
      "눈에": 9121,
      "인에게": 9122,
      "보를": 9123,
      "높이": 9124,
      "좋아": 9125,
      "장관이": 9126,
      "결정을": 9127,
      "전이": 9128,
      "보내": 9129,
      "진은": 9130,
      "4천": 9131,
      "기상": 9132,
      "사업이다": 9133,
      "조합원": 9134,
      ")·": 9135,
      "차로": 9136,
      "2조": 9137,
      "홍콩": 9138,
      "imaeil": 9139,
      "용인": 9140,
      "시작한": 9141,
      "이야기를": 9142,
      "세로": 9143,
      "최대한": 9144,
      "폐쇄": 9145,
      "가격은": 9146,
      "급식": 9147,
      "업체가": 9148,
      "돈을": 9149,
      "분위기": 9150,
      "1층": 9151,
      "지배": 9152,
      "민선": 9153,
      "국세": 9154,
      "마당": 9155,
      "심사를": 9156,
      "지원하고": 9157,
      "aegu": 9158,
      "NG": 9159,
      "국산": 9160,
      "진술": 9161,
      "진행할": 9162,
      "대회를": 9163,
      "신축": 9164,
      "분을": 9165,
      "이른바": 9166,
      "농민": 9167,
      "남은": 9168,
      "주말": 9169,
      "41": 9170,
      "총괄": 9171,
      "최적": 9172,
      "절감": 9173,
      "주차장": 9174,
      "사회의": 9175,
      "하라": 9176,
      "현지시간": 9177,
      "일방": 9178,
      "임원": 9179,
      "쉽지": 9180,
      "변화를": 9181,
      "ion": 9182,
      "느끼": 9183,
      "비용을": 9184,
      "전략을": 9185,
      "정책에": 9186,
      "주제": 9187,
      "모두가": 9188,
      "수정": 9189,
      "비례": 9190,
      "AR": 9191,
      "싶다": 9192,
      "클러스": 9193,
      "idaegu": 9194,
      "만원의": 9195,
      "세종시": 9196,
      "패스트": 9197,
      "해안": 9198,
      "건이": 9199,
      "광역시": 9200,
      "년대": 9201,
      "기조": 9202,
      "지역은": 9203,
      "등기": 9204,
      "패션": 9205,
      "재무": 9206,
      "괴산": 9207,
      "위법": 9208,
      "한번": 9209,
      "kj": 9210,
      "블랙": 9211,
      "보고서": 9212,
      "불러": 9213,
      "체제": 9214,
      "naver": 9215,
      "오래": 9216,
      "ang": 9217,
      "기회가": 9218,
      "경험을": 9219,
      "호소": 9220,
      "은행은": 9221,
      "있지": 9222,
      "올렸다": 9223,
      "확인됐다": 9224,
      "GS": 9225,
      "중학교": 9226,
      "구분": 9227,
      "동향": 9228,
      "타임": 9229,
      "소외": 9230,
      "포르": 9231,
      "유공": 9232,
      "채택": 9233,
      "지적이": 9234,
      "촉구했다": 9235,
      "모양": 9236,
      "임상": 9237,
      "조속": 9238,
      "숙박": 9239,
      "구가": 9240,
      "게시": 9241,
      "기후": 9242,
      "총리는": 9243,
      "나오고": 9244,
      "강력한": 9245,
      "작업을": 9246,
      "점도": 9247,
      "실질적인": 9248,
      "의장": 9249,
      "연대": 9250,
      "독립운동": 9251,
      "연휴": 9252,
      "결과에": 9253,
      "수사를": 9254,
      "더해": 9255,
      "규정에": 9256,
      "이트": 9257,
      "중소벤처기업": 9258,
      "말이": 9259,
      "봐야": 9260,
      "폭염": 9261,
      "개입": 9262,
      "말로": 9263,
      "려면": 9264,
      "막을": 9265,
      "유해": 9266,
      "중국의": 9267,
      "회사가": 9268,
      "비추어": 9269,
      "그에": 9270,
      "행복한": 9271,
      "슈퍼": 9272,
      "스와": 9273,
      "토대로": 9274,
      "화와": 9275,
      "방역": 9276,
      "교실": 9277,
      "개정안": 9278,
      "방치": 9279,
      "이어질": 9280,
      "민생": 9281,
      "실내": 9282,
      "처분을": 9283,
      "객관": 9284,
      "새만": 9285,
      "생존": 9286,
      "종목의": 9287,
      "조성을": 9288,
      "거론": 9289,
      "\"(": 9290,
      "진이": 9291,
      "카메": 9292,
      "보복": 9293,
      "협동": 9294,
      "PG": 9295,
      "비중이": 9296,
      "이들의": 9297,
      "다소": 9298,
      "철거": 9299,
      "불가피": 9300,
      "지면": 9301,
      "도모": 9302,
      "하나로": 9303,
      "이름을": 9304,
      "2명": 9305,
      "공사를": 9306,
      "바꾸": 9307,
      "보건복지": 9308,
      "입니다": 9309,
      "부인": 9310,
      "표창": 9311,
      "창작": 9312,
      "전남도": 9313,
      "대안": 9314,
      "바라": 9315,
      "산단": 9316,
      "상에": 9317,
      "권고": 9318,
      "박람회": 9319,
      "이주": 9320,
      "김현": 9321,
      "기사": 9322,
      "마리": 9323,
      "경고": 9324,
      "지에서": 9325,
      "평소": 9326,
      "제5": 9327,
      "이용한": 9328,
      "누적": 9329,
      "완주": 9330,
      "비리": 9331,
      "따뜻": 9332,
      "검색": 9333,
      "계산": 9334,
      "분류": 9335,
      "MBC": 9336,
      "시리즈": 9337,
      "상대적으로": 9338,
      "포기": 9339,
      "87": 9340,
      "리어": 9341,
      "기업들이": 9342,
      "방향을": 9343,
      "낮아": 9344,
      "교통사고": 9345,
      "참석해": 9346,
      "친화": 9347,
      "실정": 9348,
      "지휘": 9349,
      "2011년": 9350,
      "나설": 9351,
      "출입": 9352,
      "오고": 9353,
      "중부": 9354,
      "텔레콤": 9355,
      "활약": 9356,
      "공인": 9357,
      "이같은": 9358,
      "건에": 9359,
      "현금": 9360,
      "제시했다": 9361,
      "멤버": 9362,
      "3개월": 9363,
      "열렸다": 9364,
      "발전에": 9365,
      "상가": 9366,
      "김정은": 9367,
      "커뮤니티": 9368,
      "국의": 9369,
      "높이는": 9370,
      "120": 9371,
      "희생": 9372,
      "기대하고": 9373,
      "800": 9374,
      "정체": 9375,
      "재개발": 9376,
      "대통령과": 9377,
      "아니냐": 9378,
      "간담회를": 9379,
      "나오는": 9380,
      "면세": 9381,
      "ing": 9382,
      "하려면": 9383,
      "검찰은": 9384,
      "종의": 9385,
      "치열": 9386,
      "3분기": 9387,
      "지역으로": 9388,
      "소요": 9389,
      "사진을": 9390,
      "갤럭": 9391,
      "돌입": 9392,
      "소형": 9393,
      "오랜": 9394,
      "증명": 9395,
      "차는": 9396,
      "배당": 9397,
      "있었던": 9398,
      "력과": 9399,
      "이같이": 9400,
      "야당": 9401,
      "원활": 9402,
      "산업통상": 9403,
      "수수료": 9404,
      "자들에게": 9405,
      "아프리카": 9406,
      "의약품": 9407,
      "디스플레이": 9408,
      "유예": 9409,
      "통제": 9410,
      "헬스": 9411,
      "구제": 9412,
      "사항은": 9413,
      "반려": 9414,
      "목포": 9415,
      "대표이사": 9416,
      "문제로": 9417,
      "파견": 9418,
      "인터뷰": 9419,
      "여기": 9420,
      "방해": 9421,
      "공동으로": 9422,
      "팀을": 9423,
      "페이스북": 9424,
      "개념": 9425,
      "지인": 9426,
      "함이": 9427,
      "관의": 9428,
      "위생": 9429,
      "간편": 9430,
      "서민": 9431,
      "부족한": 9432,
      "후속": 9433,
      "시설이": 9434,
      "행사가": 9435,
      "설명이다": 9436,
      "마련해": 9437,
      "투입해": 9438,
      "되길": 9439,
      "행위가": 9440,
      "기업으로": 9441,
      "두산": 9442,
      "전월": 9443,
      "노동조합": 9444,
      "바뀌": 9445,
      "기획재": 9446,
      "일환으로": 9447,
      "커지고": 9448,
      "갤럭시": 9449,
      "비행": 9450,
      "산하": 9451,
      "허위": 9452,
      "원내대표는": 9453,
      "사용하는": 9454,
      "cheon": 9455,
      "도급": 9456,
      "아내": 9457,
      "국민연금": 9458,
      "경기를": 9459,
      "맞은": 9460,
      "마감": 9461,
      "김해": 9462,
      "아세": 9463,
      "축하": 9464,
      "투쟁": 9465,
      "행위에": 9466,
      "관세": 9467,
      "새만금": 9468,
      "대회에서": 9469,
      "실효": 9470,
      "저렴": 9471,
      "51": 9472,
      "집을": 9473,
      "수출규제": 9474,
      "김정": 9475,
      "손을": 9476,
      "창원": 9477,
      "컴퓨": 9478,
      "시켰다": 9479,
      "9000": 9480,
      "만달러": 9481,
      "사례를": 9482,
      "대표적인": 9483,
      "기간이": 9484,
      "미래를": 9485,
      "일어": 9486,
      "가까운": 9487,
      "운동을": 9488,
      "시기": 9489,
      "상환": 9490,
      "선제": 9491,
      "산업통상자원": 9492,
      "이유는": 9493,
      "서의": 9494,
      "ro": 9495,
      "가전": 9496,
      "끝에": 9497,
      "모니터링": 9498,
      "분야에": 9499,
      "고의": 9500,
      "당한": 9501,
      "교섭": 9502,
      "산정": 9503,
      "되었": 9504,
      "때는": 9505,
      "미치는": 9506,
      "납세": 9507,
      "직후": 9508,
      "위원장이": 9509,
      "얼마나": 9510,
      "김진": 9511,
      "터미": 9512,
      "평양": 9513,
      "스피": 9514,
      "의뢰": 9515,
      "전세": 9516,
      "9개": 9517,
      "지역주민": 9518,
      "가수": 9519,
      "발주": 9520,
      "교과": 9521,
      "인간": 9522,
      "지방선거": 9523,
      "중개": 9524,
      "갈등": 9525,
      "카메라": 9526,
      "st": 9527,
      "물가": 9528,
      "조리": 9529,
      "사업과": 9530,
      "식에": 9531,
      "비는": 9532,
      "수준이다": 9533,
      "지어": 9534,
      "뿐이다": 9535,
      "드러났다": 9536,
      "규모가": 9537,
      "고통": 9538,
      "체결했다": 9539,
      "이들이": 9540,
      "됐지만": 9541,
      "남부": 9542,
      "배터리": 9543,
      "TF": 9544,
      "개발한": 9545,
      "이상이": 9546,
      "설문": 9547,
      "신체": 9548,
      "감시": 9549,
      "95": 9550,
      "승리": 9551,
      "클러스터": 9552,
      "빨리": 9553,
      "해제": 9554,
      "’(": 9555,
      "스페": 9556,
      "오를": 9557,
      "소정의": 9558,
      "원장은": 9559,
      "지주": 9560,
      "단양": 9561,
      "얼굴": 9562,
      "신입": 9563,
      "못해": 9564,
      "일에": 9565,
      "항목": 9566,
      "안정적인": 9567,
      "있으나": 9568,
      "물량": 9569,
      "incheon": 9570,
      "자전": 9571,
      "맞이": 9572,
      "화장품": 9573,
      "62": 9574,
      "관할": 9575,
      "이탈": 9576,
      "대법원": 9577,
      "테스트": 9578,
      "됐다고": 9579,
      "노출": 9580,
      "계좌": 9581,
      "담긴": 9582,
      "산학": 9583,
      "자주": 9584,
      "회관": 9585,
      "목소리가": 9586,
      "아름다운": 9587,
      "가까이": 9588,
      "실시한": 9589,
      "위안": 9590,
      "공연을": 9591,
      "건강한": 9592,
      "식에서": 9593,
      "2010년": 9594,
      "능력을": 9595,
      "사무소": 9596,
      "평택": 9597,
      "허가를": 9598,
      "산업을": 9599,
      "경과": 9600,
      "답했다": 9601,
      "분이": 9602,
      "서울경제": 9603,
      "신을": 9604,
      "대상은": 9605,
      "2층": 9606,
      "700": 9607,
      "기여할": 9608,
      "판을": 9609,
      "발생할": 9610,
      "수리": 9611,
      "협의를": 9612,
      "억원이": 9613,
      "권력": 9614,
      "캐릭터": 9615,
      "활용할": 9616,
      "공천": 9617,
      "영상을": 9618,
      "SK텔레콤": 9619,
      "incheonilbo": 9620,
      "모임": 9621,
      "여개": 9622,
      "해주": 9623,
      "유엔": 9624,
      "체감": 9625,
      "상무": 9626,
      "회와": 9627,
      "급격": 9628,
      "수학": 9629,
      "홍성": 9630,
      "재료": 9631,
      "차세대": 9632,
      "청원": 9633,
      "간접": 9634,
      "현장을": 9635,
      "아카": 9636,
      "운영한다": 9637,
      "다니": 9638,
      "우리의": 9639,
      "쓰레기": 9640,
      "차원의": 9641,
      "속도를": 9642,
      "관람객": 9643,
      "사례가": 9644,
      "원내대표": 9645,
      "적법": 9646,
      "늘고": 9647,
      "3대": 9648,
      "충돌": 9649,
      "방법을": 9650,
      "대외": 9651,
      "메뉴": 9652,
      "시장과": 9653,
      "매주": 9654,
      "프레": 9655,
      "화로": 9656,
      "구상": 9657,
      "히는": 9658,
      "됨에": 9659,
      "민족": 9660,
      "알아": 9661,
      "터미널": 9662,
      "인들이": 9663,
      "해운": 9664,
      "탄소": 9665,
      "적은": 9666,
      "규모는": 9667,
      "사기": 9668,
      "관심과": 9669,
      "명시": 9670,
      "위원회의": 9671,
      "충족": 9672,
      "대행": 9673,
      "포장": 9674,
      "가야": 9675,
      "이마트": 9676,
      "진흥원": 9677,
      "대사": 9678,
      "진행되는": 9679,
      "대법": 9680,
      "하나의": 9681,
      "소시": 9682,
      "정밀": 9683,
      "개발에": 9684,
      "망을": 9685,
      "혐의를": 9686,
      "궁금": 9687,
      "진상": 9688,
      "먹거리": 9689,
      "신탁": 9690,
      "법은": 9691,
      "하천": 9692,
      "선출": 9693,
      "그간": 9694,
      "조명": 9695,
      "억원에": 9696,
      "둘러싼": 9697,
      "250": 9698,
      "안전을": 9699,
      "오르": 9700,
      "상승했다": 9701,
      "클래": 9702,
      "순간": 9703,
      "내다": 9704,
      "의원의": 9705,
      "패스트트랙": 9706,
      "았고": 9707,
      "입장이다": 9708,
      "보행": 9709,
      "자원봉사": 9710,
      "잠재": 9711,
      "수성": 9712,
      "운영에": 9713,
      "어도": 9714,
      "조세": 9715,
      "가능해": 9716,
      "생활을": 9717,
      "떨어진": 9718,
      "국악": 9719,
      "캠페인": 9720,
      "높였다": 9721,
      "대와": 9722,
      "종을": 9723,
      "감축": 9724,
      "재개": 9725,
      "특강": 9726,
      "절대": 9727,
      "고시": 9728,
      "때까지": 9729,
      "사업장": 9730,
      "은행이": 9731,
      "요구하는": 9732,
      "추진을": 9733,
      "줬다": 9734,
      "만원으로": 9735,
      "다채": 9736,
      "경로": 9737,
      "서부": 9738,
      "일로": 9739,
      "진행한": 9740,
      "다문화": 9741,
      "전에서": 9742,
      "미니": 9743,
      "동시": 9744,
      "싶은": 9745,
      "힘들": 9746,
      "행사에": 9747,
      "리며": 9748,
      "청주시": 9749,
      "충격": 9750,
      "원자력": 9751,
      "패키": 9752,
      "부부": 9753,
      "이수": 9754,
      "지원에": 9755,
      "규정을": 9756,
      "89": 9757,
      "모으": 9758,
      "부작용": 9759,
      "여명의": 9760,
      "타워": 9761,
      "이노": 9762,
      "억달러": 9763,
      "자신이": 9764,
      "모여": 9765,
      "나이": 9766,
      "개통": 9767,
      "교육부": 9768,
      "그가": 9769,
      "자체가": 9770,
      "법상": 9771,
      "업계에": 9772,
      "일단": 9773,
      "문화체육": 9774,
      "여당": 9775,
      "부담이": 9776,
      "테인": 9777,
      "말한다": 9778,
      "피언": 9779,
      "교환": 9780,
      "상한": 9781,
      "조절": 9782,
      "비슷한": 9783,
      "기호": 9784,
      "론을": 9785,
      "저소득": 9786,
      "주재": 9787,
      "수단": 9788,
      "간담회": 9789,
      "사퇴": 9790,
      "1분기": 9791,
      "거리를": 9792,
      "시민단체": 9793,
      "분에": 9794,
      "4대": 9795,
      "심한": 9796,
      "있어야": 9797,
      "농림": 9798,
      "영양": 9799,
      "합병": 9800,
      "담아": 9801,
      "코스닥": 9802,
      "72": 9803,
      "관리에": 9804,
      "세미나": 9805,
      "차질": 9806,
      "분권": 9807,
      "난다": 9808,
      "의사를": 9809,
      "사람들이": 9810,
      "삶을": 9811,
      "ma": 9812,
      "이사회": 9813,
      "대변인은": 9814,
      "수집": 9815,
      "여객": 9816,
      "6만": 9817,
      "경제의": 9818,
      "취약계층": 9819,
      "중견": 9820,
      "ong": 9821,
      "콘텐츠를": 9822,
      "73": 9823,
      "선이": 9824,
      "기반을": 9825,
      "단기": 9826,
      "탄생": 9827,
      "수능": 9828,
      "사건을": 9829,
      "정확한": 9830,
      "수시": 9831,
      "61": 9832,
      "HO": 9833,
      "화해": 9834,
      "조에": 9835,
      "어업": 9836,
      "DI": 9837,
      "예정인": 9838,
      "VR": 9839,
      "동력": 9840,
      "이래": 9841,
      "있는지": 9842,
      "세금": 9843,
      "았던": 9844,
      "공동주택": 9845,
      "진천": 9846,
      "FA": 9847,
      "식은": 9848,
      "진행하는": 9849,
      "캠퍼스": 9850,
      "빠져": 9851,
      "www": 9852,
      "달한다": 9853,
      "폭이": 9854,
      "선수권": 9855,
      "정책의": 9856,
      "겠지만": 9857,
      "2009년": 9858,
      "CEO": 9859,
      "이사장": 9860,
      "사람은": 9861,
      "고용노동": 9862,
      "부회장": 9863,
      "항의": 9864,
      "경계": 9865,
      "점과": 9866,
      "10만": 9867,
      "차지하는": 9868,
      "연동": 9869,
      "반환": 9870,
      "동양일보": 9871,
      "비율이": 9872,
      "방위": 9873,
      "생물": 9874,
      "행태": 9875,
      "서울대": 9876,
      "내외": 9877,
      "육아": 9878,
      "이상을": 9879,
      "구에": 9880,
      "6천": 9881,
      "TA": 9882,
      "풍부": 9883,
      "3년간": 9884,
      "강화하고": 9885,
      "도청": 9886,
      "수준을": 9887,
      "서귀": 9888,
      "요구했다": 9889,
      "드림": 9890,
      "실습": 9891,
      "의혹을": 9892,
      "뉴욕": 9893,
      "국민이": 9894,
      "보관": 9895,
      "연말": 9896,
      "통보": 9897,
      "SOC": 9898,
      "앞에": 9899,
      "운전자": 9900,
      "거래량": 9901,
      "전당": 9902,
      "지진": 9903,
      "확보를": 9904,
      "엔터": 9905,
      "만남": 9906,
      "심화": 9907,
      "나올": 9908,
      "가득": 9909,
      "기관과": 9910,
      "챔피언": 9911,
      "10시": 9912,
      "곳으로": 9913,
      "김태": 9914,
      "정책이": 9915,
      "촬영을": 9916,
      "이의": 9917,
      "저장": 9918,
      "노하우": 9919,
      "싱가": 9920,
      "한층": 9921,
      "김상": 9922,
      "개최한다": 9923,
      "됐다는": 9924,
      "남녀": 9925,
      "가해": 9926,
      "마약": 9927,
      "청산": 9928,
      "대회는": 9929,
      "유가": 9930,
      "1일부터": 9931,
      "자전거": 9932,
      "경력": 9933,
      "발을": 9934,
      "장려": 9935,
      "개척": 9936,
      "진영": 9937,
      "2위": 9938,
      "곳의": 9939,
      "면에": 9940,
      "명품": 9941,
      "지역민": 9942,
      "신세계": 9943,
      "자살": 9944,
      "형태로": 9945,
      "아세안": 9946,
      "블루": 9947,
      "위축": 9948,
      "이벤트를": 9949,
      "유동": 9950,
      "전주시": 9951,
      "불확실": 9952,
      "협동조합": 9953,
      "의존": 9954,
      "저축": 9955,
      "문이": 9956,
      "본격적으로": 9957,
      "기존의": 9958,
      "피부": 9959,
      "마스터": 9960,
      "이어지고": 9961,
      "한국은": 9962,
      "비로": 9963,
      "기록한": 9964,
      "개국": 9965,
      "브리핑": 9966,
      "3명": 9967,
      "듣고": 9968,
      "표를": 9969,
      "감소한": 9970,
      "경찰서": 9971,
      "보조금": 9972,
      "명칭": 9973,
      "플랜": 9974,
      "김포": 9975,
      "당일": 9976,
      "부가가치": 9977,
      "인들의": 9978,
      "증정": 9979,
      "체납": 9980,
      "전해졌다": 9981,
      "내년도": 9982,
      "분석했다": 9983,
      "구직": 9984,
      "내렸다": 9985,
      "모습이": 9986,
      "앞장서": 9987,
      "시대를": 9988,
      "달아": 9989,
      "매립": 9990,
      "하므로": 9991,
      "무료로": 9992,
      "비정규직": 9993,
      "의식": 9994,
      "공간으로": 9995,
      "서귀포": 9996,
      "구축을": 9997,
      "이유다": 9998,
      "혼란": 9999,
      "글을": 10000,
      "지침": 10001,
      "형을": 10002,
      "에스": 10003,
      "el": 10004,
      "복귀": 10005,
      "2회": 10006,
      "세무": 10007,
      "하면서도": 10008,
      "인천시": 10009,
      "20대": 10010,
      "11시": 10011,
      "2008년": 10012,
      "배송": 10013,
      "문제에": 10014,
      "즉시": 10015,
      "보령": 10016,
      "청사": 10017,
      "애로": 10018,
      "상시": 10019,
      "폭발": 10020,
      "일리": 10021,
      "비밀": 10022,
      "임차": 10023,
      "진정": 10024,
      "마크": 10025,
      "향해": 10026,
      "되어야": 10027,
      "지하철": 10028,
      "있음을": 10029,
      "방법으로": 10030,
      "것이란": 10031,
      "교육과정": 10032,
      "노동자": 10033,
      "계획에": 10034,
      "성립": 10035,
      "철저히": 10036,
      "올린": 10037,
      "경매": 10038,
      "사회공헌": 10039,
      "법의": 10040,
      "요청했다": 10041,
      "하우스": 10042,
      "연락": 10043,
      "국장은": 10044,
      "만들고": 10045,
      "널리": 10046,
      "정부에": 10047,
      "시작된": 10048,
      "공론": 10049,
      "재생에너지": 10050,
      "출석": 10051,
      "2030": 10052,
      "협정": 10053,
      "소멸": 10054,
      "했기": 10055,
      "은행의": 10056,
      "복원": 10057,
      "블록체인": 10058,
      "분위기를": 10059,
      "배달": 10060,
      "줄어든": 10061,
      "지원이": 10062,
      "작물": 10063,
      "업무협약을": 10064,
      "높이기": 10065,
      "북도": 10066,
      "동부": 10067,
      "찾은": 10068,
      "지게": 10069,
      "이정": 10070,
      "필요하다는": 10071,
      "3억": 10072,
      "남구": 10073,
      "절실": 10074,
      "요양": 10075,
      "적으로는": 10076,
      "투기": 10077,
      "교부": 10078,
      "인하여": 10079,
      "소음": 10080,
      "자금을": 10081,
      "예타": 10082,
      "일시": 10083,
      "대상을": 10084,
      "결승": 10085,
      "금속": 10086,
      "연주": 10087,
      "재를": 10088,
      "주어": 10089,
      "지며": 10090,
      "용품": 10091,
      "힌다": 10092,
      "어려워": 10093,
      "신임": 10094,
      "자이": 10095,
      "존중": 10096,
      "2분기": 10097,
      "MC": 10098,
      "거래되고": 10099,
      "것처럼": 10100,
      "지원해": 10101,
      "뮤지컬": 10102,
      "MOU": 10103,
      "방을": 10104,
      "혁신을": 10105,
      "의견이": 10106,
      "앞둔": 10107,
      "평을": 10108,
      "7천": 10109,
      "북부": 10110,
      "세월호": 10111,
      "청렴": 10112,
      "갈수록": 10113,
      "보통": 10114,
      "높았다": 10115,
      "아베": 10116,
      "아주": 10117,
      "전국에서": 10118,
      "DP": 10119,
      "중점": 10120,
      "천연": 10121,
      "대표하는": 10122,
      "적절한": 10123,
      "76": 10124,
      "정치권": 10125,
      "훨씬": 10126,
      "충청일보": 10127,
      "부탁": 10128,
      "98": 10129,
      "머물": 10130,
      "기간에": 10131,
      "방사": 10132,
      "역사를": 10133,
      "실적을": 10134,
      "찬성": 10135,
      "김용": 10136,
      "흔들": 10137,
      "고급": 10138,
      "김동": 10139,
      "높여": 10140,
      "사전에": 10141,
      "친다": 10142,
      "방식을": 10143,
      "합니다": 10144,
      "지대": 10145,
      "연계해": 10146,
      "사고를": 10147,
      "판결을": 10148,
      "NH": 10149,
      "전은": 10150,
      "운항": 10151,
      "단과": 10152,
      "격려": 10153,
      "환영": 10154,
      "지기": 10155,
      "동에": 10156,
      "찾아가는": 10157,
      "5년간": 10158,
      "계의": 10159,
      "끌고": 10160,
      "관과": 10161,
      "바닥": 10162,
      "미국과": 10163,
      "정권": 10164,
      "싱가포르": 10165,
      "초래": 10166,
      "폴리": 10167,
      "뿌리": 10168,
      "차이가": 10169,
      "모델을": 10170,
      "와이": 10171,
      "공정거래": 10172,
      "국회의": 10173,
      "가중": 10174,
      "얻고": 10175,
      "2016": 10176,
      "스럽게": 10177,
      "농업기술": 10178,
      "소유권": 10179,
      "건축물": 10180,
      "8천": 10181,
      "라이프": 10182,
      "다짐": 10183,
      "산불": 10184,
      "도시로": 10185,
      "해양수산": 10186,
      "태안": 10187,
      "대구경북": 10188,
      "공개했다": 10189,
      "2017": 10190,
      "호주": 10191,
      "활성화에": 10192,
      "분할": 10193,
      "서가": 10194,
      "경찰에": 10195,
      "방문객": 10196,
      "국장": 10197,
      "이뤄졌다": 10198,
      "맞게": 10199,
      "함은": 10200,
      "특별법": 10201,
      "발휘": 10202,
      "농어촌": 10203,
      "실시하고": 10204,
      "어를": 10205,
      "IL": 10206,
      "충북도": 10207,
      "내세": 10208,
      "수강": 10209,
      "비판했다": 10210,
      "CCTV": 10211,
      "호응을": 10212,
      "때마다": 10213,
      "소프트웨어": 10214,
      "보험료": 10215,
      "뷰티": 10216,
      "토론회": 10217,
      "입은": 10218,
      "갖춰": 10219,
      "기업들의": 10220,
      "관측": 10221,
      "당첨": 10222,
      "net": 10223,
      "키워": 10224,
      "철저한": 10225,
      "설득": 10226,
      "손해배상": 10227,
      "있다면": 10228,
      "금액은": 10229,
      "서면": 10230,
      "이승": 10231,
      "eong": 10232,
      "체를": 10233,
      "IB": 10234,
      "김기": 10235,
      "인적": 10236,
      "스카": 10237,
      "물리": 10238,
      "경제가": 10239,
      "7기": 10240,
      "청소": 10241,
      "철회": 10242,
      "항소": 10243,
      "입을": 10244,
      "일각": 10245,
      "수당": 10246,
      "식당": 10247,
      "농식품": 10248,
      "호의": 10249,
      "세계적인": 10250,
      "향상을": 10251,
      "물품": 10252,
      "되자": 10253,
      "소규모": 10254,
      "군과": 10255,
      "2022년": 10256,
      "업무협약": 10257,
      "전수": 10258,
      "마친": 10259,
      "할지": 10260,
      "성인": 10261,
      "치유": 10262,
      "추억": 10263,
      "풀어": 10264,
      "멘토": 10265,
      "피의": 10266,
      "스마트시티": 10267,
      "골목": 10268,
      "lo": 10269,
      "제철": 10270,
      "데이터를": 10271,
      "출전": 10272,
      "단일": 10273,
      "도출": 10274,
      "바람직": 10275,
      "의무를": 10276,
      "가의": 10277,
      "뒀다": 10278,
      "하자는": 10279,
      "안전관리": 10280,
      "해결을": 10281,
      "중기": 10282,
      "기관은": 10283,
      "토록": 10284,
      "밸리": 10285,
      "환경부": 10286,
      "아카데": 10287,
      "영남": 10288,
      "교원": 10289,
      "그룹은": 10290,
      "감면": 10291,
      "완공": 10292,
      "네시아": 10293,
      "SW": 10294,
      "인건": 10295,
      "이어졌다": 10296,
      "제출한": 10297,
      "구성해": 10298,
      "소송을": 10299,
      "서명": 10300,
      "자립": 10301,
      "번째로": 10302,
      "측의": 10303,
      "기대를": 10304,
      "주민자치": 10305,
      "변화에": 10306,
      "DB": 10307,
      "높일": 10308,
      "인력을": 10309,
      "태국": 10310,
      "구청장": 10311,
      "임대주택": 10312,
      "밀한": 10313,
      "최신": 10314,
      "남도": 10315,
      "교육과": 10316,
      "EU": 10317,
      "까지는": 10318,
      "내린": 10319,
      "사람의": 10320,
      "오프라인": 10321,
      "성의": 10322,
      "전일": 10323,
      "열병": 10324,
      "제의": 10325,
      "비율은": 10326,
      "예산이": 10327,
      "목소리": 10328,
      "인도네시아": 10329,
      "데뷔": 10330,
      "실증": 10331,
      "교수가": 10332,
      "병행": 10333,
      "자발": 10334,
      "자들을": 10335,
      "보은": 10336,
      "국제공": 10337,
      "하락했다": 10338,
      "전부": 10339,
      "계획이": 10340,
      "간호": 10341,
      "어머니": 10342,
      "설명회": 10343,
      "테크노": 10344,
      "진보": 10345,
      "불거": 10346,
      "고창": 10347,
      "저녁": 10348,
      "박스": 10349,
      "말고": 10350,
      "정식": 10351,
      "2023": 10352,
      "담배": 10353,
      "학원": 10354,
      "즉각": 10355,
      "TO": 10356,
      "사후": 10357,
      "범위를": 10358,
      "없도록": 10359,
      "규제를": 10360,
      "화합": 10361,
      "렀다": 10362,
      "yeong": 10363,
      "하늘": 10364,
      "이뤄질": 10365,
      "상당한": 10366,
      "적한": 10367,
      "다리": 10368,
      "편집": 10369,
      "좋다": 10370,
      "기간은": 10371,
      "미사일": 10372,
      "타이": 10373,
      "경기가": 10374,
      "민주주의": 10375,
      "참여했다": 10376,
      "때에는": 10377,
      "연을": 10378,
      "업체의": 10379,
      "그쳤다": 10380,
      "한해": 10381,
      "sh": 10382,
      "경상": 10383,
      "뜨거운": 10384,
      "선거법": 10385,
      "연습": 10386,
      "야간": 10387,
      "화하고": 10388,
      "실장은": 10389,
      "앨범": 10390,
      "호흡": 10391,
      "대거": 10392,
      "사각": 10393,
      "당진시": 10394,
      "대만": 10395,
      "금호": 10396,
      "무선": 10397,
      "악취": 10398,
      "현장에": 10399,
      "yeongnam": 10400,
      "따뜻한": 10401,
      "내수": 10402,
      "가게": 10403,
      "결과는": 10404,
      "메달을": 10405,
      "공주": 10406,
      "들로부터": 10407,
      "보유하고": 10408,
      "경주": 10409,
      "차이": 10410,
      "넘게": 10411,
      "미국이": 10412,
      "제어": 10413,
      "본부장은": 10414,
      "사설": 10415,
      "71": 10416,
      "위원은": 10417,
      "테인먼트": 10418,
      "SS": 10419,
      "구하는": 10420,
      "액의": 10421,
      "자회사": 10422,
      "아무런": 10423,
      "수상했다": 10424,
      "지시": 10425,
      "작품을": 10426,
      "유족": 10427,
      "컴퓨터": 10428,
      "윤리": 10429,
      "기록을": 10430,
      "국토교통부": 10431,
      "대화를": 10432,
      "위에서": 10433,
      "2배": 10434,
      "보아야": 10435,
      "내야": 10436,
      "필리": 10437,
      "감한": 10438,
      "민주화": 10439,
      "사랑을": 10440,
      "진행될": 10441,
      "BO": 10442,
      "반영해": 10443,
      "잡았다": 10444,
      "발생했다": 10445,
      "정신을": 10446,
      "3조": 10447,
      "가속": 10448,
      "단에": 10449,
      "전부터": 10450,
      "1운동": 10451,
      "늘려": 10452,
      "정책과": 10453,
      "달라고": 10454,
      "완벽": 10455,
      "가격을": 10456,
      "씨와": 10457,
      "여의도": 10458,
      "주인공": 10459,
      "다채로운": 10460,
      "kw": 10461,
      "일정을": 10462,
      "AP": 10463,
      "아우": 10464,
      "NC": 10465,
      "관계에": 10466,
      "이르는": 10467,
      "자극": 10468,
      "이용하는": 10469,
      "제품은": 10470,
      "후반": 10471,
      "워크숍": 10472,
      "주지": 10473,
      "시민이": 10474,
      "목표를": 10475,
      "취재": 10476,
      "고정": 10477,
      "스럽다": 10478,
      "예금": 10479,
      "돌려": 10480,
      "명백": 10481,
      "종이": 10482,
      "동일한": 10483,
      "평창": 10484,
      "남편": 10485,
      "임용": 10486,
      "타고": 10487,
      "이명": 10488,
      "전망된다": 10489,
      "성공적으로": 10490,
      "걸음": 10491,
      "컨벤": 10492,
      "사이버": 10493,
      "움직임": 10494,
      "김재": 10495,
      "100만": 10496,
      "평등": 10497,
      "인에": 10498,
      "월드컵": 10499,
      "모빌": 10500,
      "광산": 10501,
      "검찰이": 10502,
      "7만": 10503,
      "뱅크": 10504,
      "아침": 10505,
      "벌금": 10506,
      "경찰이": 10507,
      "차별화된": 10508,
      "규명": 10509,
      "분담": 10510,
      "라이브": 10511,
      "관에": 10512,
      "GM": 10513,
      "밖에도": 10514,
      "금강": 10515,
      "3차": 10516,
      "청정": 10517,
      "별도로": 10518,
      "적용해": 10519,
      "통행": 10520,
      "체육회": 10521,
      "소각": 10522,
      "기관에": 10523,
      "막기": 10524,
      "설치된": 10525,
      "만들었다": 10526,
      "경제를": 10527,
      "원천": 10528,
      "제주시": 10529,
      "9시": 10530,
      "취지": 10531,
      "오피스텔": 10532,
      "감독은": 10533,
      "안양": 10534,
      "현장의": 10535,
      "그럼": 10536,
      "처를": 10537,
      "아니한": 10538,
      "연합회": 10539,
      "늘어나": 10540,
      "코스피": 10541,
      "koo": 10542,
      "한의": 10543,
      "놨다": 10544,
      "지원과": 10545,
      "치료를": 10546,
      "석탄": 10547,
      "소로": 10548,
      "적을": 10549,
      "인용": 10550,
      "힘든": 10551,
      "인구가": 10552,
      "속도": 10553,
      "발달": 10554,
      "발사": 10555,
      "군을": 10556,
      "본부장": 10557,
      "kje": 10558,
      "가이드": 10559,
      "민정": 10560,
      "문화체육관광": 10561,
      "ju": 10562,
      "과태": 10563,
      "동맹": 10564,
      "창립": 10565,
      "공학": 10566,
      "접촉": 10567,
      "브라": 10568,
      "kookje": 10569,
      "심이": 10570,
      "연설": 10571,
      "LNG": 10572,
      "알려진": 10573,
      "86": 10574,
      "접목": 10575,
      "센터가": 10576,
      "증가하고": 10577,
      "업계의": 10578,
      "학생들은": 10579,
      "가치가": 10580,
      "도착": 10581,
      "제6": 10582,
      "건조": 10583,
      "김경": 10584,
      "사정": 10585,
      "SU": 10586,
      "저지": 10587,
      "무단": 10588,
      "부천": 10589,
      "본회의": 10590,
      "알려져": 10591,
      "아니냐는": 10592,
      "자리매": 10593,
      "내년부터": 10594,
      "아카데미": 10595,
      "상권": 10596,
      "기본계획": 10597,
      "대중교통": 10598,
      "왜곡": 10599,
      "총장은": 10600,
      "소장": 10601,
      "강좌": 10602,
      "과정에": 10603,
      "위촉": 10604,
      "종류": 10605,
      "1인당": 10606,
      "화하는": 10607,
      "농업인": 10608,
      "그만큼": 10609,
      "마땅": 10610,
      "리얼": 10611,
      "압류": 10612,
      "변호사": 10613,
      "명에게": 10614,
      "리트": 10615,
      "스튜": 10616,
      "잇따라": 10617,
      "해주는": 10618,
      "평화당": 10619,
      "인접": 10620,
      "무기": 10621,
      "불리는": 10622,
      "무려": 10623,
      "올려": 10624,
      "평가했다": 10625,
      "지역구": 10626,
      "점차": 10627,
      "호텔에서": 10628,
      "문화재단": 10629,
      "분석한": 10630,
      "개헌": 10631,
      "현상": 10632,
      "실시한다": 10633,
      "이은": 10634,
      "과실": 10635,
      "위기를": 10636,
      "연구를": 10637,
      "청에": 10638,
      "컨소시": 10639,
      "내기": 10640,
      "점검을": 10641,
      "영향으로": 10642,
      "전원": 10643,
      "조치가": 10644,
      "승을": 10645,
      "안동": 10646,
      "미칠": 10647,
      "한국을": 10648,
      "유권": 10649,
      "유성": 10650,
      "전망했다": 10651,
      "7시": 10652,
      "나가는": 10653,
      "구독": 10654,
      "ed": 10655,
      "개로": 10656,
      "아마": 10657,
      "홀에서": 10658,
      "하니": 10659,
      "발언을": 10660,
      "종전": 10661,
      "근절": 10662,
      "국회가": 10663,
      "결정했다": 10664,
      "4분기": 10665,
      "도시계획": 10666,
      "신공항": 10667,
      "컨소시엄": 10668,
      "국내에서": 10669,
      "우주": 10670,
      "노트": 10671,
      "엄마": 10672,
      "실시했다": 10673,
      "투자증권": 10674,
      "신선": 10675,
      "추락": 10676,
      "포털": 10677,
      "경기에서": 10678,
      "자리에": 10679,
      "극대화": 10680,
      "3D": 10681,
      "선은": 10682,
      "올해부터": 10683,
      "가시": 10684,
      "널드": 10685,
      "리스크": 10686,
      "이어지는": 10687,
      "분과": 10688,
      "아는": 10689,
      "한국당은": 10690,
      "어울": 10691,
      "안팎": 10692,
      "요건": 10693,
      "본인": 10694,
      "인사청문": 10695,
      "내가": 10696,
      "아쉬": 10697,
      "쇼핑몰": 10698,
      "학년도": 10699,
      "학생이": 10700,
      "들어가": 10701,
      "이유가": 10702,
      "확대하고": 10703,
      "보이지": 10704,
      "직을": 10705,
      "97": 10706,
      "2시": 10707,
      "허브": 10708,
      "합리적인": 10709,
      "선정해": 10710,
      "된다면": 10711,
      "이외에도": 10712,
      "강경": 10713,
      "대장": 10714,
      "당국은": 10715,
      "usan": 10716,
      "준수": 10717,
      "국회에": 10718,
      "노무": 10719,
      "배정": 10720,
      "rb": 10721,
      "입지": 10722,
      "중장기": 10723,
      "업체는": 10724,
      "다행": 10725,
      "컨벤션": 10726,
      "공조": 10727,
      "리스트": 10728,
      "사들이": 10729,
      "고지": 10730,
      "엔터테인먼트": 10731,
      "수질": 10732,
      "투자가": 10733,
      "불편을": 10734,
      "슬로": 10735,
      "점의": 10736,
      "줄어들": 10737,
      "재활용": 10738,
      "광장": 10739,
      "수십": 10740,
      "재미": 10741,
      "자리매김": 10742,
      "치러": 10743,
      "위기에": 10744,
      "모를": 10745,
      "쓰고": 10746,
      "제에": 10747,
      "1호": 10748,
      "힐링": 10749,
      "ent": 10750,
      "아닐": 10751,
      "상실": 10752,
      "협력해": 10753,
      "현대자동차": 10754,
      "나마": 10755,
      "장면": 10756,
      "건강보험": 10757,
      "비교해": 10758,
      "전파": 10759,
      "모빌리티": 10760,
      "느낄": 10761,
      "공립": 10762,
      "제7": 10763,
      "활력을": 10764,
      "어로": 10765,
      "엔지": 10766,
      "교육의": 10767,
      "유치를": 10768,
      "떨어졌다": 10769,
      "야외": 10770,
      "포함된": 10771,
      "인생": 10772,
      "결코": 10773,
      "탑재": 10774,
      "단순히": 10775,
      "이영": 10776,
      "적립": 10777,
      "전무": 10778,
      "주민들은": 10779,
      "제품의": 10780,
      "풀이된다": 10781,
      "운영해": 10782,
      "LG전": 10783,
      "전통시장": 10784,
      "세상": 10785,
      "비중은": 10786,
      "곳이다": 10787,
      "교육청은": 10788,
      "oT": 10789,
      "시대에": 10790,
      "신뢰를": 10791,
      "그래서": 10792,
      "실정이다": 10793,
      "성폭력": 10794,
      "살인": 10795,
      "혁신성장": 10796,
      "강행": 10797,
      "반응을": 10798,
      "이던": 10799,
      "매니": 10800,
      "상당의": 10801,
      "무산": 10802,
      "회수": 10803,
      "못할": 10804,
      "연한": 10805,
      "군청": 10806,
      "줄이": 10807,
      "물에": 10808,
      "방향으로": 10809,
      "구의": 10810,
      "고는": 10811,
      "실장": 10812,
      "승진": 10813,
      "도널드": 10814,
      "소의": 10815,
      "유망": 10816,
      "수지": 10817,
      "운영할": 10818,
      "처음이다": 10819,
      "충분한": 10820,
      "것인지": 10821,
      "진행해": 10822,
      "연극": 10823,
      "가능성도": 10824,
      "논의를": 10825,
      "충북일보": 10826,
      "패널": 10827,
      "본부는": 10828,
      "경유": 10829,
      "창조": 10830,
      "뛰어난": 10831,
      "진실": 10832,
      "busan": 10833,
      "췄다": 10834,
      "트렌드": 10835,
      "인사를": 10836,
      "상품권": 10837,
      "가슴": 10838,
      "선에": 10839,
      "주민의": 10840,
      "조사에": 10841,
      "귀농": 10842,
      "고향": 10843,
      "이기도": 10844,
      "동남": 10845,
      "배려": 10846,
      "연계한": 10847,
      "유플러스": 10848,
      "대전시": 10849,
      "게다가": 10850,
      "구글": 10851,
      "받침": 10852,
      "상향": 10853,
      "국토부": 10854,
      "베스트": 10855,
      "17개": 10856,
      "대책이": 10857,
      "9천": 10858,
      "수산물": 10859,
      "형식": 10860,
      "가능하며": 10861,
      "바꿔": 10862,
      "그리": 10863,
      "신의": 10864,
      "응원": 10865,
      "일원": 10866,
      "집값": 10867,
      "별도의": 10868,
      "DC": 10869,
      "취급": 10870,
      "선포": 10871,
      "주목된다": 10872,
      "중도": 10873,
      "하이닉": 10874,
      "MW": 10875,
      "악의": 10876,
      "전경": 10877,
      "IoT": 10878,
      "계절": 10879,
      "의혹이": 10880,
      "참고": 10881,
      "고소": 10882,
      "에듀": 10883,
      "매출이": 10884,
      "과연": 10885,
      "고기": 10886,
      "업체에": 10887,
      "용역을": 10888,
      "완전히": 10889,
      "상대방": 10890,
      "동아리": 10891,
      "추첨": 10892,
      "기술이": 10893,
      "로나": 10894,
      "고객이": 10895,
      "얘기다": 10896,
      "제8": 10897,
      "이제는": 10898,
      "인다": 10899,
      "총회": 10900,
      "과제를": 10901,
      "상금": 10902,
      "소매": 10903,
      "특별자치": 10904,
      "지금은": 10905,
      "활력": 10906,
      "119": 10907,
      "나아": 10908,
      "자격증": 10909,
      "훈련을": 10910,
      "안에서": 10911,
      "정수": 10912,
      "20년": 10913,
      "재판부는": 10914,
      "전반에": 10915,
      "추모": 10916,
      "조언": 10917,
      "직원이": 10918,
      "이뤄진": 10919,
      "찾기": 10920,
      "이전에": 10921,
      "남용": 10922,
      "부총리": 10923,
      "재가": 10924,
      "3층": 10925,
      "납품": 10926,
      "그럼에도": 10927,
      "있으므로": 10928,
      "탐방": 10929,
      "한은": 10930,
      "강도": 10931,
      "유효": 10932,
      "경비": 10933,
      "새벽": 10934,
      "srb": 10935,
      "꿈을": 10936,
      "소중한": 10937,
      "민주당은": 10938,
      "회사는": 10939,
      "심히": 10940,
      "나타나": 10941,
      "검사를": 10942,
      "NA": 10943,
      "향한": 10944,
      "긴장": 10945,
      "증여": 10946,
      "음료": 10947,
      "높아지고": 10948,
      "공포": 10949,
      "여명": 10950,
      "바이러스": 10951,
      "탄력": 10952,
      "금리를": 10953,
      "차량을": 10954,
      "신속한": 10955,
      "산업이": 10956,
      "낸다": 10957,
      "협상을": 10958,
      "교육지원": 10959,
      "행사로": 10960,
      "동네": 10961,
      "수령": 10962,
      "일본이": 10963,
      "제일": 10964,
      "검찰에": 10965,
      "메시지를": 10966,
      "SBS": 10967,
      "엄격": 10968,
      "스에서": 10969,
      "4명": 10970,
      "절차에": 10971,
      "수거": 10972,
      "동해": 10973,
      "란히": 10974,
      "수에": 10975,
      "구체적으로": 10976,
      "세의": 10977,
      "대학원": 10978,
      "특징이다": 10979,
      "알리는": 10980,
      "경북도": 10981,
      "ECD": 10982,
      "받아야": 10983,
      "이하의": 10984,
      "선보였다": 10985,
      "치게": 10986,
      "강화해": 10987,
      "OECD": 10988,
      "데도": 10989,
      "면에서": 10990,
      "기술과": 10991,
      "자료에": 10992,
      "달했다": 10993,
      "갈등을": 10994,
      "후에": 10995,
      "화한": 10996,
      "디아": 10997,
      "미흡": 10998,
      "크리스": 10999,
      "금액을": 11000,
      "제안했다": 11001,
      "법과": 11002,
      "학기": 11003,
      "독서": 11004,
      "무용": 11005,
      "관행": 11006,
      "정무": 11007,
      "출생": 11008,
      "맡은": 11009,
      "학생들에게": 11010,
      "레이드": 11011,
      "IM": 11012,
      "현대중공업": 11013,
      "비아": 11014,
      "갖추고": 11015,
      "층의": 11016,
      "정의당": 11017,
      "900": 11018,
      "수많은": 11019,
      "부분을": 11020,
      "공개된": 11021,
      "권익": 11022,
      "니아": 11023,
      "포트": 11024,
      "이라면서": 11025,
      "82": 11026,
      "플라스": 11027,
      "지자": 11028,
      "아이템": 11029,
      "5명": 11030,
      "신고를": 11031,
      "학을": 11032,
      "하위": 11033,
      "구조를": 11034,
      "성격": 11035,
      "지속가능한": 11036,
      "높게": 11037,
      "송도": 11038,
      "시작해": 11039,
      "케이션": 11040,
      "섬유": 11041,
      "그려": 11042,
      "보좌": 11043,
      "판사": 11044,
      "민관": 11045,
      "우승을": 11046,
      "맥주": 11047,
      "매체": 11048,
      "분양가": 11049,
      "매월": 11050,
      "동이": 11051,
      "그렇게": 11052,
      "나주": 11053,
      "성실": 11054,
      "투자자": 11055,
      "노력이": 11056,
      "tv": 11057,
      "깨끗": 11058,
      "영광": 11059,
      "방안도": 11060,
      "스타일": 11061,
      "LG유플러스": 11062,
      "저출산": 11063,
      "비례대표": 11064,
      "5억": 11065,
      "기호일보": 11066,
      "녹색": 11067,
      "확대할": 11068,
      "선정돼": 11069,
      "조사에서": 11070,
      "노조는": 11071,
      "식물": 11072,
      "착용": 11073,
      "그룹의": 11074,
      "휴대": 11075,
      "철강": 11076,
      "펼치고": 11077,
      "83": 11078,
      "선보일": 11079,
      "방문한": 11080,
      "중고": 11081,
      "요리": 11082,
      "개선에": 11083,
      "되기를": 11084,
      "케이블": 11085,
      "he": 11086,
      "하남": 11087,
      "않게": 11088,
      "부분이": 11089,
      "시내버스": 11090,
      "늦게": 11091,
      "정말": 11092,
      "현수": 11093,
      "탓에": 11094,
      "란드": 11095,
      "유력": 11096,
      "문제다": 11097,
      "부합": 11098,
      "택지": 11099,
      "해마다": 11100,
      "전시회": 11101,
      "차기": 11102,
      "동영상": 11103,
      "른다": 11104,
      "스테이": 11105,
      "대목": 11106,
      "청의": 11107,
      "프로모": 11108,
      "상태에서": 11109,
      "ht": 11110,
      "긍정적인": 11111,
      "영농": 11112,
      "2015": 11113,
      "잡아": 11114,
      "기관으로": 11115,
      "레드": 11116,
      "공부": 11117,
      "박사": 11118,
      "외면": 11119,
      "공영": 11120,
      "소감을": 11121,
      "석을": 11122,
      "넓은": 11123,
      "금의": 11124,
      "예방을": 11125,
      "국가의": 11126,
      "실종": 11127,
      "상정": 11128,
      "퍼포": 11129,
      "20여": 11130,
      "담고": 11131,
      "플라스틱": 11132,
      "나다": 11133,
      "사건이": 11134,
      "위임": 11135,
      "공정한": 11136,
      "출자": 11137,
      "내놓은": 11138,
      "연내": 11139,
      "성장률": 11140,
      "위원회에": 11141,
      "올해도": 11142,
      "농림축산": 11143,
      "감안하면": 11144,
      "3위": 11145,
      "4억": 11146,
      "서초": 11147,
      "퍼런": 11148,
      "이용객": 11149,
      "대결": 11150,
      "아웃": 11151,
      "입어": 11152,
      "정당한": 11153,
      "소셜": 11154,
      "대표의": 11155,
      "미국은": 11156,
      "선정했다": 11157,
      "지적이다": 11158,
      "지검": 11159,
      "별도": 11160,
      "수험": 11161,
      "일관": 11162,
      "보가": 11163,
      "뒷받침": 11164,
      "리조": 11165,
      "ea": 11166,
      "지방자치": 11167,
      "간에": 11168,
      "권리를": 11169,
      "재능": 11170,
      "기획재정부": 11171,
      "대비해": 11172,
      "96": 11173,
      "출원": 11174,
      "요즘": 11175,
      "화의": 11176,
      "2007년": 11177,
      "금감": 11178,
      "와는": 11179,
      "징수": 11180,
      "도시철도": 11181,
      "인센": 11182,
      "세는": 11183,
      "성도": 11184,
      "성장할": 11185,
      "엔지니어": 11186,
      "양주": 11187,
      "지향": 11188,
      "모범": 11189,
      "시설과": 11190,
      "수준에": 11191,
      "SK하이닉": 11192,
      "가축": 11193,
      "예능": 11194,
      "분노": 11195,
      "개발과": 11196,
      "대여": 11197,
      "인센티브": 11198,
      "규모를": 11199,
      "공수": 11200,
      "청와대는": 11201,
      "모델링": 11202,
      "전달했다": 11203,
      "구로": 11204,
      "마련한": 11205,
      "전과": 11206,
      "퍼포먼": 11207,
      "신분": 11208,
      "김치": 11209,
      "상영": 11210,
      "승객": 11211,
      "2022년까지": 11212,
      "아시아나": 11213,
      "진의": 11214,
      "제공해": 11215,
      "시설의": 11216,
      "11개": 11217,
      "모르": 11218,
      "대회에": 11219,
[...]
